the	822963
,	664061
.	440424
of	413250
and	338570
in	300963
to	230046
a	195644
"	115398
as	108410
is	96001
)	94007
(	93964
was	91117
ed	89707
by	82958
for	78778
that	73580
with	73350
on	72996
's	67159
s	62262
from	56435
an	53371
ing	52866
or	50144
are	48614
it	47323
at	44057
were	42451
which	42111
re@@	37558
es	37153
y	36890
be	34507
al	33118
ic	32143
ation	31874
ted	31284
its	30732
this	30345
his	30308
also	27376
has	26664
not	26599
their	26350
have	26177
ated	25814
ts	25316
-@@	25181
had	24909
;	24540
ers	23720
one	23533
ate	23465
ally	23432
he	22766
other	22393
but	22049
th	21646
ity	21426
ly	21383
new	21203
first	21066
ical	20830
in@@	20759
such	20656
city	20475
ies	20471
ded	19979
most	19530
they	19406
ary	18962
many	18644
:	18562
more	18436
been	18259
after	17237
all	17181
un@@	17178
some	17175
en@@	17148
during	16282
who	16067
into	15907
est	15847
red	15820
s@@	15737
ex@@	15734
%	15051
ous	15009
time	14699
used	14484
de@@	14421
than	14416
two	14229
world	14192
ations	14020
over	13856
state	13845
these	13771
states	13624
between	13604
when	13507
ian	13360
als	13286
there	13282
can	13232
ans	13152
may	13040
'	12999
led	12878
only	12783
century	12782
-	12766
con@@	12718
t	12654
ting	12526
as@@	12481
united	12286
war	12244
while	11868
able	11725
l@@	11621
co@@	11576
per@@	11367
lo@@	11299
dis@@	11285
out	11277
ar@@	11199
would	11153
ent	11083
de	11082
age	10910
ist	10879
known	10856
e@@	10642
use	10417
her	10399
c	10392
people	10344
under	10337
tion	10268
including	10144
er	10046
years	9993
ics	9837
i	9809
ac@@	9759
/	9736
us	9731
ds	9708
se@@	9654
about	9635
im@@	9630
]	9621
ding	9616
government	9613
ment	9613
[	9606
al@@	9589
however	9572
both	9494
gre@@	9459
ished	9364
ad@@	9310
d	9255
became	9195
pro@@	9150
o@@	9094
ant	9032
ism	9009
early	8915
les	8869
well	8803
west	8719
through	8719
system	8658
later	8646
m	8614
w@@	8614
year	8553
called	8550
since	8476
y@@	8438
d@@	8429
up	8374
c@@	8342
made	8320
g@@	8289
pre@@	8268
com@@	8224
a@@	8203
t@@	8179
part	8150
no	8091
where	8044
number	8023
tive	7996
million	7946
population	7874
american	7869
po@@	7861
national	7856
sub@@	7855
0s	7812
north	7812
so@@	7761
ter@@	7698
being	7591
ants	7566
often	7561
ating	7523
ents	7522
three	7495
polit@@	7484
coun@@	7480
them	7468
major	7428
power	7399
tions	7388
music	7375
at@@	7364
ic@@	7362
ti@@	7331
h	7325
ms	7302
em@@	7274
several	7273
estab@@	7267
university	7249
ho@@	7248
r@@	7211
produc@@	7200
land	7200
british	7141
el@@	7134
area	7122
des	7059
south	7047
li@@	7025
ors	6970
b@@	6904
form	6883
b	6849
n@@	6841
di@@	6813
ently	6780
like	6765
period	6757
p@@	6753
day	6749
although	6748
sp@@	6703
any	6654
ws	6624
qu@@	6578
based	6576
th@@	6562
against	6531
ities	6528
fe@@	6513
e	6493
because	6486
then	6478
french	6463
until	6403
ch	6399
pl@@	6383
large	6383
ce	6345
larg@@	6344
public	6339
ap@@	6329
cit@@	6328
ings	6307
each	6306
no@@	6288
so	6254
it@@	6251
ive	6232
car@@	6204
h@@	6193
ely	6193
ned	6184
ab@@	6183
ages	6165
develop@@	6159
high	6132
ters	6119
ro@@	6117
x	6103
dec@@	6084
country	6080
ain	6065
include	6060
began	6047
ter	6043
empire	6034
provi@@	6028
school	5994
be@@	5994
der	5980
second	5971
ved	5967
end	5964
i@@	5900
law	5890
around	5886
could	5874
east	5871
those	5868
st@@	5860
an@@	5855
will	5811
western	5801
within	5796
$	5785
er@@	5773
among	5771
e-@@	5769
le	5751
before	5731
work	5719
res@@	5698
if	5665
king	5660
par@@	5659
ates	5652
op@@	5633
found	5631
same	5619
church	5601
ses	5593
on@@	5590
1	5582
international	5578
general	5564
cre@@	5564
group	5561
john	5561
language	5546
ish	5531
f@@	5511
ship	5473
inclu@@	5467
gener@@	5466
very	5462
great	5451
much	5446
increas@@	5428
ine	5428
modern	5428
fo@@	5413
u.s.	5412
over@@	5408
ul@@	5389
succes@@	5366
military	5359
3	5341
act	5338
inter@@	5338
ant@@	5335
european	5323
way	5317
ek	5312
si@@	5309
she	5301
man	5287
the@@	5286
mon@@	5283
gen@@	5281
ese	5271
according	5241
v@@	5240
je@@	5206
ry	5190
army	5157
life	5147
line	5145
less	5145
k	5138
development	5102
pe@@	5082
am@@	5065
ons	5064
high@@	5061
now	5047
n	5044
due	5039
different	5033
ments	5025
ol@@	5019
ample	5017
ver@@	5015
2	5010
name	4989
did	4984
following	4978
even	4955
tr@@	4949
chinese	4935
another	4932
ent@@	4913
late	4905
europe	4903
vo@@	4899
cated	4891
bil@@	4885
res	4873
el	4857
formed	4851
house	4845
me@@	4836
ence	4830
english	4815
u@@	4814
needed	4801
four	4792
bo@@	4740
te@@	4737
common	4735
trans@@	4726
set	4722
sive	4714
home	4697
is@@	4691
iz@@	4691
ach@@	4689
ur@@	4684
him	4671
place	4671
roman	4666
do	4659
ide@@	4656
cent	4655
group@@	4652
china	4650
german	4649
what	4648
president	4646
j@@	4646
ically	4638
control	4618
still	4611
league	4603
non-@@	4589
central	4564
tries	4560
histor@@	4542
areas	4537
own	4529
stat@@	4523
sian	4520
est@@	4517
species	4513
important	4509
using	4503
company	4502
air	4500
along	4494
ut@@	4488
prim@@	4488
sed	4480
to@@	4446
human	4435
pol@@	4428
water	4423
main@@	4414
region	4411
fied	4395
history	4393
go@@	4392
son	4384
ag@@	4382
season	4377
religi@@	4373
posed	4372
he@@	4372
forces	4370
ch@@	4363
france	4357
cur@@	4355
m@@	4346
contr@@	4309
or@@	4299
ful	4282
term	4269
local	4263
sol@@	4261
mar@@	4252
our	4252
ber@@	4249
considered	4247
order	4247
tic	4233
light	4227
london	4210
le@@	4205
ty	4200
small	4170
l	4167
for@@	4164
signific@@	4161
oper@@	4161
ber	4159
social	4158
war@@	4154
court	4146
ear@@	4146
ne@@	4143
mo@@	4130
z@@	4121
ast	4117
pr@@	4112
ger@@	4101
ec@@	4100
members	4093
ps	4087
union	4087
york	4080
p	4072
st	4063
back	4048
ri@@	4042
eg@@	4037
bi@@	4035
ology	4032
party	4014
r	4013
ance	3992
mer@@	3990
times	3986
vari@@	3963
es@@	3956
lat@@	3938
per	3925
brit@@	3922
te	3918
dev@@	3908
pur@@	3907
treat@@	3900
federal	3899
town	3897
ial	3896
become	3881
gr@@	3880
force	3874
resul@@	3863
men	3863
various	3861
held	3853
ist@@	3852
though	3850
long	3844
india	3843
mat@@	3839
film	3832
island	3831
ar	3827
death	3820
old	3818
ological	3818
out@@	3807
ality	3802
bed	3794
x@@	3790
il@@	3787
five	3783
energy	3779
et@@	3775
tradition@@	3769
ph@@	3763
q@@	3729
pic@@	3710
her@@	3710
f	3704
ative	3700
bc	3695
support	3688
rus@@	3684
la	3683
ve	3682
ia	3680
tor@@	3665
ren@@	3663
10	3659
col@@	3659
ged	3649
cu@@	3649
under@@	3647
usually	3646
ols	3643
center	3638
cas@@	3635
charac@@	3634
refer@@	3619
bor@@	3614
eastern	3608
af@@	3608
ized	3600
thro@@	3595
service	3593
ying	3578
ton	3573
ure	3569
ties	3567
domin@@	3566
liter@@	3566
ma@@	3565
val@@	3564
u	3542
took	3541
tain@@	3540
side	3536
5	3534
popular	3527
ions	3524
k@@	3522
family	3522
kingdom	3509
without	3508
nat@@	3500
former	3469
tional	3457
bar@@	3457
su@@	3449
education	3441
um	3435
ced	3432
ning	3427
tur@@	3426
scho@@	3416
last	3415
publ@@	3414
ther@@	3409
economic	3407
continued	3404
building	3400
built	3392
others	3387
england	3387
2010	3386
ii	3381
ual	3376
la@@	3376
ars	3369
us@@	3364
et	3361
aver@@	3360
main	3351
bur@@	3349
september	3347
river	3339
4	3330
ult	3330
third	3328
ability	3321
culture	3317
pri@@	3317
ugh@@	3315
capital	3307
middle	3307
research	3306
ici@@	3305
du@@	3304
influ@@	3302
god	3297
down	3292
top	3290
ins	3288
effec@@	3281
pat@@	3273
can@@	3272
southern	3272
id@@	3272
further	3268
northern	3268
iv@@	3265
viet	3258
white	3252
field	3243
cy	3240
id	3238
ice	3236
college	3235
ou@@	3235
bs	3233
art	3231
acy	3227
se	3224
8	3220
att@@	3218
point	3216
single	3209
polic@@	3205
march	3204
america	3202
19@@	3197
den@@	3195
o	3194
20@@	3192
har@@	3188
came	3184
process	3180
royal	3169
mid@@	3168
arch@@	3162
june	3162
econom@@	3159
few	3158
action	3152
ha@@	3148
sts	3148
ase	3146
children	3141
released	3138
works	3130
parts	3130
especially	3128
cap@@	3128
black	3126
aliz@@	3125
unded	3122
tu@@	3121
ast@@	3117
tors	3116
said	3114
cor@@	3113
total	3107
janu@@	3097
cities	3095
commun@@	3093
placed	3087
jul@@	3086
lar@@	3078
recor@@	3078
original	3074
republic	3068
7@@	3068
ce@@	3064
ty@@	3055
near	3052
sur@@	3051
ir@@	3049
systems	3046
fin@@	3046
2008	3045
5@@	3039
fac@@	3034
official	3031
ci@@	3030
ues	3025
sequ@@	3024
spe@@	3015
production	3015
relat@@	3013
new@@	3012
similar	3008
rule	3005
make	2996
mand@@	2995
rat@@	2993
octo@@	2992
head	2992
council	2988
2013	2984
ad	2972
study	2970
char@@	2964
free	2962
form@@	2961
4@@	2961
sion	2956
previ@@	2951
standard	2950
rights	2950
ements	2948
series	2936
battle	2933
body	2933
game	2927
played	2921
ser@@	2919
up@@	2918
2009	2917
ks	2908
saw	2906
separ@@	2905
man@@	2904
t-@@	2898
women	2896
ten@@	2895
d-@@	2890
desig@@	2888
colon@@	2883
gover@@	2883
ess	2882
ited	2877
days	2873
thus	2872
students	2872
named	2870
am	2868
book	2858
2011	2857
compan@@	2852
ca@@	2848
nor@@	2848
ser	2845
park	2838
ling	2837
ered	2837
origin@@	2834
natural	2834
created	2832
emper@@	2830
ion	2830
consist@@	2827
ately	2825
ists	2820
ran@@	2818
level	2812
ness	2808
every	2808
frequ@@	2807
6@@	2805
avail@@	2804
20	2803
wor@@	2802
speci@@	2799
best	2793
sea	2788
compar@@	2787
langu@@	2786
present	2777
sometimes	2775
tain	2774
win@@	2772
descri@@	2771
see	2771
major@@	2769
ked	2763
crit@@	2761
dence	2756
paris	2753
making	2750
april	2749
ob@@	2745
ember	2736
dition	2734
rather	2733
today	2731
sing	2730
quired	2726
higher	2726
team	2725
particularly	2722
having	2721
6	2716
rec@@	2715
record	2715
tro@@	2714
show	2714
ature	2713
common@@	2709
role	2708
por@@	2707
en	2707
ann@@	2707
estim@@	2707
spread	2704
off	2703
come	2703
cultural	2700
sup@@	2697
take	2695
right	2695
given	2695
al-@@	2689
suppor@@	2688
15	2688
cathol@@	2686
bre@@	2686
queen	2686
2007	2684
influence	2682
ement	2679
ta@@	2679
pu@@	2679
sen@@	2678
ming	2675
science	2674
mac@@	2672
november	2670
alism	2668
football	2666
sou@@	2666
case	2666
ye@@	2666
japan@@	2659
offici@@	2658
lin@@	2658
2014	2657
2012	2654
span@@	2652
ences	2647
7	2642
street	2642
anti@@	2638
equ@@	2635
across	2632
august	2630
ders	2627
cr@@	2627
sho@@	2625
received	2621
range	2618
activit@@	2617
med	2615
lion	2614
represent@@	2612
sto@@	2610
schol@@	2605
gu@@	2603
victoria	2599
min@@	2597
african	2596
adop@@	2590
low	2590
lied	2586
lead@@	2586
ets	2583
sent	2581
g	2580
cy@@	2580
era	2579
ow@@	2577
ships	2577
sett@@	2575
current	2573
'@@	2572
games	2570
won	2568
rate	2567
clo@@	2566
club	2555
civil	2546
suff@@	2544
americ@@	2542
flo@@	2541
soci@@	2541
album	2540
associ@@	2539
ces	2538
om@@	2532
indepen@@	2530
laun@@	2530
ing@@	2525
trade	2524
introduc@@	2524
ign	2523
grow@@	2523
should	2523
put	2520
just	2519
left	2515
tor	2513
sexual	2512
cen@@	2506
beyonce	2506
mi@@	2504
society	2500
date	2496
ak@@	2489
half	2488
writ@@	2482
ot@@	2480
either	2478
lab@@	2472
2006	2469
quar@@	2466
ls	2464
mus@@	2464
rock	2461
ched	2457
style	2455
w	2454
&	2450
ational	2450
office	2442
rac@@	2441
ving	2440
islands	2439
defe@@	2439
ously	2438
itself	2438
identi@@	2437
des@@	2430
community	2426
25	2425
execu@@	2425
nations	2423
gradu@@	2422
8@@	2410
trib@@	2407
9	2406
ancient	2405
upon	2404
private	2403
ats	2403
africa	2401
uses	2398
wh@@	2398
ed@@	2397
port	2397
ied	2392
asia	2388
written	2387
organiz@@	2380
down@@	2379
must	2377
pan@@	2375
indian	2365
movement	2361
rul@@	2361
legal	2357
dynast@@	2355
tri@@	2354
hy@@	2353
north@@	2351
theory	2350
bal@@	2346
fall	2345
initi@@	2341
foreign	2341
12	2338
str@@	2337
play	2336
ns	2336
ite	2336
market	2335
there@@	2334
16@@	2333
ion@@	2332
does	2330
live	2330
followed	2328
media	2327
sity	2326
gro@@	2325
certain	2321
class	2318
febru@@	2317
tively	2316
lands	2311
announced	2311
ile	2309
health	2306
camp@@	2301
services	2301
mor@@	2301
100	2292
distinc@@	2292
records	2291
we	2290
class@@	2288
hi@@	2284
ge@@	2278
lower	2272
ges	2272
sions	2270
reduc@@	2268
ture	2268
wish	2267
despite	2266
var@@	2262
data	2252
almost	2247
ices	2242
beginning	2242
30	2241
ab	2241
food	2237
instead	2236
independent	2235
fre@@	2232
change	2231
der@@	2230
cro@@	2229
ligh@@	2222
industry	2222
exten@@	2222
wer	2222
bom@@	2221
video	2215
control@@	2214
greater	2214
ches	2213
ports	2210
george	2209
nas@@	2208
sam@@	2207
environ@@	2204
latin	2204
os	2203
far	2202
japan	2201
rest	2200
2015	2198
themselves	2195
ens	2194
seen	2194
leading	2192
defin@@	2191
six	2191
financial	2190
elec@@	2187
technology	2182
remained	2180
position	2180
space	2177
gi@@	2176
oc@@	2176
changes	2173
combin@@	2171
centur@@	2168
sh@@	2166
least	2162
sources	2160
christian	2156
aircraft	2153
ge	2153
television	2153
ide	2151
brought	2151
far@@	2150
repor@@	2148
county	2139
once	2137
ves	2132
depen@@	2131
construction	2130
pres@@	2129
ang@@	2129
sus	2129
tion@@	2126
events	2124
,000	2123
arily	2122
ained	2121
v	2120
bio@@	2120
information	2115
ma	2113
9@@	2109
allo@@	2109
ottoman	2108
district	2108
play@@	2107
br@@	2107
um@@	2106
rome	2105
thought	2102
revolution	2101
next	2100
ians	2100
four@@	2095
station	2093
wood	2093
signed	2088
department	2086
word	2083
regul@@	2083
served	2081
km	2080
cast	2077
hu@@	2077
pe	2076
ium	2076
artist@@	2073
appe@@	2071
final	2069
square	2067
gar@@	2067
2005	2066
active	2065
haven	2064
lim@@	2064
11	2061
hun@@	2061
y-@@	2060
constitution	2058
road	2057
allowed	2055
eventually	2054
gel@@	2051
protest@@	2050
green	2046
san	2046
ven@@	2044
fun@@	2043
again	2042
fr@@	2037
business	2035
unds	2034
mi	2033
father	2033
som@@	2033
view	2030
nor	2027
together	2023
particular	2022
ft	2021
budd@@	2020
ament	2020
occu@@	2019
z	2018
do@@	2017
status	2017
lines	2013
ie@@	2013
ays	2013
tan@@	2011
commercial	2011
organis@@	2010
han	2008
buildings	2008
pas@@	2007
ring	2007
started	2004
person	1999
incre@@	1998
outside	1997
addit@@	1997
phy	1996
possible	1996
territory	1996
ect	1994
how	1992
source	1991
sal@@	1991
approxim@@	1989
police	1986
design	1985
ident@@	1984
bel@@	1983
bac@@	1983
powers	1980
13@@	1979
wrote	1979
emer@@	1978
capac@@	1978
off@@	1978
practic@@	1977
emplo@@	1976
test@@	1975
little	1975
ay	1974
division	1972
consum@@	1972
key	1971
14@@	1971
ety	1969
ib@@	1968
il	1964
electr@@	1963
tour@@	1963
conduc@@	1962
exist@@	1961
sha@@	1959
16	1957
numer@@	1957
member	1957
pper	1956
air@@	1956
forced	1955
ional	1955
connec@@	1954
15@@	1954
18@@	1952
appro@@	1951
resi@@	1951
tural	1950
ece	1945
living	1942
3@@	1941
limited	1939
museum	1939
18	1936
association	1936
enti@@	1935
stor@@	1934
minister	1934
pt	1929
av@@	1926
william	1925
effect	1920
occur@@	1917
nation	1914
10@@	1914
scientif@@	1914
radio	1913
fa@@	1909
electric	1909
died	1908
mis@@	1907
uk	1906
wed	1903
ops	1899
mal@@	1896
program	1895
cent@@	1895
dance	1891
ict	1891
ten	1891
whose	1890
vol@@	1890
taken	1889
ise	1889
attemp@@	1889
trad@@	1887
th-@@	1885
12@@	1882
au@@	1880
recent	1880
studies	1879
cat@@	1879
atory	1875
ods	1874
regions	1874
centre	1872
tar@@	1871
imperial	1870
mas@@	1869
above	1867
individual	1866
els	1866
mexico	1866
compo@@	1865
working	1865
g.	1865
network	1864
mechan@@	1863
specif@@	1862
host@@	1861
prom@@	1858
words	1857
dut@@	1855
techn@@	1851
reached	1851
australia	1844
board	1843
passed	1841
clim@@	1841
os@@	1841
reg@@	1839
aged	1839
architecture	1834
open	1830
offic@@	1828
dw@@	1828
super@@	1827
self-@@	1826
worl@@	1824
mother	1822
chop@@	1821
model	1820
organization	1818
cal@@	1817
domest@@	1817
ators	1815
went	1814
german@@	1813
leg@@	1812
od	1812
special	1812
sor	1811
ethn@@	1811
atten@@	1808
hold	1808
broad@@	1807
run	1807
hol@@	1806
head@@	1805
ition	1805
islam@@	1805
st.	1804
program@@	1803
ishing	1803
insec@@	1803
lost	1802
born	1801
orig@@	1801
an-@@	1801
anc@@	1800
caused	1799
ah	1798
means	1795
divi@@	1795
vie@@	1791
objec@@	1791
itali@@	1785
ali	1783
never	1782
grand	1782
respec@@	1779
airport	1778
chur@@	1778
strong	1773
dest	1773
declar@@	1772
tab@@	1772
opened	1771
site	1768
actions	1767
claimed	1767
moved	1765
14	1765
han@@	1764
...	1763
affec@@	1761
alist@@	1761
close	1760
canada	1759
constitu@@	1758
e.@@	1757
universit@@	1756
qui@@	1755
religion	1755
color	1753
mostly	1753
pi@@	1752
aries	1751
earlier	1751
secon@@	1750
ste@@	1748
use@@	1748
race	1744
sound	1744
ra@@	1743
philoso@@	1742
ker@@	1741
fully	1740
wing	1740
serv@@	1740
nearly	1740
authority	1738
ital@@	1737
birds	1737
summer	1737
low@@	1735
meth@@	1734
ys	1734
meaning	1734
months	1734
amp@@	1734
40	1733
urs	1733
child	1732
ke	1730
ised	1729
ner	1729
eig@@	1728
napoleon	1726
direc@@	1725
ingly	1723
celebr@@	1721
land@@	1719
sch@@	1719
text	1719
present@@	1718
conver@@	1718
proces@@	1716
attack	1714
ular	1714
author@@	1713
operations	1713
counter@@	1712
urban	1710
shi@@	1708
ony	1705
nature	1702
fle@@	1700
ply	1700
ids	1699
type	1696
evidence	1696
s-@@	1695
song	1695
ways	1694
administration	1693
govern@@	1693
assem@@	1692
sure	1689
gave	1689
pon@@	1684
tains	1684
medical	1683
17@@	1681
soon	1681
bit	1681
larger	1681
50	1680
title	1679
hood	1679
ever	1679
base	1677
teams	1676
wide	1673
secre@@	1672
republic@@	1672
sor@@	1671
eth@@	1668
material	1666
etic	1665
tit@@	1663
list@@	1663
pa@@	1662
trac@@	1662
relativ@@	1661
mental	1660
palace	1660
ines	1659
ites	1654
level@@	1653
lies	1653
killed	1653
election	1653
elling	1651
rise	1651
val	1649
good	1644
regional	1644
move	1644
return	1642
app@@	1642
hibit@@	1641
gen	1640
spec@@	1640
tex@@	1639
fer@@	1639
vi@@	1639
involved	1637
boston	1637
windows	1635
hall	1634
prime	1633
a-@@	1632
mary	1632
israel	1631
blo@@	1630
bas@@	1630
sco@@	1629
ains	1626
ong@@	1622
24	1622
bro@@	1620
ish@@	1619
ator	1617
gal@@	1616
personal	1616
17	1615
help	1615
dri@@	1615
minor@@	1614
ireland	1614
ac	1613
pointed	1613
vers	1613
leader	1612
sis	1611
tes	1610
post@@	1610
dr@@	1608
plant	1608
differ@@	1608
complex	1607
vis@@	1607
cell@@	1607
collec@@	1603
ze@@	1603
mains	1602
slav@@	1601
chief	1600
structure	1598
universal	1597
individu@@	1596
sely	1594
security	1593
invol@@	1592
congress	1592
ric@@	1588
irs	1587
hom@@	1585
acks	1584
elements	1583
oil	1583
whether	1582
micro@@	1582
short	1582
produce	1581
phas@@	1580
orthodo@@	1579
da	1578
release	1577
cause	1574
2@@	1574
analy@@	1573
away	1573
mass	1571
knowledge	1571
pal@@	1570
regar@@	1569
cup	1567
bus@@	1567
sar@@	1566
grap@@	1563
full	1561
seven	1560
critic@@	1560
manufac@@	1559
wn	1558
2004	1558
front	1557
by@@	1555
gad@@	1555
neighbor@@	1554
sel@@	1554
arab@@	1553
bl@@	1553
via	1553
cour@@	1553
animals	1552
dents	1551
apple	1551
russia	1551
ering	1550
stone	1548
anti-@@	1547
charles	1547
smaller	1544
version	1544
young	1544
tradition	1544
alist	1543
ands	1543
fic@@	1542
compon@@	1541
code	1538
future	1535
famous	1535
promin@@	1534
computer	1533
ake	1530
ta	1530
arts	1530
earth	1530
migr@@	1528
event	1527
fore	1523
contain@@	1522
sum@@	1521
sla@@	1521
ley	1520
himself	1519
go	1519
supreme	1519
ground	1517
character	1517
past	1517
sing@@	1516
fil@@	1516
ana	1515
daf@@	1515
practice	1514
lic@@	1514
poly@@	1514
2000	1514
sa@@	1513
south@@	1513
pen@@	1512
response	1511
mic	1511
contempor@@	1510
ives	1509
direct	1508
continu@@	1507
global	1506
directly	1506
popul@@	1505
fu@@	1505
features	1504
13	1503
you	1502
ath@@	1502
men@@	1502
ban@@	1501
lis@@	1500
band	1498
too	1498
stance	1497
lu@@	1495
met@@	1495
wi@@	1493
fact	1491
performance	1489
comes	1489
ight	1488
lers	1486
bis@@	1486
nation@@	1485
re-@@	1485
campus	1484
rang@@	1484
high-@@	1483
experience	1483
mouth	1483
behavi@@	1482
del@@	1479
changed	1477
believed	1476
interest	1475
institutions	1474
ju@@	1469
reco@@	1468
op	1467
sports	1465
invest@@	1465
ts@@	1465
armen@@	1464
concept	1464
dat@@	1461
princip@@	1459
professional	1459
vent	1459
store	1457
scale	1455
james	1454
amount	1453
antly	1453
vac@@	1452
report	1449
washington	1449
solar	1448
physical	1448
industrial	1447
ging	1447
digital	1445
500	1444
night	1443
agreement	1442
turn	1441
lim	1440
size	1439
nu@@	1438
speed	1437
ishment	1437
ig@@	1436
longer	1436
ly@@	1435
func@@	1433
co-@@	1432
if@@	1431
21	1431
bell	1430
tal@@	1429
cer@@	1427
numbers	1427
e.	1426
les@@	1425
coast	1425
paul	1424
temperature	1421
cot@@	1421
argu@@	1420
try	1420
province	1420
ures	1419
lation	1416
mark	1415
me	1413
tv	1413
ai@@	1412
q	1412
bank	1410
subject	1409
writing	1408
particip@@	1407
nes@@	1406
prince	1405
py@@	1404
mut@@	1404
infec@@	1403
discus@@	1402
mountains	1401
relationship	1400
houses	1399
construc@@	1398
tibet	1398
ths	1396
software	1396
shar@@	1395
yed	1394
person@@	1393
enna	1392
types	1390
ep@@	1390
entire	1389
ble	1388
access	1388
yale	1387
towards	1387
diver@@	1386
compet@@	1385
famili@@	1385
tre@@	1382
carolina	1382
teria	1380
added	1377
swit@@	1377
lead	1376
likely	1375
cru@@	1374
confl@@	1373
problems	1372
don@@	1372
inv@@	1371
training	1371
def@@	1370
19	1369
pre-@@	1368
wers	1367
ius	1367
start	1365
fi@@	1364
henry	1362
sun	1362
philosoph@@	1362
ler	1362
bul@@	1359
list	1358
ko@@	1358
madonna	1358
real	1357
hydro@@	1354
ils	1354
heavy	1354
simil@@	1354
fire	1353
rej@@	1353
paper	1353
migration	1352
returned	1350
ended	1350
institute	1350
itive	1348
trav@@	1348
ke@@	1347
fol@@	1346
hal@@	1345
atlantic	1345
non@@	1344
temper@@	1344
acts	1343
xi@@	1342
tic@@	1342
mission	1341
serve	1340
orient@@	1340
1@@	1339
peace	1339
marked	1338
forming	1338
hours	1338
ire	1338
dom@@	1338
metropolitan	1336
we@@	1336
expres@@	1335
ford	1335
blue	1335
parties	1333
remain@@	1333
bly	1332
always	1332
lived	1330
stations	1328
hand	1326
sec@@	1326
humans	1325
portugu@@	1324
protec@@	1324
jud@@	1322
deriv@@	1321
test	1321
dent	1320
zin@@	1320
pacific	1319
che@@	1318
expan@@	1318
eight	1317
2003	1316
news	1315
elev@@	1314
ster@@	1314
ulti@@	1314
post-@@	1313
demonstr@@	1313
might	1313
whit@@	1312
ca	1312
fy	1311
growing	1310
ideas	1310
disc	1308
plan	1307
cing	1307
un	1307
glass	1306
fur@@	1306
iled	1306
press	1305
comp@@	1305
contin@@	1305
bron@@	1304
ily	1303
wars	1301
mathemat@@	1299
claim@@	1295
project	1295
rel@@	1294
ere@@	1294
200	1293
wealth	1292
og@@	1292
melbourne	1290
iii	1289
legislat@@	1289
materi@@	1285
oklahoma	1285
pel@@	1285
conserv@@	1284
his@@	1284
festival	1283
already	1281
notable	1280
ises	1280
female	1280
relations	1279
names	1279
becoming	1279
with@@	1279
ots	1279
pun@@	1278
tent	1278
birth	1278
eds	1277
atives	1277
territor@@	1276
von	1276
sa	1276
human@@	1275
dings	1275
found@@	1274
cks	1273
ken@@	1273
better	1272
1,@@	1272
mit@@	1272
mosa@@	1271
cost	1270
dor@@	1269
ger	1268
custom@@	1268
wo@@	1267
nomin@@	1267
sense	1266
ai	1265
daily	1264
below	1264
defen@@	1263
architec@@	1263
remain	1263
loss	1263
invasion	1263
discovered	1262
section	1261
medi@@	1261
den	1261
28	1260
lam@@	1260
kar@@	1260
command	1259
tics	1259
conditions	1259
films	1259
value	1258
mov@@	1257
thous@@	1257
dem@@	1256
tary	1256
23	1256
audio	1255
miles	1254
presence	1253
whom	1253
tis@@	1251
indigen@@	1251
ve@@	1251
songs	1251
minist@@	1250
2001	1249
nan@@	1247
tibet@@	1246
table	1246
starting	1246
198@@	1245
musical	1245
concer@@	1245
canadian	1244
soldiers	1244
197@@	1243
encour@@	1242
evol@@	1242
eu@@	1240
photo@@	1237
aded	1237
commit@@	1236
kers	1235
22	1235
radi@@	1234
basic	1234
shor@@	1233
arc@@	1232
yet	1232
pos@@	1232
stan@@	1230
creation	1230
auth@@	1229
rece@@	1229
ental	1229
dna	1228
mers	1228
ton@@	1226
crisis	1226
ya	1225
ha	1224
ver	1223
arly	1222
complete	1221
na	1221
egyp@@	1220
populations	1219
kr@@	1218
ang	1218
complet@@	1216
books	1216
aching	1215
prus@@	1215
speaking	1215
internet	1213
essenti@@	1213
matter	1211
behind	1211
graphy	1210
democr@@	1209
month	1209
berg	1208
od@@	1208
syn@@	1207
observ@@	1207
mel@@	1207
issue	1206
premier	1206
true	1205
formal	1205
thre@@	1204
thir@@	1204
destroy@@	1203
vic	1202
finally	1202
tured	1200
metho@@	1200
eisen@@	1200
my@@	1200
failed	1200
hand@@	1199
stage	1199
dam@@	1199
indicat@@	1199
im	1197
hen@@	1197
tly	1197
committee	1197
course	1197
agreed	1196
ght	1196
survi@@	1196
clubs	1195
christ@@	1194
chemical	1192
ption	1192
vit@@	1191
allow	1191
196@@	1190
saint	1190
valley	1189
taking	1188
't	1188
ago	1187
winter	1186
ones	1185
grew	1184
irish	1184
ann	1184
gs	1184
bat@@	1183
utes	1182
reven@@	1180
medieval	1179
expansion	1178
wil@@	1177
aled	1176
kis@@	1175
brain	1175
gam@@	1174
co	1174
acade@@	1173
dary	1172
management	1171
lement	1171
resistance	1171
redu@@	1171
ory	1171
ah@@	1170
ban	1169
decre@@	1169
vir@@	1169
avenue	1169
fif@@	1168
zer@@	1168
dogs	1167
competition	1167
2002	1166
wards	1166
respon@@	1166
hard	1165
rates	1165
cho@@	1164
money	1164
mission@@	1164
prin@@	1163
issu@@	1163
awards	1163
operation	1160
cade	1160
benef@@	1160
ize	1160
enci@@	1159
spoken	1159
ful@@	1159
lack	1158
nov@@	1158
basis	1157
last@@	1154
sever@@	1154
going	1153
met	1153
ot	1153
dic@@	1152
continent	1152
surface	1152
facilit@@	1151
i.@@	1150
hot	1149
intern@@	1149
ben@@	1149
lord	1149
houston	1148
need	1147
theatre	1147
places	1146
decided	1145
vent@@	1145
gree	1145
dig@@	1145
king@@	1144
beyond	1144
advan@@	1143
io	1143
fer	1143
199@@	1143
potential	1143
thomas	1142
note	1142
ean	1142
black@@	1141
pain	1140
bacter@@	1140
ay@@	1139
foundation	1138
ward	1138
?	1138
robert	1136
acked	1136
mul@@	1135
multiple	1135
ar-@@	1135
attempt	1134
mu@@	1134
library	1134
ocean	1133
end@@	1133
wit@@	1133
korea	1132
quickly	1130
nam@@	1130
stadium	1127
investig@@	1125
difficult	1125
give	1125
bu@@	1124
except	1124
student	1123
content	1123
metal	1122
bes	1122
ra	1121
proto@@	1121
sil@@	1120
ev@@	1120
appeared	1120
dar@@	1120
restric@@	1119
gold	1118
whole	1118
spring	1118
helped	1118
gas	1118
27	1118
eding	1116
holds	1116
thy	1116
eks	1116
bing	1115
sales	1115
reflec@@	1114
joined	1114
inc@@	1113
graphic	1112
di	1112
ak	1111
sin@@	1110
ification	1110
dialec@@	1108
week	1108
efforts	1107
continue	1107
26	1107
ga@@	1107
jesus	1106
existence	1106
giving	1105
hellen@@	1105
expen@@	1105
seg@@	1105
don	1104
0-@@	1104
asian	1101
exclus@@	1101
nine	1100
richard	1100
cha@@	1098
ency	1098
care	1097
gers	1097
ol	1097
generation	1097
idea	1096
tian	1096
las@@	1095
ching	1094
nic@@	1094
bridge	1092
zen@@	1092
dur@@	1091
ment@@	1091
victory	1090
ner@@	1089
room	1089
love	1089
l-@@	1089
selec@@	1089
clear	1089
cul@@	1088
louis	1088
gh@@	1087
dra@@	1087
inst@@	1087
cost@@	1085
ash@@	1085
hor@@	1083
ably	1083
portugal	1082
atures	1082
location	1082
itions	1081
hum@@	1080
equip@@	1080
mm	1080
six@@	1080
lowing	1078
kh@@	1078
exp@@	1077
collection	1075
playing	1075
david	1075
ace@@	1074
dell	1074
jo@@	1074
i-@@	1073
ili@@	1073
disease	1072
ple@@	1071
ech	1070
democratic	1070
80	1069
minor	1068
points	1068
loc@@	1068
belie@@	1067
chem@@	1067
sign@@	1067
az@@	1066
olympic	1066
navy	1065
yo@@	1065
theor@@	1065
older	1064
sim@@	1064
responsible	1063
anthro@@	1063
onic	1063
reve@@	1062
affa@@	1061
albert	1061
classi@@	1061
regular	1061
chicago	1061
gest	1060
60	1060
ni@@	1060
but@@	1059
route	1059
amed	1058
conven@@	1058
ured	1058
projec@@	1058
ped	1057
cs	1056
dan@@	1056
views	1056
issues	1056
ue	1055
ru@@	1055
prefer@@	1054
bay	1054
format	1053
ogy	1053
o-@@	1053
protection	1053
rules	1051
greatest	1051
pressure	1050
definition	1050
account	1050
detroit	1049
continental	1049
running	1049
tation	1048
bann@@	1048
90	1046
mp@@	1045
infr@@	1043
subur@@	1043
memory	1043
vote	1042
instruments	1041
hit	1041
atic	1040
gor@@	1039
pied	1038
property	1038
standing	1037
approach	1037
nes	1037
bers	1036
read@@	1036
find	1035
contribu@@	1034
heart	1033
staff	1031
sent@@	1031
commen@@	1031
fields	1030
hill	1028
distingu@@	1028
long-@@	1028
ae	1027
ne	1027
31	1027
recognized	1027
cross	1026
town@@	1026
star	1025
din@@	1025
aid	1024
viol@@	1023
christian@@	1023
length	1022
mit	1022
descen@@	1022
enough	1020
intended	1020
wel@@	1019
tom@@	1019
aches	1019
cultures	1019
mem@@	1019
wal@@	1019
transpor@@	1019
prussia	1017
ck	1017
lined	1017
dered	1017
tran@@	1017
and@@	1015
mam@@	1014
mil@@	1014
pris@@	1013
contro@@	1012
animal	1012
nuclear	1011
num@@	1010
300	1009
tuc@@	1009
pass	1007
link	1007
deal	1007
mag@@	1006
quer@@	1006
subj@@	1005
ston	1005
ain@@	1005
bill	1004
carried	1004
iron	1003
proper@@	1003
host	1003
turing	1002
employ@@	1001
cathedr@@	1000
ir	1000
mad@@	1000
mountain	999
she@@	999
artist	999
vely	998
visit@@	998
cros@@	997
my	997
share	996
surro@@	996
cut	995
arian	994
fort	994
decision	993
player	993
accepted	993
tele@@	992
revolution@@	992
organ@@	991
strong@@	990
miami	990
communication	990
necessary	990
adap@@	990
sciences	990
wis@@	989
ong	989
story	989
expected	989
rom@@	988
elections	988
hin@@	987
allies	987
reason	987
sy@@	987
focus	986
cab@@	985
wall	984
claim	984
tered	983
cement	983
entered	982
29	982
planned	982
shows	981
bus	981
pit@@	981
to-@@	980
get	980
que	980
olog@@	979
sax@@	979
acted	978
liber@@	977
turned	977
offered	977
iran	977
eded	977
poor	977
.@@	976
naval	976
ware	976
problem	976
raised	975
ners	975
well-@@	974
inten@@	973
mixed	973
fal@@	972
reli@@	972
2,@@	971
appear	971
west@@	970
sector	970
attr@@	969
award	969
aper	969
uran@@	968
part@@	968
ison	967
match	967
communications	967
advanced	966
extended	966
colonial	965
tat@@	965
phon@@	963
kin@@	962
letter	962
mix@@	962
ased	960
ji@@	960
delhi	959
vision	959
tax@@	957
psych@@	957
collap@@	957
vin@@	957
sites	956
refused	956
worked	955
one-@@	954
indi@@	954
on-@@	952
permanent	952
holy	952
upper	951
phase	950
diego	950
ible	949
ba@@	948
fail@@	948
pa	948
beer	948
symbol@@	947
defense	947
del	947
tour	947
freedom	946
round	946
autonom@@	946
simply	946
railway	946
kind	945
net@@	944
peninsula	944
ction	944
medicine	943
bit@@	943
doctr@@	943
roug@@	942
absor@@	942
eigh@@	941
kings	941
alexander	941
win	941
opposition	940
conclu@@	940
ore	940
ade@@	939
integr@@	938
master	938
fir@@	938
ven	938
importance	938
om	937
em	937
flight	937
reasons	936
arch	936
implement@@	936
eti@@	935
star@@	935
fs	935
standards	935
len@@	934
meant	934
extre@@	933
arrang@@	933
1990	933
consol@@	932
unit	932
male	932
geo@@	931
195@@	931
probably	931
magazine	931
1991	931
weeks	930
cell	930
gian	930
kore@@	929
lake	928
great@@	928
armenia	927
genes	927
cover	926
break	924
big	924
comm@@	924
mes@@	924
learning	924
termin@@	924
tower	923
convention	923
formal@@	922
heat	922
opening	922
dog	922
letters	922
strategi@@	921
director	921
corrup@@	921
faith	921
may@@	920
impact	920
predat@@	920
channel	920
pes	919
sun@@	919
say	919
ville	919
sir	919
ik@@	918
philadelphia	918
lit@@	917
purpose	917
accep@@	917
dou@@	916
christ	915
theo@@	915
ell@@	914
marine	914
fa	914
alit@@	913
dly	913
florida	913
toward	910
in-@@	909
swe@@	909
transmit@@	909
byzant@@	909
academy	908
5-@@	908
reserv@@	908
ct	906
wa@@	906
formation	906
australian	904
unding	903
le-@@	902
recogn@@	902
poland	902
niv@@	901
dates	901
fam@@	900
understanding	900
done	899
sem@@	899
chas@@	899
fell	898
meeting	897
193@@	897
appearance	897
sav@@	896
blood	896
seattle	895
indu@@	895
dge	893
simple	893
lan@@	893
pain@@	892
molec@@	892
ba	891
closed	891
popular@@	891
flu@@	891
mc@@	890
damage	890
zone	890
modern@@	890
conference	889
mexic@@	889
call	889
motor	889
moving	888
usb	888
long@@	888
exchange	887
75	887
ign@@	887
intelligence	886
ious	886
settled	886
liberal	885
fighting	885
nin@@	884
decor@@	884
paid	884
lee	883
rail	882
lem@@	882
attention	882
cold	882
ham	880
eng@@	880
cast@@	879
fore@@	879
entertainment	878
intellectu@@	877
hon@@	877
alternative	877
pay@@	876
visit	876
article	876
pop	876
pin@@	876
mark@@	875
ibn	875
phys@@	874
image	874
makes	873
70	873
los@@	872
southampton	872
gain	872
wave	872
sex	871
showed	871
structures	871
back@@	871
sig@@	871
commission	870
cular	870
nis@@	870
1989	869
nd	868
45	868
pap@@	868
son@@	868
fication	867
reform@@	867
vi	867
predic@@	867
km2	867
elimin@@	867
invent@@	867
let	866
amo@@	866
richmond	866
evolution	865
scienti@@	865
banks	865
effic@@	864
+	864
day@@	863
muslim@@	863
isol@@	863
estonia	863
yn@@	861
cm	860
model@@	860
married	859
ien@@	859
rose	858
discovery	858
risk	857
california	857
correspon@@	855
abad	855
concep@@	854
quali@@	854
covered	853
federation	853
sac@@	853
studio	852
sw@@	852
bin@@	852
darwin	852
sust@@	852
vice	851
gram@@	850
administrative	850
moun@@	850
eff@@	848
effort	847
virginia	846
nego@@	846
suggest@@	846
lay@@	846
cler@@	845
cl@@	845
relation@@	844
ordered	844
stri@@	844
concentr@@	843
proper	843
ip@@	841
hospital	841
clar@@	841
coming	840
completely	840
400	840
plans	840
rain@@	840
yu	840
pay	839
kill	839
unique	839
applications	838
rapid	837
dial@@	836
poses	836
deli@@	836
application	835
dic	834
lon@@	833
short@@	833
tical	833
woman	833
actually	833
ali@@	832
extinc@@	832
lor@@	832
engineering	832
ane	831
charge	831
crown	830
ared	830
lying	830
pet@@	830
powerful	829
sc@@	829
agency	829
nintendo	829
direction	829
tons	828
positive	828
sched@@	828
ick@@	827
two-@@	827
tho@@	827
reach	826
1997	826
bird	826
ipod	825
santa	825
mal	825
desert	825
plat@@	824
amb@@	824
mur@@	824
austria	824
mediterran@@	824
fili@@	823
temple	823
hard@@	823
pression	823
floor	822
indic@@	822
weapons	821
break@@	820
glac@@	819
drive	819
things	819
clothing	819
aim@@	819
rein@@	819
protect	819
rem@@	818
initial	818
function	818
hel@@	818
innov@@	817
jun@@	817
capit@@	815
offer	814
mely	813
believe	813
positions	812
weight	810
esis	810
edward	810
spiel@@	809
punk	808
propor@@	808
stances	808
perhaps	807
los	807
crime	807
ologi@@	807
machine	807
ron@@	807
educ@@	806
provinces	806
vili@@	806
here	805
na@@	805
copi@@	805
strength	805
die	805
shared	804
1999	804
connected	804
car	803
distribution	803
va	803
statist@@	803
removed	802
atom@@	802
0.@@	801
negative	801
yan	800
track	800
advantage	800
austri@@	800
hundred	800
35	800
65	800
branch	799
ard@@	799
traffic	798
mayor	798
arri@@	798
situation	798
produ@@	796
prove	796
tito	795
abol@@	795
ka@@	795
aring	794
arms	794
sans@@	794
techniques	794
immediately	793
mac	793
agriculture	792
incorporated	792
marriage	792
classes	792
scotland	792
consul@@	792
face	792
libya	791
hispan@@	791
element	790
succe@@	790
law@@	790
revi@@	790
alliance	789
teen	788
comment@@	788
duke	788
j	788
ordin@@	787
suggested	787
bands	786
ina	786
feet	786
sters	785
insp@@	785
ee	783
determined	783
tt@@	782
cir@@	782
after@@	781
figures	781
leaving	781
target	780
ud@@	780
signal	779
silver	778
riers	777
xbox	777
mol@@	777
aro@@	777
corporation	777
rapid@@	777
post	777
pressed	776
heritage	776
ris@@	775
ck@@	775
texas	774
strateg@@	774
ery	774
carry	773
online	772
pp@@	772
heavily	772
gene	771
affir@@	771
reading	771
tried	771
spent	771
lights	771
ach	771
nal	771
cle@@	771
prison@@	771
perio@@	771
progres@@	768
denomin@@	768
0	768
reform	768
tempor@@	768
receiv@@	767
ard	767
net	766
thes@@	766
supp@@	766
wer@@	766
chuan	766
apollo	765
consider@@	765
relative	765
adver@@	765
adol@@	764
kept	764
explo@@	764
dro@@	763
alone	763
read	762
rural	762
brother	761
histori@@	761
ier	761
idol	761
keep	761
wanted	761
4-@@	761
rese@@	761
managed	761
inven@@	760
price	760
fbi	760
transition	760
fought	760
habit@@	760
concert	760
vic@@	758
aran@@	758
promo@@	758
pping	757
undar@@	757
broke	755
jur@@	755
00@@	754
exter@@	754
goth@@	753
presidenti@@	753
rier	753
ie	752
neigh@@	752
ems	752
worth	751
run@@	751
bon@@	751
sat@@	751
ades	751
tac@@	751
1998	751
ua	751
mean@@	751
distr@@	750
styles	750
etr@@	750
introduction	750
inside	750
chap@@	749
diverse	749
ale	748
adult	748
islam	747
phy@@	747
afric@@	747
philip	747
drug	746
eas@@	746
32	746
barcelona	746
arrived	746
appar@@	745
imp@@	744
transport	744
exper@@	744
carbon	744
contact	744
ill	744
selection	744
victor@@	744
actu@@	744
thr@@	744
dy	743
1994	743
ker	743
requ@@	743
reds	743
lot	742
oci@@	742
cel@@	742
joseph	741
bour@@	741
ached	740
versions	739
drew	739
detec@@	738
labor@@	738
sport	738
rup@@	737
nep@@	737
bishop	737
sibil@@	737
ade	737
habitants	736
verse	736
anglo-@@	736
struc@@	736
7.@@	735
wife	735
typ@@	735
wen@@	734
rd	734
stop	734
serious	734
question	733
design@@	733
san@@	731
ster	730
arsenal	729
bled	729
tage	728
crus@@	728
1992	728
neutr@@	728
stre@@	727
adi@@	726
squ@@	726
cla@@	725
engine@@	725
confir@@	725
ome	725
und@@	724
cin@@	723
ayed	723
review	723
satellite	723
nearby	721
takes	721
pack@@	721
600	721
avi@@	721
cable	721
orders	720
discrimin@@	720
1945	720
chosen	720
rar@@	720
otic	719
tern	718
hour	717
constant	717
sul@@	717
core	717
hund@@	717
follow	717
residen@@	716
avo@@	716
patter@@	716
ads	715
tra@@	715
parents	715
runs	715
entirely	714
zealand	714
tives	714
alis@@	714
marks	713
conqu@@	713
microsoft	713
comics	712
pac@@	712
abil@@	712
ari@@	712
chron@@	712
comple@@	711
mount	711
lives	710
da@@	710
centr@@	710
circum@@	710
sides	709
deplo@@	709
aker	709
j.	707
percep@@	707
reserve	707
kath@@	707
annu@@	706
dramat@@	706
ress	706
agricul@@	706
pest@@	706
ur	705
bbc	705
regi@@	705
dedi@@	705
compl@@	704
urai	704
experienced	704
presents	704
public@@	703
patri@@	702
refu@@	702
matches	702
rail@@	702
sug@@	701
proce@@	701
0,000	701
roads	701
door	700
neum@@	700
friends	699
er-@@	699
gri@@	699
archa@@	698
corpor@@	698
actual	698
peak	698
muhammad	697
alt	697
precipit@@	696
career	696
hil@@	696
super	696
bol@@	696
so-@@	695
chi@@	694
justice	694
hur@@	694
electronic	694
maximum	693
batt@@	692
mentioned	692
nick@@	692
mist@@	691
tures	691
1996	691
1,000	690
abandon@@	690
tun@@	690
mak@@	690
ata	690
split	690
chil@@	690
romans	689
transfer	689
manhattan	689
travel	688
joint	688
drug@@	688
oral	687
saying	687
wear	687
pc	686
threat	686
95	686
ral@@	685
hypo@@	685
divine	685
plac@@	685
guns	684
spon@@	684
audience	684
wild@@	683
vered	683
scrip@@	683
object	683
billboard	683
all-@@	683
quir@@	682
safety	682
boys	682
sub-@@	682
ends	682
sign	682
8-@@	681
fix@@	681
1988	681
unter@@	680
page	680
begin	680
hi	680
ku@@	680
volume	679
taught	679
pm	678
colum@@	678
natur@@	677
sic@@	677
uni@@	676
gest@@	676
advis@@	676
cali@@	675
1-@@	675
sony	674
alaska	674
industries	673
sons	673
duc@@	673
ball	673
situ@@	672
penal@@	672
water@@	672
1940	672
streets	671
deep	671
tree	671
belief	670
ham@@	670
brown	670
eled	670
appropri@@	670
golden	670
etc	670
visible	669
legis@@	669
tennessee	669
mig@@	669
disput@@	669
fare	668
avoid	668
choice	668
electric@@	667
ka	667
officer	667
m.	667
congreg@@	666
build	665
ita	665
phone	665
phenom@@	665
never@@	664
focused	664
examin@@	664
dropped	663
youtube	663
rap@@	663
universe	663
bury	662
neur@@	661
hong	661
li	661
solution	660
edition	660
enter	660
eter	660
asked	660
missions	659
bt	659
thel@@	659
meet	658
describe	658
profit	658
anne@@	658
causing	657
scene	657
piano	656
sym@@	656
michael	656
itude	656
changing	655
elevator	655
consider	655
pro-@@	655
ces@@	654
elizabeth	654
village	654
tail	654
fran@@	654
1.@@	654
rian	653
c.	653
ram@@	653
6.@@	653
credit	652
aster	652
dead	651
fron@@	651
iran@@	651
ries	651
albums	651
reference	651
script	650
ishes	650
eme	650
2-@@	650
thur@@	650
ves@@	650
considerable	650
wat@@	650
fat@@	649
beijing	649
connection	649
schwar@@	649
subsi@@	649
acti@@	648
ini	648
compu@@	648
fl@@	647
1950	647
gets	647
normal	646
ass@@	646
corps	646
ais@@	646
pakistan	646
snow	645
massive	645
acting	645
felt	645
web	645
real@@	644
gdp	644
join	643
ibm	643
championship	643
io@@	643
mean	642
sper@@	641
van	641
catalan	641
passing	641
physic@@	641
1970	641
opera	640
devo@@	640
kn@@	640
some@@	640
daughter	640
shel@@	640
bodies	640
gau@@	639
anas@@	639
manuf@@	639
multi@@	638
pion@@	638
bush	638
1995	638
possibly	637
valencia	637
gods	637
rock@@	637
ye	637
grade	637
soul	637
faced	636
factor	636
combat	636
acking	635
78	635
slave	635
notes	634
laid	634
rever@@	633
brazil	633
pil@@	633
distance	632
peter	632
ez@@	631
ses@@	631
rooms	631
pav@@	631
lows	630
eri@@	630
debate	629
slo@@	629
causes	629
milit@@	629
grow	629
af	629
treated	629
rich	629
33	628
chain	628
ica	628
vers@@	628
forest	627
threaten@@	627
ni	627
ending	627
800	626
nar@@	626
11@@	626
label	626
otherwise	626
semi-@@	625
mind	625
gul@@	625
transmission	625
strugg@@	624
hay@@	624
regime	624
exception	623
fish	623
heal@@	622
entr@@	622
ani	622
usa	622
spo@@	621
capable	621
box	621
feder@@	621
plan@@	621
tend	620
drop	620
oblig@@	620
tune	620
iling	620
sand@@	620
tin@@	620
ulation	619
hotel	619
rare	619
gence	619
ek@@	619
train	619
3,@@	619
regular@@	618
wales	618
resolution	617
neces@@	617
walls	617
ust	617
4,@@	616
bri@@	616
prize	615
multi-@@	615
get@@	615
comprehen@@	615
onto	615
classic	615
frederick	614
posses@@	614
du	613
x-@@	613
1941	613
bian	613
engag@@	612
v.	612
fav@@	612
jobs	612
ae@@	612
draw	612
bible	611
wrest@@	611
!	611
nigeria	611
oz@@	611
wn@@	611
ray	611
renaissance	611
wind@@	611
st-@@	610
tel@@	610
publication	610
ington	610
volun@@	610
usage	609
weather	609
kilometres	609
jac@@	609
principal	609
emo@@	609
ure@@	609
interpre@@	609
astronom@@	608
join@@	608
divisions	608
labor	608
parti@@	608
enter@@	608
dame	608
institution	607
usly	607
row	607
cau@@	607
dish	606
au	606
cover@@	606
cus	606
equivalent	606
eu	606
und	606
vest@@	605
fight	605
vering	605
ja@@	604
6-@@	604
muda	604
2016	604
pho@@	604
figure	603
rus	603
revol@@	603
dry	603
pul@@	603
fair@@	602
interest@@	602
budget	601
coalition	601
princess	601
kan@@	601
iliz@@	601
respect	600
ed-@@	600
tag@@	600
invit@@	600
tica	600
asure	600
cape	599
calcul@@	599
aspec@@	599
confeder@@	598
sensit@@	598
1979	598
ights	598
instal@@	598
alter@@	598
s.	598
uc@@	598
quest@@	598
med@@	597
ariz@@	597
presi@@	596
challen@@	596
pharmac@@	596
documents	596
64	595
ation@@	595
reality	595
concerned	595
resist@@	595
seat	594
difference	593
tropical	593
civiliz@@	593
shell	593
1993	593
belong@@	593
um-@@	592
slightly	591
10,000	591
ople	591
flag	591
wav@@	591
ened	590
columbia	590
begun	590
flow	590
suit	590
reaction	590
repe@@	590
minutes	589
phil@@	589
bureau	589
aristo@@	589
favor	589
9,@@	589
ost@@	589
dc	588
bond	588
7-@@	588
sion@@	588
distri@@	587
tru@@	587
cd	587
cycle	587
lus@@	586
ga	586
thing	586
parallel	586
aining	586
modi@@	586
hes	585
ute	585
technologies	585
juda@@	584
know	584
charle@@	584
sand	584
tal	584
ras@@	584
seems	584
ules	584
marshall	583
gy	583
bring	583
judicial	583
spar@@	582
assum@@	582
playstation	582
myanmar	582
mach@@	582
lets	582
movie	582
ration@@	581
360	581
weal@@	581
azi	580
europe@@	580
cerem@@	580
si	580
shift	580
green@@	580
memor@@	579
wind	579
sky@@	579
transfer@@	579
ano	578
composition	578
acknow@@	578
mer	578
speak	578
gun@@	578
setting	578
occup@@	578
plic@@	577
ki@@	577
commander	577
5,@@	577
girls	577
chase	577
ritu@@	576
hed	576
150	576
ss	576
ern@@	576
ef@@	576
hands	575
dist@@	575
00	575
metap@@	575
rely	574
quite	573
sy	573
guard	573
score	573
cil@@	572
colle@@	572
plant@@	572
weak@@	572
israeli	572
twice	572
1949	571
ole@@	571
1986	571
notre	571
ading	571
aling	571
8.@@	571
gives	570
professor	570
emotions	570
tosh	570
big@@	570
00,000	570
secret	570
classification	570
atur@@	570
dark	569
raj@@	569
55	569
d.	568
garden	568
dating	568
tol@@	568
shr@@	567
indo@@	567
0@@	567
ran	567
manchester	567
fire@@	567
iraq	567
pure	566
insul@@	566
thor@@	566
sphere	566
vas@@	566
dal@@	566
ze	566
juris@@	566
grav@@	566
double	566
1974	566
semin@@	566
ams	565
ney	565
1939	565
frag@@	565
tom	565
dants	565
esses	565
exerc@@	565
astern	564
haz@@	564
1980	564
cri@@	564
eur@@	564
ja	564
stock	564
film@@	564
jiang	563
48	563
categories	563
ales	563
ff	562
borough	562
arthur	562
fair	562
studied	562
something	562
syria	561
enemy	561
thousand	561
bar	561
best@@	561
exclu@@	561
hip	561
194@@	560
millen@@	560
oxy@@	560
wild	560
mobile	559
a.	559
display	559
van@@	558
separation	558
ace	557
refle@@	557
progress	557
why	557
eless	557
all@@	556
ony@@	556
castle	556
ama	556
oun@@	556
sen	555
says	555
broad	555
connecticut	555
fashion	555
apart	555
ti	555
drawn	554
g-@@	554
iv	554
motion	554
ap	554
interpretation	554
bapt@@	553
constit@@	553
uo@@	553
8,@@	552
rer	552
load	552
journ@@	552
destruction	551
3-@@	550
imper@@	550
headed	550
leave	550
gate	550
sevent@@	550
forward	550
decisions	549
champions	549
fundamental	549
xi	549
ior@@	549
virtu@@	549
dollar	549
agre@@	549
ising	549
sab@@	549
ums	548
limit@@	548
port@@	548
demo@@	547
permit@@	547
ara	547
adul@@	547
linguist@@	547
rebel@@	547
planning	546
gues	546
ech@@	546
secu@@	546
dom	546
36	545
prof@@	545
coup	545
fine	545
occas@@	545
pped	544
34	543
rich@@	543
aks	543
circuit	542
exces@@	542
80@@	542
batter@@	542
sections	542
easily	542
conce@@	542
shot	541
gun	541
solo	541
endo@@	541
pair	540
balance	540
your	540
occasion@@	540
vil@@	540
holding	540
males	540
vey	540
uler	539
antum	539
experiences	539
etes	539
wood@@	538
isation	538
2,000	538
dant	538
spiritu@@	538
en-@@	537
picture	537
parks	536
administ@@	536
1985	536
9-@@	535
cher@@	535
user	534
assumed	534
empir@@	534
conception	533
ew@@	533
spirit	533
differenti@@	533
normally	533
voice	533
acc@@	533
excep@@	533
plus	532
explor@@	532
placement	532
angeles	532
aa	532
38	532
violence	532
til@@	531
constantin@@	530
cogn@@	530
9.@@	529
beg@@	529
incorpor@@	529
aggres@@	529
sels	528
commerce	528
arrest@@	528
crow@@	528
1987	528
brothers	527
chan@@	527
sky	527
osis	527
bringing	527
festivals	527
telephone	527
fixed	526
gym@@	526
emotion	526
motors	526
fly	526
acces@@	526
demon@@	526
abbey	525
rele@@	525
phi@@	525
folk	525
49	525
vel@@	525
experim@@	525
organisation	525
och@@	524
theat@@	524
toler@@	524
performances	523
berlin	523
tubercul@@	523
tum@@	523
deposit@@	523
filled	523
hus@@	523
fos@@	522
streng@@	522
zhou	522
adolesc@@	522
declaration	522
terror@@	522
conflic@@	522
edi@@	521
interior	521
buddha	521
mic@@	521
pron@@	521
violent	521
insur@@	521
99	521
grand@@	521
possibil@@	521
senior	521
manager	521
sounds	520
taj@@	520
tam@@	520
1969	520
radical	520
kil@@	519
pieces	519
massachusetts	519
montana	519
screen	519
lay	518
arist@@	518
yellow	518
extreme	518
44	518
address	518
itudes	517
metres	517
martin	517
200@@	517
flag@@	516
ey	516
document@@	516
1978	516
singles	516
immedi@@	516
3.@@	516
thu@@	516
promotion	516
ato@@	516
siz@@	515
dynam@@	515
66	515
yon@@	515
stable	515
accept	515
landing	515
clas@@	514
count	514
mes	514
homo@@	514
look	514
national@@	514
matters	514
fis@@	514
virgin	513
elite	513
quant@@	513
dy@@	513
theater	513
train@@	513
correct	512
las	512
cool@@	512
lamp@@	511
kong	511
va@@	510
trees	510
ances	510
basketball	510
grown	510
statement	510
memorial	509
east@@	508
noble	508
crim@@	508
ene	507
clu@@	507
consolid@@	507
sell	507
privil@@	507
rub@@	507
vietnam	507
mals	507
ther	506
sunday	506
life@@	506
smal@@	506
ania	506
ping	506
rising	505
minim@@	505
iev@@	505
c-@@	505
instruc@@	505
antic	504
infrastruc@@	504
fox	504
ub@@	504
lik@@	504
ling@@	504
formul@@	504
1976	504
1948	504
stration	504
calls	504
evolu@@	504
band@@	504
neither	504
whe@@	503
branches	503
assistance	502
alcohol	502
mos@@	502
yl	501
morph@@	501
1984	501
meat	501
ji	501
chie@@	501
debut	500
sty@@	500
ge-@@	499
wire	499
reaching	499
simultan@@	499
ule	499
command@@	499
needs	499
diction	499
path	499
ativ@@	499
asu@@	498
occupation	498
senger	498
ich@@	498
infan@@	498
singer	497
ada	497
johnson	497
voc@@	497
diz@@	497
cles	497
theme	497
wrestling	497
death@@	496
lak@@	496
rival	496
sas@@	496
determin@@	496
skin	496
courses	495
partner@@	495
adher@@	495
1914	495
remo@@	494
forest@@	494
disco@@	494
100,000	494
auto@@	494
sets	493
acid	493
gan@@	493
clock	493
medium	492
pum@@	492
samp@@	492
coordin@@	491
personnel	491
1960	491
sh	491
helena	491
thers	491
dio@@	491
passes	490
relation	490
artiller@@	490
told	490
of@@	490
dres@@	490
spoke	489
grant	489
1920@@	489
diplomat@@	489
pati@@	489
residence	488
expression	488
yugoslavia	488
wered	488
yuan	488
broken	488
icon@@	488
ao	488
usual	488
jackson	487
1968	487
ass	487
cultiv@@	486
dian	486
pictures	486
boy	486
stand	486
mous	485
gon@@	485
write	484
1982	484
covers	484
diff@@	484
tations	484
files	484
enth@@	484
oph@@	484
dest@@	484
card	484
46	484
images	484
vertic@@	484
roles	483
ps@@	483
protein	483
pole	483
resol@@	483
led@@	483
42	483
sculp@@	483
stream	482
instrument	482
rain	481
vocal	481
provis@@	481
westminster	481
journal	481
arena	481
aj@@	481
unable	481
ack@@	481
harbor	481
coron@@	480
1972	480
stim@@	480
hindu	480
motor@@	480
mont	480
videos	479
privat@@	479
manus@@	479
sue	479
hers	479
opportunity	478
85	477
hat@@	477
73	477
educat@@	477
mile	477
calend@@	476
1975	476
1973	476
gas@@	476
merely	476
ening	475
shape	475
puerto	475
trop@@	475
vehic@@	475
ection	474
yer	474
candi@@	474
1971	474
termine	474
canal	473
21@@	473
file	473
frame	473
chart	472
re	472
sister	472
index	472
finished	472
criminal	472
1944	471
self	471
700	471
bran@@	471
candidat@@	471
43	471
confer@@	471
spir@@	470
cardinal	470
kins	470
print	470
scre@@	470
dia	470
piece	470
plain	470
announ@@	470
hic@@	469
unif@@	469
dress	469
bic@@	468
culmin@@	468
inaugur@@	468
instit@@	468
wu	468
iers	468
bought	468
exemp@@	468
6,@@	467
huge	467
website	467
hetero@@	467
itation	467
cardin@@	467
hospit@@	467
doing	466
nit@@	466
category	466
tivit@@	466
standar@@	466
din	466
capture	465
nothing	465
istan	465
foot	465
aspir@@	465
bean	465
visual	464
passage	464
varie@@	464
bon	464
steel	464
fans	464
tracks	464
inches	463
olith@@	463
restaur@@	463
monaster@@	463
background	462
rhe@@	462
tus	462
sal	462
petr@@	462
1918	461
41	461
56	461
philippines	461
implic@@	461
goes	460
sr	460
fund	460
execution	460
siege	460
challenge	460
concentration	460
demand@@	459
ph	459
camp	459
honor	459
understand	459
smith	458
5.@@	458
retic@@	458
depression	458
1911	458
tier	458
kal@@	458
shopping	458
vienna	458
mar	458
ined	457
nag@@	457
broadcasting	457
ino	457
gy@@	457
rep@@	457
namibia	457
rey	457
absolute	457
taiwan	456
nepal	456
francis	456
bir@@	456
gestion	456
manag@@	456
kir@@	455
judge	455
comput@@	455
artific@@	455
ou	455
rebellion	454
mir@@	454
impor@@	454
prote@@	454
opinion	453
fast	453
1967	453
de-@@	453
50,000	453
casu@@	453
communic@@	453
captain	453
mercury	452
hs	452
ico@@	452
preced@@	452
za	452
questions	452
glo@@	451
key@@	451
killing	451
fem@@	451
vor@@	451
magn@@	451
argue	451
dering	451
ff@@	451
assi@@	451
routes	450
galicia	450
entry	450
yan@@	450
jerusalem	449
accor@@	449
aw@@	449
atus	449
graph	449
liv@@	449
ury	449
ea	449
hills	449
legitim@@	448
correc@@	448
metro	448
width	448
dens	448
buck@@	448
maria	448
electron@@	447
slow	447
leaves	447
colo@@	447
soft	447
request	447
studios	447
question@@	447
est-@@	447
layer	447
stories	447
friend	447
physi@@	446
gil	446
gb	446
roman@@	446
minimum	446
terminal	445
genet@@	445
storm	445
tant	445
instrum@@	445
francisco	445
39	445
relief	445
1981	445
chor@@	445
1000	445
cabinet	444
orchestra	444
burg	444
cep@@	444
unity	444
kat@@	444
ards	444
eut@@	443
moder@@	443
perspec@@	443
partic@@	443
pha@@	442
expec@@	442
heads	442
flying	442
gle@@	442
planet	442
favo@@	442
b.	442
carrying	441
proph@@	441
hr@@	441
nap@@	441
incident	441
une	441
genre	441
opposite	440
ki	440
ron	440
brief	440
consequ@@	440
b-@@	440
liberty	440
format@@	439
faces	439
fit@@	439
facil@@	438
idi@@	438
khan	438
ack	438
mun@@	438
crew	438
twelve	438
recon@@	438
ick	437
eth	437
bag@@	437
1964	437
cription	436
municipal	436
snow@@	436
w.	436
nig@@	436
tle	436
ests	436
lav@@	436
norman	436
jazz	435
alternat@@	435
scenes	435
ura	435
cia	435
prepared	435
conversion	435
reformation	435
strik@@	434
marvel	434
lib@@	434
sale	434
conservation	433
stalin	433
ptolem@@	433
1983	433
transit@@	433
vertebr@@	432
cue	432
electro@@	432
losing	432
tak@@	432
machines	432
figh@@	432
asa	432
tests	431
elabor@@	431
trum	431
fri@@	431
vet@@	431
pir@@	431
stud@@	431
repeated	430
indeed	430
ames	430
deta@@	430
tees	430
anim@@	430
pete	430
immun@@	430
clin@@	430
ky	429
easy	429
search	429
ala	429
ios	429
1966	429
jersey	429
1977	429
ader	429
explic@@	429
escen@@	429
wak@@	428
63	428
fus@@	428
cus@@	428
spac@@	428
aces	428
line@@	428
moral	428
sit@@	427
strasbourg	427
trig@@	427
explan@@	427
expl@@	427
iment	426
step	426
mon	426
inner	426
concern	426
aten	426
1953	426
pli@@	426
aqu@@	426
trin@@	426
ch-@@	425
ani@@	425
250	425
evening	425
rice	425
think	425
waves	425
fib@@	425
system@@	425
representation	425
ing-@@	424
shal@@	424
caval@@	424
afghanistan	424
2.@@	424
ira	424
intel@@	424
let@@	423
log@@	423
cars	423
platform	423
f-@@	423
regard	423
agree	423
centres	423
underground	423
monit@@	423
ail@@	423
persist@@	423
gat@@	423
express	422
sist@@	422
champion@@	422
wings	422
temp@@	422
ayer	422
82	422
ez	421
ok@@	421
mug@@	421
olymp@@	421
alp@@	421
referendum	421
desi@@	421
sary	420
ideal	420
somalia	420
1961	420
weekly	420
1962	420
dation	419
scri@@	419
actor	419
ena	419
p-@@	419
metr@@	419
aris	419
wag@@	419
1963	418
wine	418
ingia	418
victi@@	418
alle@@	418
opport@@	418
block	418
chlor@@	418
territorial	418
oting	418
68	417
pers	417
habitat	417
succession	417
automat@@	417
enn@@	417
monica	417
calling	416
sad@@	416
discre@@	416
wise	416
yal@@	416
saf@@	416
ith@@	415
fel@@	415
1956	415
edy	415
links	415
dul@@	415
symbol	415
tre	414
predeces@@	414
nast@@	414
pro	414
signs	414
archit@@	414
closer	413
hebre@@	413
constant@@	413
92	413
dominic@@	413
alexandria	413
tiles	413
stars	413
mont@@	412
kab@@	412
sci@@	412
aspect	412
asse@@	412
5,000	412
f.	412
37	411
gal	411
bor	411
59	411
lac@@	410
eco@@	410
younger	410
surrounded	410
work@@	410
spen@@	409
uefa	409
crip@@	409
wan@@	409
30@@	409
58	409
esp@@	409
yp@@	408
none	408
lav	408
explained	408
manner	407
provincial	407
tim@@	407
eye	407
nium	407
pronunci@@	407
77	407
song@@	407
assassin@@	406
technique	406
harmon@@	406
sli@@	405
scar@@	405
keeping	405
icon	405
has@@	405
falls	404
ukrain@@	404
pollu@@	404
k-@@	404
ut	404
diet	404
1900	404
24@@	404
nac@@	403
strat@@	403
revis@@	403
preserv@@	403
ero	403
1958	403
ug@@	403
task	403
frank	403
potenti@@	403
arizona	403
defic@@	403
icks	403
highway	402
experimental	402
legal@@	402
details	402
pig@@	402
1920	402
rout@@	402
evacu@@	402
dean	402
skil@@	402
tin	401
dollars	401
eton	401
jam@@	401
arm	400
stress	400
bap@@	400
dil@@	400
competitions	400
compat@@	400
rab@@	400
ranking	400
asts	400
balkan@@	399
breaking	399
convic@@	399
learned	399
agent	399
52	399
ole	398
fill	398
gres@@	398
gin	398
weak	398
recht	398
wii	398
74	398
cli@@	398
scr@@	398
fault	397
motiv@@	397
ri	397
couple	397
minute	397
ame@@	396
cc	396
ilit@@	396
rolling	396
inch	396
mongol@@	396
bad	395
ci	395
lie	395
geograph@@	395
protest	395
prosper@@	395
lin	395
stands	395
commerci@@	395
moon	395
ere	395
persecu@@	394
1965	394
ram	394
worn	394
ny@@	394
canon	394
plate	394
1951	394
superior	394
7,@@	394
bronze	394
ceremon@@	393
25@@	393
tir@@	393
reason@@	393
1912	393
sanc@@	393
91	393
tul@@	393
fame	393
narrow	393
got	393
assist@@	393
abstr@@	393
76	393
emergen@@	392
consecu@@	392
hungary	392
1.5	392
drinking	391
cbs	391
responded	391
1947	391
eat	391
hem@@	391
more@@	390
michigan	390
internation@@	390
safe	390
traits	390
evangel@@	390
10-@@	390
solid	390
boat	390
boards	389
jones	389
suspen@@	389
amer@@	389
museums	389
ev	388
hier@@	388
eleven	388
initiative	388
obama	388
lama	388
offensive	388
ottom@@	387
1952	387
rais@@	387
accompl@@	387
ingham	387
shore	387
cam@@	387
collabor@@	387
trip@@	387
zo@@	387
1942	387
depart@@	387
eyes	387
hair	387
vian	386
impe@@	386
condition	386
blu@@	386
baseball	386
ell	385
lach@@	385
ati	385
counter	385
ero@@	385
buil@@	385
caesar	385
isine	385
oth@@	385
capita	385
braz@@	385
sin	385
cou@@	385
treat	385
local@@	384
discipline	384
fresh	384
sau@@	384
doors	384
box@@	384
plane	384
morning	384
sus@@	383
agu@@	383
brah@@	383
apping	383
r.	383
compen@@	383
bear@@	383
bowl	383
foot@@	383
ath	383
rhyth@@	383
dal	382
stag@@	382
ear	382
lands@@	382
edit@@	382
gone	382
moment	382
crossed	382
copy	382
market@@	382
gue	382
charges	382
waste	382
reputation	381
79	381
understood	381
worst	381
98	381
asing	381
ep	381
depar@@	381
h.	380
bases	380
watch	380
ail	380
fm	380
hal	380
thi@@	380
circu@@	380
81	380
geor@@	380
mines	380
synth@@	379
sensor@@	379
ix	379
thinking	379
kansas	378
crat@@	378
hire	378
alum@@	378
shif@@	378
power@@	378
save	378
sey	378
hang@@	377
pennsylvania	377
tra	377
200,000	377
1936	377
and-@@	376
phar@@	376
metabol@@	376
rico	376
mono@@	376
iy@@	376
franklin	376
aming	375
pius	375
50@@	375
deter@@	375
bel	375
diam@@	375
eritrea	375
complic@@	375
codes	375
900	375
ken	374
ides	374
buried	374
chu	374
1910	373
montevideo	373
destroy	373
music@@	373
lag@@	373
restor@@	373
pag@@	373
act@@	373
youth	372
sight	372
slowly	372
nom@@	372
beautiful	372
1955	372
mons	371
onal	371
phrase	371
warm	371
estate	371
friend@@	371
gur@@	371
adam	371
hits	371
discipl@@	371
geometr@@	370
h-@@	370
accum@@	370
overwhel@@	370
nato	370
agents	369
ty-@@	369
sz@@	369
defec@@	369
truth	369
winter@@	368
tened	368
liverpool	368
tan	368
magne@@	368
firm	368
flat	368
su	368
ater@@	368
tory	368
grad@@	368
orch@@	367
ce-@@	367
princ@@	367
walter	367
productions	367
georgia	366
brow@@	366
aya	366
liberation	366
plu@@	366
rot@@	366
hung@@	366
jefferson	366
thin@@	366
chromo@@	366
debat@@	365
secur@@	365
120	365
47	365
expedition	364
clearly	364
norfolk	364
1957	364
emit@@	364
cher	364
chant	364
tile	364
programme	364
eo	363
ort	363
lady	363
sacrif@@	363
a.@@	363
choose	363
yar@@	363
miss@@	363
3,000	363
intense	363
tied	362
yard	362
gol@@	362
athletic	362
isi@@	362
dep@@	362
botan@@	361
edge	361
aven@@	361
cis@@	361
righ@@	361
iti@@	361
sia	360
therap@@	360
kon@@	360
movies	359
suit@@	359
23@@	359
villages	359
u.@@	359
gallery	359
plur@@	358
twenty-@@	358
eria	358
71	358
estr@@	358
feed	358
vehicle	358
1922	358
1954	358
consequence	357
planes	357
1917	357
finance	357
acceler@@	357
valenci@@	357
dun@@	357
ski@@	357
backed	357
97	357
roy	356
millions	356
airlines	356
ika	356
hope	356
pher@@	356
scand@@	356
posit@@	356
nazi	356
bed@@	356
nucle@@	356
tou@@	356
survive	356
eling	355
ik	355
stein	355
monet@@	355
86	355
dressed	355
gium	355
cooperation	355
gras@@	355
fon@@	355
taylor	355
job	355
10.@@	354
col	354
88	354
12.@@	354
defend	354
doc@@	354
missed	354
desire	354
lif@@	354
tech	353
0,@@	353
hockey	353
1943	353
stay	353
facing	353
premi@@	353
mode	353
gray	353
cancer	352
funeral	352
chann@@	352
borne	352
mann	352
ultimate	352
trying	352
t.	352
deliber@@	352
brid@@	352
activ@@	352
faster	351
athle@@	351
hollywood	351
1937	351
dus	351
ander@@	351
forbes	351
confron@@	351
ung	351
patron@@	351
ler@@	350
logic	350
lon	350
touch	350
ukraine	350
send	350
chamber	350
broadway	350
ey@@	350
exact	350
dog@@	350
adjust@@	350
gol	350
spor@@	350
magist@@	350
duty	350
1931	350
veget@@	349
difficul@@	349
path@@	349
ague	349
ros@@	349
gil@@	349
mix	348
seek@@	348
intermedi@@	348
definit@@	348
ient	348
boy@@	348
concerts	348
extension	347
anniver@@	347
fifa	347
mese	347
provo@@	347
grammy	347
destiny	347
wake	347
cem@@	347
ahead	347
inde@@	346
bern	346
entation	346
aus@@	346
ef	346
nights	346
luftwaffe	346
beach	346
put@@	346
seem	346
extr@@	346
000-@@	346
chi	346
brigh@@	345
sation	345
adv@@	345
fed	345
every@@	345
glu@@	345
cruci@@	345
enjoyed	344
factory	344
57	344
ny	344
onia	344
wering	344
chal@@	344
guar@@	344
bound	344
everton	344
sultan	344
teacher	344
alfred	344
dol@@	343
deput@@	343
prior@@	343
engine	343
math	343
unless	343
feel	343
trum@@	342
briefly	342
noise	342
fighter	342
deleg@@	342
besides	342
half-@@	342
wid@@	342
stood	342
municip@@	342
abu	341
ax@@	341
heart@@	341
trust	341
krup@@	341
alig@@	341
mtv	341
1930	341
drawing	341
1938	341
das	340
ari	340
integration	340
interface	340
want	340
bottom	340
zel@@	340
open@@	340
sees	339
painting	339
madrid	339
husband	339
infl@@	339
bad@@	339
fung@@	339
lap@@	338
learn	338
spin@@	338
aria	338
pet	338
atmosphere	338
nh@@	338
lad@@	338
ition@@	338
leban@@	337
athens	337
bin	337
stopped	337
strike	337
interfer@@	337
bo	337
uniform	337
salt	336
cos@@	336
plaza	336
marketing	336
bling	336
stal@@	336
sexu@@	336
russell	336
s.@@	335
pom@@	335
ill@@	335
parade	335
phen@@	335
n-@@	335
exer@@	334
bi	334
reci@@	334
document	334
stric@@	334
prac@@	334
scope	334
of-@@	334
84	333
kno@@	333
editor	333
impossible	333
dangerous	333
89	333
rol@@	332
message	332
indirec@@	332
vatic@@	332
sugar	332
whi@@	332
87	332
nobel	332
gros@@	332
asi@@	331
93	331
protein@@	331
alis	331
eing	331
stret@@	331
relev@@	330
anus	330
1934	330
neo-@@	330
leg	330
aviation	330
landed	330
vo	329
1913	329
2.5	329
romance	329
commo@@	329
evi@@	329
xiii	329
60@@	328
define	328
lev@@	328
sultan@@	328
pale@@	328
add	328
looking	328
72	328
criptions	328
kg	327
chose	327
dies	327
presiden@@	327
rig@@	327
smo@@	327
wed@@	327
oon	327
villa	326
friendly	326
description	326
edon@@	326
rement	326
associations	326
anything	326
cum@@	326
destin@@	326
devast@@	325
stronger	325
188@@	325
explain	325
wns	325
oce@@	325
franchise	325
top@@	325
gates	325
deci@@	325
ells	325
interven@@	325
spr@@	324
iber@@	324
lan	324
83	324
forcing	324
lum	324
hudson	324
walk	323
map	323
justif@@	323
20-@@	323
54	323
1959	323
embar@@	323
facto	323
sel	322
u-@@	322
1,0@@	322
1861	322
brooklyn	322
96	322
abo@@	322
sures	322
fellow	322
themes	322
opol@@	322
sleep	321
kel@@	321
yang@@	321
1946	321
ody	321
cop@@	321
oxford	321
samuel	321
usi@@	321
flame	321
returning	321
than@@	321
1919	321
ias	321
inte@@	320
gar	320
video@@	320
finding	320
urban@@	320
ss@@	320
invas@@	320
chin@@	320
web@@	320
madison	320
ro	320
ready	320
gees	319
stop@@	319
02	319
girl	319
mortal@@	319
promise	319
12-@@	319
lincoln	319
ever@@	319
participation	319
eer	319
ho	318
reti@@	318
igh@@	318
opti@@	318
d.c.	318
stic@@	318
notion	318
enz@@	317
really	317
lun@@	317
ax	317
rival@@	317
fit	317
flat@@	317
univer@@	317
horn	317
horse	316
*	316
lions	316
had@@	316
pad@@	316
gay	316
falling	316
reson@@	316
vii	316
trains	316
vin	316
consci@@	316
helicop@@	316
tribu@@	315
illumin@@	315
inf@@	315
ras	315
rad@@	315
myth@@	315
ado@@	315
aka	315
mali	315
ett	314
62	314
ous@@	314
lig@@	314
confes@@	314
syl@@	314
ador	314
apo@@	314
nur@@	314
fies	314
fear	314
tox@@	314
everything	313
akes	313
ly-@@	313
qualit@@	313
craft	313
steps	313
belt	313
ima	313
chance	313
alo@@	313
ecc@@	313
sah@@	313
absence	312
text@@	312
cid@@	312
papers	312
williams	312
chapter	312
aise	312
bal	312
1876	311
dit@@	311
dub@@	311
ein	311
mine	311
at-@@	311
gene@@	311
applic@@	310
collaboration	310
epi@@	310
120@@	310
ret@@	310
principal@@	309
the-@@	309
1871	309
publications	309
pip@@	309
bear	309
carl	309
bath	309
quisition	309
gathered	309
ris	308
ener@@	308
raw	308
1830	308
oy	308
waters	308
baby@@	308
napole@@	308
anthropolo@@	308
ende@@	308
diffic@@	308
marath@@	307
shifted	307
hir@@	307
boom	307
nicholas	307
libr@@	307
sap@@	307
wa	307
sovi@@	307
brac@@	307
maritime	306
register	306
4.@@	306
30,000	306
rif@@	306
red@@	306
ter-@@	306
xes	306
rugby	306
switch	306
20,000	305
bohem@@	305
samoa	305
vibr@@	305
indonesia	305
sil	305
our@@	305
analog	305
alia	305
roosevelt	305
intervention	305
ose	305
iso	304
fro@@	304
utiliz@@	304
god@@	304
chen	304
azerba@@	304
bell@@	304
ku	304
prison	304
impl@@	303
symph@@	303
crystal	303
51	303
carbon@@	303
chester	303
ship@@	303
showing	303
murder	302
possession	302
howard	302
sort	302
rent	302
not@@	302
prepar@@	302
bos@@	302
organisations	301
anticip@@	301
divin@@	301
gan	301
ung@@	301
fur	301
sic	301
alphabet	301
hear@@	300
hit@@	300
luther@@	300
94	300
zero	300
set@@	300
ette	300
past@@	300
uz@@	300
globe	300
tes@@	299
jay	299
ceo	299
kes@@	299
obser@@	299
4,000	299
option	299
wel	299
53	298
baptis@@	298
radar	298
fat	298
aked	298
rob@@	298
hing	298
top-@@	298
beat	298
dr.	298
dre@@	298
1848	298
book@@	297
rhine	297
contac@@	297
arbit@@	297
hig@@	297
cancel@@	297
drama	297
thin	297
erec@@	297
pool	297
quit@@	297
fier@@	296
karl	296
tone	296
gran@@	296
cav@@	296
sn@@	296
fired	296
andrew	296
deck	296
tunnel	296
chy	295
abun@@	295
sak@@	295
lum@@	295
iously	295
orange	294
argument	294
rit@@	294
draft	294
raf	294
ote	294
purple	294
pense	294
diction@@	294
bibl@@	294
phones	294
cambridge	294
jury	294
ques	294
miner@@	294
bright	294
master@@	294
18-@@	293
priest	293
ash	293
esia	293
lux@@	293
liqu@@	293
axis	293
1925	293
ester	292
bid@@	292
cont@@	292
charts	292
collections	292
recognize	292
pec@@	292
escape	292
fresh@@	292
gens	292
hero	291
christmas	291
190@@	291
pushed	291
engage	291
fe	291
burn	291
189@@	291
1907	291
non	291
hd@@	291
cook@@	291
porter	291
sik@@	291
hydr@@	290
juan	290
cham@@	290
peri@@	290
hu	290
profes@@	290
plastic	290
kee	290
ele	290
pin	290
nia	289
acoust@@	289
lex@@	289
naz@@	289
plo@@	289
tia	289
cic@@	289
fest@@	289
roger	289
oque	289
error	289
seeing	289
ust@@	289
server	288
revel@@	288
evan	288
guinea	288
offen@@	288
enem@@	288
entrance	288
1929	288
hz	288
arti@@	288
interested	288
bach@@	287
traces	287
inclus@@	287
explorer	287
ock	287
resur@@	287
fortune	287
jr	287
hok@@	287
free@@	287
pointment	287
proof	287
antibi@@	286
se-@@	286
shir@@	286
promised	286
jose	286
guards	286
station@@	286
gio@@	286
kin	285
closing	285
disney	285
someone	285
compr@@	285
enor@@	285
bass	285
horizon@@	285
tenden@@	285
ih@@	285
roll	284
kent	284
aids	284
guitar	284
tem@@	284
wolf	284
ian@@	283
rolled	283
sam	283
debut@@	283
episode	283
stayed	283
una	283
string	283
bun@@	283
iro	283
struck	283
conc@@	283
oni@@	283
singapore	282
hearing	282
electoral	282
congo	282
cad@@	282
sta@@	282
ry@@	282
bars	282
wan	282
omag@@	282
hop	282
turn@@	281
phosp@@	281
administrat@@	281
ligi@@	281
twenty	281
aq@@	281
observation	281
electron	281
ine@@	281
aster@@	281
mail	281
dimen@@	281
ator@@	281
uan	281
symp@@	281
hotels	281
categor@@	281
nbc	281
che	280
mom@@	280
cked	280
ignored	280
heard	280
acqu@@	280
accessible	279
ulum	279
1854	279
recep@@	279
i.	279
bonaparte	279
1909	279
navigation	279
ike	279
julian	279
tai@@	279
instruction	279
quin@@	279
dam	279
liquid	279
#	279
satur@@	279
ridge	278
fren@@	278
nobles	278
61	278
steve	278
40@@	278
alumin@@	278
alsace	278
gang@@	278
lec@@	278
amphi@@	278
l.	278
hes@@	278
sher@@	278
riv@@	278
shop	278
flowers	277
thailand	277
al-q@@	277
admitted	277
shall	277
supposed	277
mainten@@	277
genres	277
gem@@	277
helping	277
onom@@	277
lose	277
ori@@	277
rel	277
altitude	277
daniel	276
apped	276
conten@@	276
buy	276
just@@	276
oak	276
simon	276
clean	276
zones	276
vern	275
yo	275
ime@@	275
hole	275
jec@@	275
argum@@	275
eland	275
consequences	275
forth	275
ski	274
valle@@	274
palermo	274
15-@@	274
strip	274
subor@@	274
apparently	274
tum	274
everyone	274
cargo	274
volumes	274
color@@	274
anci@@	274
ert	273
inal	273
alt@@	273
clan	273
bav@@	273
honor@@	273
pus	273
seemed	273
legend	273
eman	273
saints	273
eating	272
cid	272
bet@@	272
guil@@	272
trag@@	272
ex	272
tent@@	272
amine	272
total@@	272
editions	272
corner	272
186@@	271
warner	271
illa	271
patrick	271
wl	271
cinema	271
diplom@@	271
bine	271
dispute	270
gap	270
disco	270
rum@@	270
duch@@	270
aware	269
demol@@	269
pradesh	269
roy@@	269
com	269
proxim@@	269
67	269
benefici@@	269
moscow	269
militar@@	269
inser@@	269
fen@@	268
illustr@@	268
surve@@	268
glad@@	268
ic-@@	268
adaptation	268
seriously	268
comman@@	268
itz	268
sudan	268
familiar	268
legs	268
ste	268
hitler	267
ko	267
rocks	267
inger	267
bles	267
audit@@	267
myst@@	267
zy@@	267
1855	267
boulevard	267
hunt	267
else	266
1870	266
ables	266
ige	266
unit@@	266
cal	266
doctor	266
dome	266
silk	265
destination	265
license	265
quad@@	265
demanded	265
partner	265
camer@@	265
26@@	265
handle	265
asks	265
catal@@	265
ym@@	265
ens@@	265
epic@@	264
perfect	264
epic	264
erit@@	264
pointing	264
comic	264
occasion	264
engl@@	264
kur@@	264
carth@@	264
harvard	264
prol@@	264
moves	264
gage	264
cking	264
stra@@	264
ess@@	263
13.@@	263
legen@@	263
=	263
illi@@	263
intention	263
jim	262
bb@@	262
brevi@@	262
anatom@@	262
graph@@	262
considering	262
ola	262
diagno@@	262
genom@@	262
sag@@	262
refus@@	262
kit@@	262
tang	262
bli@@	261
tee	261
1927	261
fusion	261
journey	261
monument	261
asci@@	261
dead@@	261
raid	261
m2	261
articles	261
sum	261
69	261
vul@@	261
cial	261
prece@@	261
kiev	260
benjamin	260
ov	260
ht@@	260
bits	260
oy@@	260
1865	260
lus	260
mr.	259
yugos@@	259
good@@	259
hormon@@	259
hybri@@	259
jean	259
porte@@	259
circulation	259
ladies	259
persu@@	258
hyper@@	258
ov@@	258
yc@@	258
1932	258
yel@@	258
magaz@@	258
archives	258
cant@@	258
institu@@	258
raise	257
lesiast@@	257
giant	257
young@@	257
1921	257
fallen	257
fec@@	257
introdu@@	257
spot	257
kien	257
no-@@	256
midd@@	256
tape	256
accus@@	256
matthew	256
scat@@	256
experiment@@	256
sheet	256
185@@	255
1898	255
lo	255
perman@@	255
industri@@	255
monuments	255
turns	255
relo@@	255
antonio	255
po	255
orleans	255
atol@@	254
confusion	254
alogue	254
resum@@	254
emin@@	254
evalu@@	254
bay@@	254
ley@@	254
chair	254
uns	254
mali@@	254
basilica	254
tha	254
fruit	254
uti	253
waz@@	253
mill	253
trium@@	253
nich@@	253
wad@@	253
me-@@	253
el-@@	253
pages	253
partit@@	253
emp@@	253
alli@@	253
kam@@	253
iki	253
flora	253
guide	252
clinton	252
integral	252
bic	252
marines	252
40,000	252
180	252
looked	252
jurisdic@@	252
len	252
temporal	252
profession@@	252
edly	251
trou@@	251
hou	251
cooper@@	251
penetr@@	251
jan	251
wearing	251
lor	251
tex	251
ins@@	251
scott	251
2.0	251
ella	251
burned	250
laser	250
atmosp@@	250
mou@@	250
cultur@@	250
aeda	250
mod@@	250
deeply	250
conscious	250
herit@@	250
activi@@	250
cree	250
1933	250
thy@@	250
dvd	250
yal	249
param@@	249
danger	249
fs@@	249
1908	249
insisted	249
yat@@	249
terrain	249
fan	249
lock	249
stones	249
dium	249
chen@@	248
jan@@	248
harry	248
brigade	248
1924	248
mate	248
surviv@@	248
salv@@	248
iel@@	248
stand@@	248
maur@@	248
fee	248
sault	248
aen@@	248
formula	248
ox@@	247
luther	247
turning	247
thering	247
constr@@	247
window	247
10,@@	247
augustus	247
que@@	247
fort@@	247
bure@@	247
das@@	247
1916	247
orial	247
brian	247
raf@@	246
1923	246
kennedy	246
stro@@	246
platinum	246
bah@@	246
gif@@	246
1880	246
crick@@	246
medit@@	246
shan	246
saturday	246
manuel	245
exhi@@	245
bone	245
yin	245
hemis@@	245
champion	245
vik@@	245
queens	245
enterprise	245
1860	245
ric	245
coach	245
distan@@	245
fan@@	244
trace	244
knew	244
stap@@	244
starts	244
lem	244
een	244
wilson	244
turner	244
easier	244
lumin@@	244
shock	243
testament	243
anatolia	243
leon	243
creative	243
greg@@	243
latino	243
187@@	242
inspec@@	242
disk	242
siles	242
terre@@	242
financi@@	242
rna	242
ceram@@	242
yards	242
forum	242
1840	242
warning	242
anyone	242
inspiration	242
45@@	242
try@@	242
feld	242
frau@@	242
waren@@	242
genesis	241
eller	241
xii	241
tim	241
ora	241
12,@@	241
fiction	241
trip	241
disper@@	241
oma	241
macro@@	241
chol@@	241
ij@@	241
grass	240
pent@@	240
ona	240
brut@@	240
poul@@	240
tering	240
willing	240
brus@@	240
m-@@	240
shoot	240
anz@@	240
apostol@@	240
variable	240
phili@@	240
lieutenant	239
was@@	239
extra	239
15.@@	239
dv@@	239
oms	239
niz@@	239
amer	239
herself	239
kash@@	239
denmark	239
rocky	238
narr@@	238
tony	238
pling	238
cheng@@	238
releg@@	238
crowd	238
inj@@	238
engagement	238
extrac@@	237
prest@@	237
1928	237
jack	237
wore	237
sir@@	236
fiscal	236
session	236
yor@@	236
golf	236
ald	236
municipality	236
dd@@	236
mobil@@	236
ky@@	236
ul	236
archip@@	236
70@@	236
imit@@	236
ait	236
geneva	236
pes@@	235
haw@@	235
pilot	235
arg@@	235
uk@@	235
izen	235
expedit@@	235
balan@@	235
1800	235
chus	235
shut	234
mw	234
cuba	234
palestine	234
mention	234
olo@@	234
oan	234
clan@@	234
masters	234
mim@@	234
sedi@@	234
macedonia	234
conclusion	234
show@@	234
athe@@	233
ingu@@	233
diamond	233
grace	233
victor	233
rod@@	233
circul@@	233
cd-@@	233
maj@@	233
delta	233
000,000	233
tap@@	233
ford@@	232
nun@@	232
macul@@	232
35@@	232
feeling	232
uruguay	232
massacre	232
brand	232
sible	232
deco@@	232
sina	232
hiv	232
ato	232
shire	231
etern@@	231
confidence	231
ros	231
birth@@	231
thunder@@	231
evil	231
ula	231
monast@@	231
pompe@@	231
sep@@	231
reception	231
cript	231
spann@@	231
thick	231
ks@@	231
aran	231
lock@@	230
condit@@	230
guin@@	230
lau@@	230
horses	230
ozo@@	230
isoto@@	230
pia	230
emes	230
1836	230
finale	230
ught	230
laz@@	230
sein	230
cutting	230
pus@@	230
riage	229
senti@@	229
1878	229
16.@@	229
concre@@	229
plast@@	229
tec@@	229
iding	229
mour@@	229
p.	229
sle@@	229
mg	229
pie@@	229
synago@@	229
ith	229
asilia	229
27@@	229
iness	228
bombar@@	228
sten	228
ble-@@	228
max	228
dien@@	228
battle@@	228
fi	228
chris	228
nate	228
luis	228
hic	228
hua	228
11.@@	227
es-@@	227
senator	227
16-@@	227
aga	227
camera	227
je	227
us-@@	227
0.1	227
sharp	227
psycho@@	227
aking	227
asit@@	226
bou@@	226
ctu@@	226
domain	226
01	226
ril@@	226
divide	226
jewel@@	226
160	226
rca	226
pur	226
week@@	226
cryst@@	226
virtual	226
caster	226
event@@	225
zu@@	225
jum@@	225
certific@@	225
them@@	225
keys	225
pressing	225
modul@@	225
3.5	225
anthony	225
alan	225
.com	225
lyn@@	225
synchron@@	225
imag@@	225
ipo@@	225
blood@@	224
encyclo@@	224
ans@@	224
solutions	224
blan@@	224
lewis	224
apor@@	224
fc	224
interview	224
satell@@	224
1872	224
directions	224
entum	224
pora	224
6,000	224
tension	223
bles@@	223
feelings	223
1853	223
alem@@	223
emig@@	223
bes@@	222
nik@@	222
tens	222
chic@@	222
fast@@	222
distribu@@	222
ng@@	222
lectu@@	222
weapon	222
tras	222
flower	222
rid@@	222
embr@@	222
agon@@	222
dan	222
franco-@@	222
demi@@	222
aside	222
-up	222
aero@@	222
13,@@	222
sm@@	221
1815	221
wol@@	221
any@@	221
wy@@	221
bo-@@	221
driving	221
1838	221
depend	221
kid@@	221
reluc@@	221
admiral	221
kens	221
certain@@	221
amen@@	221
mere	221
allen	221
bert	221
infin@@	220
ppen	220
lit	220
ultra@@	220
ryan	220
amsterdam	220
viii	220
dale	220
14.@@	220
bab@@	220
gram	220
hoped	219
rence	219
1857	219
gut	219
admir@@	219
lift	219
bak@@	219
friedrich	219
gi	219
sex@@	219
teen@@	219
coinci@@	219
galil@@	219
cott	219
ning@@	219
milan	219
rho@@	219
drove	218
jordan	218
flex@@	218
tu	218
carol@@	218
1839	218
muscles	218
avia	218
duk@@	218
leopold	218
art@@	218
organ	218
har	218
churchill	217
answer	217
constituent	217
mant@@	217
dj	217
1889	217
scor@@	217
renov@@	217
hd	217
heaven	217
zz@@	217
tius	217
christopher	216
mb@@	216
amor@@	216
roll@@	216
cool	216
happy	216
anal@@	216
burning	216
corridor	216
formations	216
rest@@	216
cun@@	216
blues	216
ete	215
wich	215
gh	215
1835	215
arin	215
gly@@	215
anes	215
pot@@	215
pontific@@	215
sail@@	215
uy@@	215
aea	215
gregor@@	215
unic@@	214
davis	214
tennis	214
otes	214
canon@@	214
bones	214
rowed	214
stam@@	214
coin	214
rem	214
near@@	214
rag@@	214
journalist	214
corn@@	214
cardi@@	214
mot@@	214
paras@@	214
polar	214
ijan	213
1901	213
tours	213
impres@@	213
margaret	213
dits	213
spend	213
ent-@@	213
throw	213
jin	213
bern@@	213
celtic	213
cash	212
statue	212
ring@@	212
tz	212
bra	212
diana	212
dial	212
zoo	212
palest@@	212
amino	212
woods	212
opin@@	212
wang	212
ride	212
brick	212
sang@@	212
convinced	212
vali@@	212
yle	211
1935	211
tel	211
sk@@	211
inc	211
15,000	211
tube	211
mike	211
arez	211
restr@@	211
arabia	211
lane	211
romania	210
11,@@	210
pep@@	210
mississippi	210
procedure	210
copa	210
kes	210
weekend	210
soccer	210
ohio	210
tari@@	210
hara	210
zar@@	209
clothes	209
gamb@@	209
ball@@	209
compil@@	209
scan@@	209
exactly	209
tar	209
coat	209
missing	209
grim@@	209
gordon	209
zt	209
manage	209
volcan@@	209
chip@@	209
happened	209
poem	208
1837	208
episcop@@	208
const@@	208
malay@@	208
yes	208
bid	208
mir	208
virus	208
swift	208
tze	208
sporting	208
cab	208
1.2	208
urg@@	208
zhang	208
doubt	208
advent@@	207
circle	207
mates	207
yon	207
soundtrack	207
aires	207
orbit@@	207
sau	207
uma	207
rede@@	207
apost@@	207
position@@	207
paris@@	207
ascen@@	206
marry	206
perfec@@	206
trail	206
fiel@@	206
dos	206
hero@@	206
canton	206
marti@@	206
rio	206
sacrific@@	206
colorado	206
malaysia	206
partis@@	206
1903	206
cere@@	206
shu@@	205
foc@@	205
este@@	205
editorial	205
heroes	205
nab@@	205
even@@	205
navig@@	205
swan@@	205
60,000	205
tung@@	205
hip-hop	205
vier	205
flor@@	205
tell	205
argentina	205
akh	204
rap	204
aur@@	204
90@@	204
wolves	204
guest	204
composit@@	204
farm	204
preparation	204
ano@@	204
uss	204
charlotte	204
cloud	204
interpret@@	204
vietnam@@	204
ej@@	204
stephen	204
min	203
promul@@	203
sally	203
haplo@@	203
getting	203
yi	203
jack@@	203
ifer@@	203
ific@@	203
arnold	203
acre	203
nan	203
civil@@	203
patr@@	203
joe	203
anna	202
divorce	202
manifest@@	202
listening	202
ignor@@	202
supre@@	202
pois@@	202
talk	202
oti@@	202
cats	202
philosophi@@	201
fold	201
tank	201
serbia	201
flem@@	201
eus	201
tali@@	201
1897	201
err@@	201
river@@	201
newton	201
sk	201
zi	201
decide	201
aug@@	201
000	201
habs@@	201
thal	200
elig@@	200
plato	200
hoping	200
cave	200
sponsor@@	200
logo	200
'm	200
element@@	200
alco@@	200
drum	200
entertain@@	200
lingu@@	200
shooting	200
tables	200
bulgaria	199
vener@@	199
maxim@@	199
clay	199
1.3	199
thirty	199
mirror	199
ok	199
infer@@	199
periodi@@	199
holo@@	199
lob@@	199
respir@@	199
stomach	199
baker	199
triangle	198
warren	198
yu@@	198
unesco	198
adil@@	198
tie	198
1,500	198
inn@@	198
jug@@	198
assistant	198
22@@	198
1890	198
ila	198
realis@@	198
ille	198
isch@@	198
eve	198
ys@@	198
prolong@@	197
profit@@	197
button	197
ske@@	197
uli	197
1850	197
plateau	197
concor@@	197
ei	197
hot@@	197
ino@@	196
olit@@	196
kilomet@@	196
steady	196
1849	196
shah	196
mith@@	196
anne	196
modific@@	196
25,000	196
lah@@	196
nitro@@	196
row@@	196
ethiopia	196
1904	196
sahara	196
graz@@	196
onem@@	195
mus	195
rent@@	195
ume	195
kol@@	195
ren	195
mas	195
insist@@	195
rites	195
lp	195
intr@@	195
ina@@	195
wara	195
matur@@	195
500,000	195
harris	194
shadow	194
bud@@	194
ortho@@	194
350	194
flan@@	194
deme@@	194
circular	194
camps	194
acle	194
restaurant	194
hamilton	194
aves	194
earl	194
retro@@	193
istem@@	193
balkan	193
preven@@	193
cle	193
escal@@	193
ulus	193
ense	193
derby	193
escor@@	193
cross@@	193
femin@@	193
12,000	192
fla@@	192
birthday	192
1,4@@	192
suicide	192
obvious	192
hidalgo	192
judici@@	192
cap	192
doctor@@	192
bob	192
talent	192
38@@	191
compos@@	191
inas	191
itunes	191
cylin@@	191
adic@@	191
sending	191
dle	191
sives	191
mao	191
bau@@	191
prise	191
130	191
vis	190
installation	190
prag@@	190
jin@@	190
1875	190
sword	190
yl@@	190
check	190
chelsea	190
acles	190
cine	190
icking	190
tric@@	190
veg@@	190
algorith@@	190
eli	189
hou@@	189
rant	189
detail	189
supervis@@	189
emigr@@	189
deb@@	189
lawrence	189
mah@@	189
eps	189
shed	189
entrepr@@	189
chu@@	189
reser@@	189
sey@@	189
eb@@	189
organize	189
patient	189
einstein	189
nm	188
vulnerable	188
det@@	188
drin@@	188
mt@@	188
didn	188
abraham	188
4.5	188
abor@@	188
pilo@@	188
tc	188
boar@@	188
cope	188
ble@@	188
neg@@	188
substitu@@	188
etab@@	188
amin	188
distant	188
tiz@@	188
ral	187
redi@@	187
1902	187
loan	187
kus@@	187
drink	187
stan	187
seconds	187
warrior	187
episodes	187
ask@@	187
chat@@	187
chip	187
kim	187
nancy	187
apper	187
fifty	187
1789	187
ledge	187
oke	187
violet	187
ben	186
pic	186
1821	186
0.5	186
nova	186
codi@@	186
ei@@	186
vs.	186
isle	186
excellent	186
nba	186
tible	185
crazy	185
jacques	185
mineral	185
aff@@	185
rhin@@	185
aying	185
spur@@	185
bod@@	185
1905	185
elem@@	185
fut@@	185
ober@@	185
ado	185
itis	185
erous	185
obst@@	185
franch@@	185
block@@	185
ornam@@	184
alisation	184
jen@@	184
abdul	184
ow	184
liga	184
asking	184
respond	184
-1	184
iles	184
diab@@	184
gel	184
matern@@	184
11-@@	184
vec@@	184
ve-@@	184
whatever	184
escaped	184
regim@@	184
ield	184
wski	184
ncaa	184
calvin	184
apar@@	184
tall	183
lateral	183
gui@@	183
louisiana	183
hectar@@	183
wheel	183
lie@@	183
04	183
programmes	183
propag@@	183
reside	183
15,@@	183
rels	183
hym@@	183
pose@@	183
dr	183
struggled	183
sunni	183
caught	183
oly@@	182
surprise	182
adi	182
1882	182
ours	182
alger@@	182
eric	182
derive	182
racing	182
repet@@	181
cyc@@	181
colonel	181
pal	181
cooper	181
0.2	181
brig@@	181
gins	181
biom@@	181
06	181
israel@@	181
radio@@	181
neo@@	181
bulgar@@	181
thrown	180
inferior	180
abc	180
1,5@@	180
inci@@	180
quebec	180
octa@@	180
1810	180
dt	180
pride	180
erup@@	180
prepare	180
ord@@	180
dorf	180
veter@@	180
sloven@@	180
messages	180
cite	180
paint	180
mises	179
anta	179
saint-@@	179
nfl	179
emissions	179
watt	179
sali@@	179
otto	179
parish	179
ege	179
disappeared	179
1864	179
sydney	179
barbar@@	179
nau@@	179
barr@@	179
25-@@	179
egg	179
shut@@	179
protestant@@	178
nak@@	178
gent	178
coc@@	178
transformation	178
scy@@	178
dominic	178
adventure	178
ogen	178
ito	178
emir@@	178
experien@@	178
problem@@	178
enjoy	178
herbert	178
cook	178
phan@@	177
caus@@	177
rav@@	177
kha	177
liu	177
hate	177
innocent	177
pist@@	177
gregory	177
chrom@@	177
melo@@	177
harm	177
pai@@	177
elli@@	177
facade	177
servic@@	177
nixon	177
mesopotamia	177
edinburgh	177
complement@@	177
meter	177
hai	177
thermo@@	176
certainly	176
rin@@	176
bott@@	176
precise	176
angel	176
bow	176
k.	176
19.@@	176
rous@@	176
fere	176
tea	176
alg@@	176
backs	176
tedly	176
1906	176
anas	176
03	176
ray@@	176
leng@@	176
wells	176
evit@@	176
hale	176
finish	176
jab@@	176
night@@	176
lang@@	176
magic	176
tech@@	176
exac@@	176
mation	175
300,000	175
kle@@	175
propriet@@	175
assume	175
ciudad	175
consul	175
watson	175
ferdinand	175
contamin@@	175
sara	175
stere@@	175
euro	175
wooden	175
creatures	175
remember	175
ventr@@	174
whitney	174
kilo@@	174
fruits	174
astr@@	174
ex-@@	174
confused	174
oty@@	174
nels	174
aig@@	174
prestig@@	174
17.@@	174
guardian	174
configur@@	174
lifted	174
gold@@	174
1833	174
ska	174
ease	174
dor	174
garde	174
shi	174
watched	174
carefully	174
body@@	174
vert	174
3.1	174
1851	173
stell@@	173
meteor@@	173
fo	173
etres	173
diaz	173
awa	173
hampshire	173
correspond	173
nest@@	173
gift	173
bla@@	173
homo	173
wem@@	173
tribunal	173
laur@@	173
intensi@@	173
ffs	173
locom@@	173
1926	173
arc	172
listen	172
spati@@	172
pyram@@	172
off-@@	172
za@@	172
global@@	172
atrice	172
refr@@	172
cards	172
inn	172
ager	172
w-@@	172
firmly	172
geon	172
handed	172
mode@@	172
beneath	172
1896	172
well@@	172
proclam@@	172
roof	171
transpar@@	171
mouse	171
passag@@	171
dimin@@	171
sweet	171
plement@@	171
deser@@	171
180@@	171
reas@@	171
arter@@	171
29@@	171
systemat@@	171
captur@@	171
lil@@	171
junior	171
nt	171
ask	171
mills	171
metalli@@	170
edwards	170
foster	170
bachelor	170
sisters	170
cu	170
seau	170
bach	170
sheffield	170
stom@@	170
ees	170
1869	170
muscle	170
princeton	170
oxid@@	170
1888	170
dispar@@	170
adams	170
karma	170
1820	170
harold	170
audi@@	170
apart@@	170
eles	169
opo@@	169
rol	169
34@@	169
18.@@	169
mascul@@	169
1500	169
kelly	169
designer	169
realiz@@	169
stil@@	169
rah@@	169
eper	169
dozen	169
triple	169
oi	169
saar@@	169
sung	169
bik@@	169
simul@@	169
wilhelm	169
1877	169
1915	168
eph@@	168
sheets	168
google	168
mari@@	168
miz@@	168
30-@@	168
07	168
1847	168
guilty	168
boot@@	168
armor	168
satisfaction	168
201@@	167
pearl	167
hook@@	167
august@@	167
iler	167
ballet	167
1.6	167
cer	167
priv@@	167
diag@@	167
realized	167
brilli@@	167
terror	167
lef@@	167
mini@@	167
zi@@	167
elli	167
perpet@@	167
daugh@@	167
agan	167
mu	166
zen	166
riding	166
dot	166
extra@@	166
hast@@	166
tram@@	166
yer@@	166
corpus	166
fifteen	166
accent	166
conn@@	166
110	166
fix	166
1866	166
hawaii	166
artic@@	166
uch@@	166
emission	166
rison	166
logist@@	166
grande	165
prosp@@	165
bund@@	165
,@@	165
elle	165
alive	165
poin@@	165
tz@@	165
quest	165
nie	165
ester@@	165
sunshine	165
autom@@	165
usal	165
thanks	165
suite	165
toxic@@	165
clark	165
sert	165
refor@@	165
regiment	165
ital	165
nervous	164
dice	164
50-@@	164
235	164
oa	164
rom	164
20.@@	164
approached	164
1858	164
spectat@@	164
iz	164
kang@@	164
24-@@	164
pix@@	164
suf@@	164
dock	164
roc@@	164
ores@@	164
alam@@	164
08	164
prair@@	164
voyage	164
nie@@	164
suspected	164
ores	164
glor@@	164
gnu	164
bam@@	164
ador@@	163
apartment	163
dow@@	163
amateur	163
sence	163
park@@	163
kor@@	163
ich	163
ale@@	163
1.4	163
deeper	163
extraordin@@	163
notic@@	163
fate	163
eclip@@	163
chec@@	163
arro@@	163
comment	163
atia	163
lander	162
empty	162
teles@@	162
lb	162
aly@@	162
julius	162
22.@@	162
buff@@	162
ico	162
intercep@@	162
illinois	162
concur@@	162
pot	161
tas@@	161
kant	161
dream	161
destruc@@	161
05	161
graham	161
conf@@	161
jo	161
dublin	161
hips	161
cras@@	161
install@@	161
stit@@	161
friday	161
vast@@	160
ag	160
heading	160
rush	160
ilia	160
het@@	160
1,3@@	160
austro-@@	160
sit	160
mp	160
jubil@@	160
imam	160
pier@@	160
inage	160
kas@@	160
bever@@	160
coffee	160
1.1	160
expul@@	160
casino	160
morgan	160
incen@@	160
fortific@@	160
bike	160
rings	159
alabama	159
taste	159
hume	159
ologies	159
mc	159
marcus	159
inti@@	159
euro@@	159
spectac@@	159
enes	159
domination	159
09	159
cac@@	159
c.@@	159
1874	159
1856	159
observe	159
attitude	159
galler@@	159
venue	159
28@@	159
ross	159
kun@@	158
oro@@	158
degrad@@	158
dust	158
tiny	158
dela@@	158
butter@@	158
point@@	158
diesel	157
coff@@	157
kie	157
ele@@	157
picked	157
1,200	157
notice	157
ecu@@	157
sudden	157
rhythm	157
cales	157
courage	157
abandon	157
straight	157
steam	157
23.@@	157
1863	157
eo@@	157
pian@@	156
threw	156
eras	156
anat@@	156
hasa	156
professor@@	156
till	156
hong@@	156
ami	156
pam@@	156
memories	156
eng	156
majest@@	156
il-@@	156
yers	156
locked	156
hms	156
parado@@	156
craig	156
pink	156
2.1	156
homer	155
inging	155
patron	155
light@@	155
eta	155
tus@@	155
mo	155
agin@@	155
pe-@@	155
figur@@	155
ida	155
beauty	155
lam	155
nasa	155
hob@@	155
mt	155
reich	155
diversi@@	154
donald	154
hap@@	154
ore@@	154
1.8	154
holiday	154
fundament@@	154
need@@	154
cry@@	154
cc@@	154
alban@@	154
1846	154
creek	154
uncle	154
asso	154
grey	154
franz	154
lorraine	154
8,000	154
verif@@	154
gn@@	154
umb@@	154
incar@@	154
apol@@	153
client	153
fas@@	153
abi	153
ost	153
esa	153
neuro@@	153
way@@	153
dick	153
hear	153
pierre	153
intel	153
cantons	153
baz@@	153
diocese	153
say@@	153
forts	153
bismarck	153
scen@@	153
diffusion	153
1873	153
incur@@	153
ange@@	153
nest	153
aer@@	153
iens	153
danu@@	152
finan@@	152
ds@@	152
enda	152
tif@@	152
aus	152
jennifer	152
1832	152
tok@@	152
montreal	152
lopez	152
slide	152
upper@@	152
rod	152
stif@@	152
conspir@@	151
ello	151
ced@@	151
flash	151
hut@@	151
mad	151
skul@@	151
albania	151
maryland	151
oth	151
liberia	151
decis@@	151
conces@@	151
mos	151
ista	151
dhar@@	151
aki	151
27.@@	150
wr@@	150
atri@@	150
125	150
waiting	150
equival@@	150
lots	150
kit	150
voir	150
coup@@	150
65@@	150
torn@@	150
revolu@@	150
boot	150
wait	150
wedding	150
1,6@@	150
wet	150
tuo@@	150
nel	150
ante	150
jer@@	150
blow	150
stir@@	150
jor@@	150
oli	150
epo@@	150
stab@@	149
accid@@	149
cinem@@	149
bra@@	149
toronto	149
wana	149
guer@@	149
128	149
24.@@	149
astro@@	149
33@@	149
26.@@	149
explosion	149
walking	149
arsen@@	149
pine	149
utah	149
smooth	149
hn@@	149
ya@@	149
anth@@	149
adha	149
tw@@	149
ten-@@	149
gilbert	149
expon@@	149
cat	149
ontario	149
1867	149
jupiter	149
p.@@	149
exhaust@@	149
carr@@	148
1842	148
anger	148
ophy@@	148
jean-@@	148
hunter	148
carter	148
pi	148
cut@@	148
florence	148
aw	148
sta	148
bias	148
flam@@	148
1881	148
ft@@	148
brand@@	148
ame	148
jet	148
dard	148
bub@@	148
tut@@	148
traff@@	148
pulled	148
con	148
phoenix	148
stanley	148
dancing	148
missouri	148
ott	148
peg	148
manipul@@	148
favor@@	147
afro@@	147
sri	147
kad@@	147
dang@@	147
propaganda	147
ason	147
pak@@	147
susp@@	147
mult@@	147
lia	147
miller	147
ind@@	147
signif@@	147
119@@	147
devi@@	147
clouds	147
1895	147
hann@@	146
5.5	146
ms@@	146
import@@	146
sanctu@@	146
hippo@@	146
pies	146
dong	146
regen@@	146
jonathan	146
chang@@	146
tokyo	146
hidden	146
dropping	146
austin	146
1.7	146
kl@@	146
mb	146
holland	146
artis@@	146
surpris@@	146
olis	146
rhodes	146
ket	146
wick	146
ges@@	146
matrix	146
nav@@	146
140	146
maurice	146
ples	146
cruz	146
bull	146
warriors	145
tiers	145
tr	145
wrong	145
aden@@	145
125@@	145
iana	145
margin@@	145
1814	145
vladimir	145
gary	145
ird	145
py	145
nant	145
it-@@	145
prises	145
glas@@	145
1879	145
sting	145
tham	145
arrive	145
vand@@	145
lear@@	145
uter	145
raeli	145
luke	145
parking	145
gig@@	144
rs	144
marx@@	144
karab@@	144
uli@@	144
magnet@@	144
n.	144
dj@@	144
sierra	144
grave	144
192@@	144
rine	144
nelson	144
1812	144
hi-@@	144
preci@@	144
105	144
1845	144
sius	144
1829	144
ascension	144
ud	143
ppe	143
36@@	143
240	143
ner-@@	143
anderson	143
anywhere	143
kul@@	143
20,@@	143
sound@@	143
eag@@	143
francois	143
manif@@	143
looks	143
stig@@	143
hul@@	143
1831	143
lusion	143
indiana	143
irv@@	143
sof@@	143
holid@@	143
slip	142
fu	142
douglas	142
pra@@	142
1844	142
bristol	142
>	142
uro	142
750	142
lent	142
interrupted	142
gerald	142
ilo@@	142
fabric@@	142
j.@@	142
homosexu@@	142
munich	142
span	142
graphies	142
0.7	142
trim@@	142
cele@@	142
harder	142
wished	142
184@@	142
75@@	141
robinson	141
berkeley	141
jour@@	141
lung	141
21.@@	141
zor@@	141
morris	141
chand@@	141
lard	141
skir@@	141
kw@@	141
milli@@	141
aragon	141
philipp@@	141
joy	141
spur	141
bernard	141
dac@@	141
appen@@	141
dio	140
tail@@	140
amen	140
lip	140
dad	140
hung	140
scrap@@	140
spin	140
nut	140
pler	140
envis@@	140
mg@@	140
newcastle	140
olig@@	140
combat@@	140
cho	140
relie@@	140
1884	140
eping	140
wing@@	139
favorite	139
slov@@	139
gee	139
costum@@	139
ime	139
ayan	139
zes	139
salon	139
tyr@@	139
bosnia	139
lombar@@	139
monum@@	139
man-@@	139
1894	139
shanghai	139
40-@@	139
johann	139
accident	139
3.0	139
putting	139
yali@@	139
nile	139
dum@@	138
sip	138
gia	138
dimension	138
atra	138
sev@@	138
icious	138
2.4	138
traf@@	138
46@@	138
util@@	138
1892	138
milk	138
pate	138
ucks	138
17-@@	138
sl@@	138
excav@@	138
polon@@	138
pand@@	137
bre	137
ori	137
chim@@	137
tribune	137
ronald	137
push	137
auto	137
fortun@@	137
talking	137
beta	137
eas	137
appreci@@	137
isa	137
ango	137
senses	137
rand@@	137
crimin@@	137
modernis@@	137
thed	137
hous@@	137
happen	137
disap@@	137
cites	137
1893	137
inge	137
opon@@	137
wald	137
tis	137
rh@@	136
ground-@@	136
kazakhstan	136
hardly	136
favorable	136
henri	136
poem@@	136
metrop@@	136
zon@@	136
thoughts	136
bloc	136
boul@@	136
photo	136
1825	136
bei@@	136
chit@@	136
berry	136
sley	136
1776	136
oppos@@	136
santiago	136
nod	136
timo@@	135
halt	135
catch	135
afternoon	135
saul@@	135
ui	135
1885	135
eno@@	135
ay-@@	135
vise	135
isaac	135
trap@@	135
side@@	135
icus	135
agne	135
tip	135
altar	135
cation	135
invisible	135
dimension@@	135
marty@@	135
chile	135
bow@@	135
sut@@	135
ipe	135
jar@@	135
mud	135
nik	135
tang@@	135
raymond	135
birmingham	135
iro@@	134
salon@@	134
lip@@	134
prefec@@	134
pregnant	134
hans	134
hak@@	134
wright	134
liked	134
trol@@	134
affluent	134
're	134
tottenham	134
carto@@	134
besie@@	134
atom	134
psychi@@	134
tray@@	134
pace	134
jr.	134
egr@@	134
68@@	134
hell@@	134
road@@	133
radic@@	133
improvis@@	133
guang@@	133
ink	133
versailles	133
gaza	133
membr@@	133
that@@	133
rhy@@	133
visu@@	133
aro	133
shak@@	133
fda	133
inflam@@	133
scal@@	133
testim@@	133
exo@@	133
shu	133
pick@@	133
ib	133
sick	133
marx	133
worse	133
bie	133
iti	133
aint	133
smel@@	133
ceiling	133
shat@@	133
alberta	133
zeppelin	132
pirates	132
dying	132
tos	132
descar@@	132
neu@@	132
plen@@	132
avant-@@	132
faa	132
eran	132
musee	132
lot@@	132
draul@@	132
immer@@	132
navi@@	132
twel@@	132
0.3	131
sburg	131
cents	131
44@@	131
retrie@@	131
oriental	131
metro@@	131
nem@@	131
expect	131
naked	131
flew	131
ew	131
iphone	131
anxi@@	131
eagle	131
sc	131
warned	131
37@@	131
lars	131
iec	131
gang	131
rally	131
aving	131
fru@@	131
dav@@	131
alpha@@	131
nip@@	131
ape	131
prague	131
reun@@	131
shield	131
pushing	131
brun@@	131
lap	130
arium	130
13-@@	130
80,000	130
mozart	130
oned	130
count@@	130
1859	130
land-@@	130
sat	130
117@@	130
wen	130
skin@@	130
1862	130
baby	130
cryp@@	130
1600	130
lungs	130
ota	130
sohn	130
gin@@	130
eleph@@	130
olym@@	130
pen	130
1762	130
der-@@	130
alter	130
78@@	130
2.6	130
wet@@	129
25.@@	129
minnesota	129
hen	129
keith	129
dag@@	129
2.2	129
cousin	129
hr	129
uni	129
is-@@	129
know@@	129
bloody	129
phras@@	129
fet@@	129
pan	129
topo@@	129
sid@@	129
anag@@	129
gag@@	129
anza	129
plas@@	129
niger	129
-2	129
zur@@	129
telev@@	129
stock@@	129
1824	129
saved	128
xy@@	128
thia	128
yn	128
trust@@	128
impression	128
jane	128
lis	128
raz@@	128
steven	128
hex@@	128
yang	128
licence	128
47@@	128
watching	128
axi@@	128
ware@@	128
everywhere	128
equili@@	128
zu	128
fashi@@	128
millim@@	128
aps	128
cand@@	128
ym	128
280	128
ache	128
dea	127
viz@@	127
heav@@	127
kv	127
spring@@	127
slight	127
jump	127
nul@@	127
cb	127
bat	127
tas	127
gis@@	127
passion	127
mang@@	127
catastro@@	127
platform@@	127
grove	127
palm	127
dream@@	127
appell@@	127
scrat@@	127
1883	126
echo@@	126
tram	126
suddenly	126
glory	126
smoke	126
ave	126
soldier	126
quick	126
olds	126
~	126
220	126
18,@@	126
impose	126
1868	126
leo	126
lett	126
begin@@	126
digit@@	126
wallace	126
2.3	126
midnight	126
declare	126
glaci@@	126
confid@@	126
font	126
maus@@	125
berg@@	125
hazi	125
106	125
arrondissement	125
surveillance	125
gast@@	125
carlos	125
lever@@	125
ple	125
14-@@	125
sr@@	125
55@@	125
6.1	125
tag	125
portland	125
wayne	125
scu@@	125
beat@@	125
v-@@	125
geoff@@	125
dances	125
parall@@	125
inver@@	125
irus	124
monroe	124
allah	124
beatles	124
amaz@@	124
pang@@	124
1891	124
etta	124
twin	124
iowa	124
aux	124
oles	124
bare	124
joan	124
6.5	124
depor@@	124
1887	124
heim	124
14,@@	124
taf@@	124
pru@@	123
west-@@	123
surprised	123
2020	123
vat@@	123
quiet	123
ares	123
actus	123
lowered	123
scrut@@	123
cry	123
quay	123
offs	123
remin@@	123
buenos	123
crash	123
jon	123
practically	123
gandhi	123
rigi@@	123
dere@@	123
wei	123
ici	123
ambigu@@	123
enjo@@	123
amy	123
legion	123
1843	123
rope	123
brook	123
ket@@	123
metre	123
48@@	123
1,7@@	122
4.6	122
fitz@@	122
dakota	122
bekistan	122
vincent	122
blind	122
1788	122
doesn	122
tue	122
summer@@	122
weig@@	122
som	122
rist@@	122
rows	122
neck	122
app	122
wasn	122
int	122
interesting	122
handi@@	122
1.0	121
pos	121
wes@@	121
hamburg	121
roh@@	121
estan	121
mercy	121
0.6	121
mart@@	121
conden@@	121
ampli@@	121
obe@@	121
hart@@	121
antio@@	121
oming	121
princi@@	121
sed@@	121
credit@@	121
bru@@	121
iss@@	121
te-@@	121
yam@@	121
pengu@@	121
ignore	120
aj	120
abd	120
ocean@@	120
brandenburg	120
signature	120
lifting	120
seine	120
melan@@	120
feminine	120
iser	120
2013-14	120
jamaica	120
devon	120
ados	120
'i	120
solidar@@	120
myster@@	120
lili@@	120
lover	120
mum@@	120
manu@@	120
1,9@@	120
eon	120
lar	120
walt	120
7.5	120
nut@@	120
anor	120
sten@@	120
arche@@	119
taun@@	119
son-@@	119
nash@@	119
unge	119
alfonso	119
oo	119
truly	119
recur@@	119
alex@@	119
plum@@	119
wound	119
miracle	119
dess	119
etat	119
whenever	119
nou@@	119
1.9	119
hor	119
ls@@	119
cede	119
precis@@	119
1834	119
vak@@	119
probabil@@	119
europa	119
pid@@	119
attribu@@	119
coel@@	119
ext@@	119
silent	119
glasses	119
aning	119
....	119
ingen	119
hugo	119
daw@@	119
ix@@	119
nails	119
pr	119
siberia	118
vor	118
elo@@	118
heinrich	118
buy@@	118
57@@	118
frustr@@	118
mr@@	118
unci@@	118
1775	118
acep@@	118
fier	118
1757	118
1790	118
ethiop@@	118
ati@@	118
andre	118
lambert	118
communal	118
salvador	118
carre@@	118
oe	118
rev@@	118
duo	117
ough	117
bang	117
inos	117
quart@@	117
millet	117
stol@@	117
balls	117
bry@@	117
swing	117
wich@@	117
ches@@	117
archiv@@	117
az	117
miss	117
topl@@	117
3000	117
eto	117
filling	117
gie	117
arkansas	117
grat@@	116
kevin	116
euc@@	116
petro@@	116
ladi@@	116
michel	116
francis@@	116
tras@@	116
etor@@	116
5.2	116
palat@@	116
lgbt	116
springs	116
caf@@	116
calli@@	116
cket	116
ju	116
ambi@@	116
giovanni	116
harrison	116
carp@@	116
54@@	116
gab@@	116
aren@@	116
igh	116
gra@@	116
go-@@	116
parque	116
paro@@	116
oz	116
mood	116
deten@@	116
xx@@	115
beside	115
phe	115
ilo	115
optera	115
lloyd	115
afrik@@	115
mec@@	115
190	115
soft@@	115
43@@	115
thomson	115
itures	115
ego	115
eurs	115
exposition	115
anti	115
acro@@	115
davi@@	115
dar	115
1886	115
mond	115
guerr@@	115
wein@@	115
alexand@@	115
pei	115
mystery	115
itu@@	115
furt	115
convo@@	115
trap	115
dragon	115
miguel	115
isabella	115
yas@@	115
sha	114
penn@@	114
angel@@	114
kup	114
guinness	114
vide@@	114
pittsburgh	114
omor@@	114
refuse	114
leon@@	114
honey	114
norte	114
lax@@	114
ater	114
ais	114
rim@@	114
mau@@	114
burst	114
antes	114
uri	113
knight	113
gir@@	113
atorium	113
drake	113
iel	113
jacob	113
clement	113
mars	113
eli@@	113
iot	113
1801	113
nash	113
32-@@	113
orient	113
rie	113
hide@@	113
barbara	113
hang	113
wap@@	113
amoto	113
yemen	113
revision	113
rick	113
justin@@	113
pf@@	113
edgar	113
you@@	113
noticed	113
britann@@	113
lanka	112
divor@@	112
0.4	112
fines	112
reten@@	112
utc	112
fig@@	112
've	112
mrs.	112
eto@@	112
mini	112
110@@	112
99@@	112
leo@@	112
winston	112
anony@@	112
manip@@	112
photos	112
ceph@@	112
b.@@	112
lain	112
fou@@	112
r-@@	112
chant@@	112
lings	111
frozen	111
2010-11	111
agglomeration	111
hid	111
randy	111
3.2	111
gear	111
philippe	111
age@@	111
calm	111
enses	111
excell@@	111
eville	111
alber@@	111
welcome	111
tt	111
anga	111
bey	111
memphis	111
para@@	111
syri@@	111
uv@@	110
worried	110
1827	110
pedro	110
benedi@@	110
hauser	110
manga	110
georges	110
thunder	110
ois	110
dispen@@	110
knowles	110
leather	110
coher@@	110
100@@	110
22-@@	110
cameron	110
angels	110
sable	110
ec	110
stewart	109
ltd	109
450	109
polo	109
stel@@	109
museo	109
..	109
vh@@	109
pack	109
paso	109
39@@	109
ug	109
alice	109
bn	109
moments	109
neph@@	109
orum	109
uck@@	109
1791	109
rogers	109
1200	109
one@@	109
aze	109
skel@@	109
roberts	109
hugh	109
2012-13	109
21-@@	109
ip	109
xvi	108
gren@@	108
servi@@	108
him@@	108
vegas	108
3d	108
ml@@	108
distur@@	108
cephal@@	108
2008-09	108
or-@@	108
rak@@	108
log	108
knowing	108
stu@@	108
apolis	108
porto	108
simp@@	108
104	108
clave	108
lava	108
proud	108
sement	108
kas	107
pick	107
cock@@	107
hat	107
inhal@@	107
escap@@	107
remembered	107
belarus	107
insol@@	107
xx	107
frat@@	107
4.7	107
seoul	107
16,@@	107
kadi@@	107
uscul@@	107
carey	107
pse	107
genu@@	107
anos	107
murray	107
nave	107
prehen@@	107
strange	107
scent	107
par	107
ibal	107
ministeri@@	107
drum@@	107
19-@@	107
118@@	107
inscription	107
stick	107
tears	107
satisfac@@	106
serge@@	106
dry@@	106
comprom@@	106
trouble	106
usd	106
thai	106
admit	106
nicolas	106
hart	106
ton-@@	106
lep@@	106
1899	106
touch@@	106
8.1	106
beethoven	106
catherine	106
17,@@	106
clients	106
550	106
hik@@	106
chad	106
101	106
vap@@	106
cyan@@	106
chet	106
delegation	106
ambul@@	106
antic@@	106
malta	106
2.7	106
stoc@@	106
xa	106
otrop@@	106
claude	106
kay@@	106
admit@@	106
inno@@	105
ll	105
650	105
petersburg	105
hus	105
loud	105
driver	105
ulu	105
gm	105
cet@@	105
oslo@@	105
aca	105
rue	105
precision	105
tense	105
aegean	105
1750	105
figured	105
metz	105
mahar@@	105
nin	105
istanbul	105
uch	105
29.@@	105
sket@@	105
search@@	105
loose	105
hoe	104
pose	104
nacional	104
oliver	104
theodore	104
barely	104
wo	104
totally	104
fl	104
angle	104
nu	104
kentucky	104
satis@@	104
penny	104
lug@@	104
iceland	104
yas	104
stroke	104
telling	104
casting	104
finances	104
guitar@@	104
buk@@	104
ivy	104
automobile	104
plug@@	104
urdu	104
230	104
reed	104
flav@@	104
pit	104
mail@@	104
ink@@	104
kap@@	104
elector@@	104
cups	104
vaj@@	104
isha	103
turki@@	103
leib@@	103
touching	103
marie	103
preten@@	103
heinz	103
dele@@	103
dreams	103
tiger	103
quis@@	103
ili	103
canter@@	103
blu-@@	103
epit@@	103
tongue	103
oppose	103
l.@@	103
anab@@	103
ito@@	103
3.6	103
forever	103
uf@@	103
bremen	103
chicken	102
schum@@	102
kaz@@	102
26-@@	102
bitter@@	102
dons	102
atar	102
wander@@	102
suspension	102
aine	102
uri@@	102
1807	102
felix	102
tho	102
kar	102
pull	102
lab	102
anarch@@	102
rough	102
morrison	102
pulling	102
premiere	102
adan	102
ique	102
angola	102
xiv	102
atro@@	102
pear@@	101
isia	101
auxili@@	101
leton	101
solomon	101
kom@@	101
critique	101
sensation	101
alpha	101
assur@@	101
kah@@	101
exploitation	101
ution	101
affin@@	101
mia	101
mis	101
osman	101
oster@@	101
n.@@	101
tad@@	101
milton	101
bis	101
ernst	101
pleasant	101
gon	101
doub@@	101
garten	101
exterior	101
hn	101
100-@@	101
precedent	101
unt	101
legi@@	101
mik@@	100
guit@@	100
mario	100
quet	100
inda	100
quel	100
et-@@	100
eg	100
nebraska	100
89.@@	100
imal	100
collins	100
bore@@	100
throwing	100
108	100
ao@@	100
oc	100
malaria	100
bee	100
1817	100
eline	100
seri@@	100
thes	100
mel	100
darkness	100
moore	100
franco	100
jay@@	100
iron@@	100
cafe	100
cf	100
2017	100
notor@@	100
fland@@	100
1795	100
baha	100
yme	100
asis	99
hp	99
rat	99
lecture	99
118	99
teeth	99
stuart	99
wast@@	99
baron	99
nevada	99
jesu@@	99
kugawa	99
ahmed	99
incap@@	99
chest	99
glasgow	99
bent	99
hamp@@	99
oni	99
bast@@	99
hop@@	99
festiv@@	99
oh	99
squir@@	99
mhz	99
bigger	99
lut@@	99
moham@@	98
dh@@	98
maine	98
1796	98
64@@	98
spic@@	98
mog@@	98
magnus	98
oval	98
3.8	98
billy	98
grandmother	98
enberg	98
palacio	98
sted	98
jag@@	98
cay@@	98
deu@@	98
2014-15	98
bang@@	98
2.8	98
nim@@	98
amal@@	98
dus@@	98
relaxed	98
bundes@@	98
elles	98
dei	98
inner@@	98
ometr@@	98
firm@@	98
alan@@	97
lier	97
wants	97
o.	97
gom@@	97
vau@@	97
330	97
hy	97
emi	97
pter@@	97
rud@@	97
ibi@@	97
cin	97
brook@@	97
ody@@	97
voices	97
casas	97
ela	97
quer	97
prat@@	97
fant@@	97
atlas	97
mask	97
baden	97
oll	97
nam	97
28-@@	97
1822	97
gli@@	97
pat	97
gru@@	97
staff@@	97
horror	96
parag@@	96
leipzig	96
lo-@@	96
orlando	96
dim	96
zah@@	96
bard	96
sour@@	96
vulner@@	96
andro@@	96
satisfied	96
angry	96
torture	96
1808	96
oman	96
flin@@	96
arrow	96
shakespeare	96
h.@@	96
servant	96
hawa@@	96
seize	96
2000-@@	96
juana	96
celest@@	96
sitting	96
seem@@	96
60-@@	96
3.7	96
lian	96
arius	96
drag@@	96
walker	95
polis	95
heel	95
flux	95
tina	95
jimmy	95
silence	95
naf@@	95
tv@@	95
zo	95
confus@@	95
tristan	95
5.6	95
junta	95
aeronau@@	95
yoga	95
rug@@	95
fab@@	95
zam@@	95
pta	95
urugu@@	95
obviously	95
1453	95
chs	95
wash@@	95
xen@@	95
chan	95
ming@@	95
partisans	95
superfic@@	95
fern@@	95
30.@@	95
action@@	95
320	95
35-@@	95
jav@@	95
quas@@	95
bitter	95
zurich	95
comfort	95
d.@@	95
sympath@@	95
1783	95
cinc@@	95
shik@@	95
mr	95
convinc@@	95
sacram@@	95
uta	94
mohamed	94
icia	94
hawk	94
bourg	94
wu@@	94
camb@@	94
castro	94
alog	94
swept	94
hawks	94
1819	94
nick	94
stadt	94
metall@@	94
careful	94
4.8	94
lu	94
montgomery	94
rita	94
eted	94
laf@@	94
knows	94
pseudo@@	94
fisher	94
spotted	94
ana@@	94
yah	94
hav@@	94
walked	94
gibson	94
115	94
herman	94
kan	94
atlanta	94
beating	94
tec	93
campbell	93
twe@@	93
doch	93
cha	93
uth@@	93
fest	93
1852	93
khar@@	93
peru	93
cium	93
now@@	93
cyril@@	93
aire	93
tg@@	93
cow@@	93
edwin	93
rangers	93
dd	93
asi	93
jacob@@	93
imagine	93
adren@@	93
dis	93
gum	93
taire	93
unes	93
sv@@	93
ck-@@	93
austr@@	93
lla	93
phi	93
molo@@	93
artem@@	93
moul@@	93
dau@@	93
cot	92
torpe@@	92
later@@	92
jeff	92
sch	92
vs	92
aner	92
lowed	92
eze	92
4.0	92
spencer	92
acs	92
strand	92
champ	92
daim@@	92
1826	92
democrat@@	92
frac@@	92
suc@@	92
1798	92
catalina	92
mah	92
inc.	92
179@@	91
illus	91
harper	91
unk	91
brad@@	91
iff@@	91
manila	91
tific@@	91
beck	91
coal@@	91
ror@@	91
oga	91
sens@@	91
eves	91
ashley	91
1492	91
ifer	91
enza	91
seat@@	91
ago@@	91
existent	91
av	91
elast@@	91
frage	91
f.c.	91
funk	91
hab@@	91
plin@@	91
michelle	91
gus@@	91
1806	91
protagon@@	91
3.9	91
rene	91
johnny	91
home@@	91
beau@@	91
craw@@	91
ant-@@	91
lene	91
comfortable	91
medina	91
aun@@	91
pound	90
pont	90
urus	90
laden	90
conse@@	90
cambo@@	90
tells	90
bangladesh	90
dave	90
gus	90
168	90
bruce	90
replied	90
cris@@	90
hub@@	90
aut	90
210	90
dius	90
vius	90
zer	90
ralph	90
cao	90
osa	90
basel	90
automobil@@	90
58@@	90
exit	90
herzegov@@	90
kets	90
what@@	90
reno@@	90
alous	90
rex	90
inga	90
happens	90
laure@@	89
rell	89
deo	89
plain@@	89
autobio@@	89
twitter	89
ugh	89
saint-denis	89
terry	89
chaos	89
tium	89
fantasy	89
ier@@	89
000@@	89
kick	89
endu@@	89
bail@@	89
abe	89
fred	89
2009-10	89
soul@@	89
vice-@@	89
1648	89
iter@@	89
mart	89
belle	89
bois	89
lai	89
kick@@	89
tista	89
tren@@	89
thal@@	89
div@@	89
blog	89
conversation	89
git@@	89
dioc@@	89
ires	89
bras@@	89
cos	89
andre@@	89
-3	89
wick@@	89
ranch	89
harvey	89
cible	89
habil@@	89
anda	88
dirty	88
espo@@	88
dee	88
56@@	88
dem	88
bum@@	88
somewhere	88
dela	88
gymno@@	88
touched	88
propri@@	88
arte	88
acet@@	88
cinemato@@	88
marathon	88
unite	88
ffe	88
1758	88
olan	88
cra@@	88
titular	88
aller@@	88
titan@@	88
sol	88
eri	88
59.@@	88
edi	88
gib@@	88
phal@@	88
fauna	88
nathan	88
interrup@@	88
loved	88
8.5	88
pleased	88
yaz@@	87
4.2	87
phillips	87
nets	87
kim@@	87
ria	87
tepe@@	87
thom@@	87
sec	87
berger	87
airways	87
tot@@	87
isi	87
sentim@@	87
alu@@	87
santo	87
hali@@	87
eugene	87
repertoire	87
reynolds	87
dra	87
boun@@	87
trage	87
aquitaine	87
administr@@	87
pedi@@	87
secrets	87
antu	87
yx	87
eld	87
lisa	87
amar@@	87
anime	87
sad	87
omo	87
sarah	87
jak@@	87
pepti@@	87
champ@@	87
jam	87
pleas@@	87
spot@@	87
asturias	87
claves	87
etrus@@	87
moor	86
cog@@	86
nier	86
wort	86
symphon@@	86
wisconsin	86
utar@@	86
850	86
vogue	86
ience	86
lucas	86
mets	86
angi@@	86
paul@@	86
yun@@	86
nazis	86
270	86
reconnaissance	86
malaya	86
oras	86
coa	86
aba	86
nikolai	86
tai	86
kinson	86
m.@@	86
suspec@@	86
6.3	86
tate	86
indon@@	86
marin@@	86
virgin@@	86
5.0	86
mayer	86
qui	86
envel@@	86
garcia	86
depres@@	86
vene@@	86
jena	86
dign@@	86
syndrome	86
franco@@	86
omin@@	85
jib@@	85
ghost	85
hui	85
efully	85
1799	85
hercul@@	85
1609	85
hohen@@	85
pots	85
1756	85
signal@@	85
dn	85
5.1	85
aaron	85
cpu	85
epa	85
compose	85
iken	85
vy	85
exc@@	85
iji	85
leigh	85
enc@@	85
oscar	85
gio	85
cream	85
eder	85
bot	85
sake	85
kenneth	85
1809	85
5.4	85
instant	84
und-@@	84
kel	84
aston	84
giuseppe	84
enas	84
un-@@	84
cigar@@	84
zak@@	84
envo@@	84
imagin@@	84
huer@@	84
1400	84
yel	84
hanging	84
stepped	84
voyag@@	84
121	84
stretched	84
charlie	84
alise	84
conscience	84
cane	84
vas	84
kro@@	84
iya	84
psy@@	84
adin	84
pleasure	84
28.@@	84
fie@@	84
myself	84
badly	84
ont	84
sembles	84
fau@@	83
cel	83
pause	83
kho@@	83
fres@@	83
170	83
swal@@	83
dip	83
demo	83
surge	83
happiness	83
jal@@	83
triang@@	83
super-@@	83
roses	83
kaiser	83
stes	83
ensemble	83
ipa	83
mini-@@	83
37.@@	83
kurt	83
maiden	83
380	83
tres@@	83
ishu	83
usion	83
boeing	83
m1	83
tap	83
ein@@	83
oli@@	83
wait@@	83
richar@@	83
muz@@	83
gos@@	83
gut@@	83
tort	83
eler	83
prot@@	83
nee	83
quil@@	82
susan	82
gour@@	82
probable	82
sank	82
umi	82
1805	82
ramp@@	82
orium	82
tetr@@	82
mccar@@	82
augment@@	82
alge@@	82
rejo@@	82
inus	82
cio	82
kach@@	82
berg-@@	82
marcel	82
cas	82
shadows	82
brunswick	82
hare	82
gentlem@@	82
bius	82
marina	82
238	82
jerome	82
260	82
3.4	82
98@@	82
khu@@	82
panor@@	82
commune	82
monte	82
beth	82
leonard	82
saw@@	82
dennis	82
bread	82
bral	82
cili@@	82
36,@@	81
grin@@	81
mistake	81
yes@@	81
ne-@@	81
templ@@	81
alta	81
jol@@	81
dece@@	81
albi@@	81
dresden	81
ono@@	81
kilometre	81
bot@@	81
cruel	81
blast	81
queensland	81
stup@@	81
circ@@	81
upe	81
saturn	81
glomer@@	81
200-@@	81
eca	81
chocolate	81
dinner	81
liz@@	81
bet	81
tro	81
barry	81
yak@@	81
montenegro	81
inclin@@	81
forgotten	81
iko	81
1841	81
pard	81
165	81
aver	81
tray	81
realize	81
mano@@	80
adri@@	80
denis	80
mund	80
centen@@	80
t.@@	80
alil@@	80
esta	80
chry@@	80
uts	80
blame	80
bb	80
122	80
inscri@@	80
halen	80
slum@@	80
63@@	80
ope	80
joseph@@	80
stuck	80
kenzie	80
intellig@@	80
larry	80
guy	80
1763	80
ahi@@	80
acker	80
3.3	80
ision@@	80
5000	80
j-@@	80
pyr@@	80
linux	80
vivi@@	80
john@@	80
sund@@	80
hull	80
kham	80
ister	80
futur@@	80
aman@@	80
kuf@@	80
as-@@	80
ehr@@	80
schule	80
1644	80
eau	80
final@@	80
69@@	80
venus	80
simpl@@	80
^	80
nowhere	80
frankfurt	80
veda	80
lywood	79
lionel	79
pah@@	79
deutsche	79
illo	79
clem@@	79
oregon	79
cure	79
bags	79
kre@@	79
benedic@@	79
wam@@	79
cosmo@@	79
ashi	79
robin	79
2,6@@	79
blank	79
stern	79
dust@@	79
sibly	79
kyoto	79
menu	79
jose@@	79
116@@	79
yana	79
negro	79
searching	79
tuna	79
venezuela	79
2,5@@	79
briga@@	79
hem	79
49.@@	79
backward	78
phoen@@	78
proj@@	78
haiti	78
wah@@	78
crom@@	78
'd	78
pp	78
excit@@	78
hinter@@	78
propose	78
emis@@	78
gand@@	78
estu@@	78
stark	78
amas	78
ark	78
ernest	78
lightning	78
tentative	78
plann@@	78
fraser	78
ange	78
vat	78
rog@@	78
ts-@@	78
hab	78
evans	78
aho	78
kum@@	78
ellis	78
footbal@@	78
apologi@@	78
elvis	78
heli@@	78
ludw@@	78
ibrahim	78
cole	78
wiel@@	78
540	78
27,@@	78
lid	78
wash	78
sonic	78
leh@@	78
mother@@	78
rut@@	78
2,0@@	78
o.@@	78
mans	78
wett@@	78
meg@@	78
folded	78
delicate	78
bruno	78
mae	78
ocul@@	77
absolutely	77
shan@@	77
183@@	77
reporter	77
zav@@	77
diplo@@	77
lunch	77
rand	77
yoshi	77
weimar	77
erie	77
nigh@@	77
ava	77
shoulder	77
hin	77
480	77
vista	77
armstrong	77
impul@@	77
ayn	77
diagnost@@	77
1793	77
ane@@	77
ferr@@	77
salle	77
2,7@@	77
1813	77
juven@@	77
cker	77
sheriff	77
comedi@@	77
silver@@	77
eter@@	77
116	77
arm@@	77
4,0@@	77
laughter	77
omed	77
miser@@	77
cherry	77
33.@@	77
alas@@	77
pocket	77
am-@@	77
breast	77
tine	76
aval	76
tifs	76
flus@@	76
loo	76
drunk	76
paula	76
asse	76
vais@@	76
breakfast	76
kha@@	76
256	76
canadi@@	76
cleared	76
colo	76
chau@@	76
betr@@	76
59@@	76
sander	76
vy@@	76
cim@@	76
intim@@	76
divis@@	76
noctur@@	76
jaz@@	76
portrait	76
baltimore	76
safari	76
isis	76
ento	76
avi	76
1992-@@	76
nett	76
appr@@	76
lenin	76
bia	76
humor	76
underneath	76
answered	76
4.3	76
iri	76
30,@@	76
cly@@	76
orph@@	76
eros	76
1700	75
xin	75
sac	75
4000	75
vinc@@	75
snake	75
semif@@	75
dun	75
1780	75
sar	75
devil	75
annis	75
shade	75
113@@	75
u.	75
vij@@	75
ener	75
parc	75
mor	75
ridicul@@	75
terra	75
costa	75
eis@@	75
raphael	75
cage	75
roland	75
trau@@	75
pablo	75
46.@@	75
knocked	75
ingen@@	75
abdullah	75
slow@@	75
arra	75
be-@@	75
visi@@	75
sega	75
filtr@@	75
trit@@	75
tron	75
anno@@	75
maya	75
77@@	74
tale	74
disci@@	74
incredi@@	74
louise	74
tah@@	74
mitt@@	74
inspir@@	74
icas	74
hair@@	74
elf	74
huan	74
cil	74
sud@@	74
640	74
pant@@	74
2,9@@	74
jerry	74
a2	74
vial	74
ivan	74
114	74
ettes	74
tender	74
sanit@@	74
1786	74
heimer	74
plasma	74
java	74
occit@@	74
alexandra	74
kosovo	74
happening	74
r.@@	74
stur@@	74
fax	74
xon	74
1792	74
hei@@	74
haus	74
porte	74
hardy	74
califor@@	73
ad-@@	73
115@@	73
mariah	73
smas@@	73
1707	73
horizon	73
unfortunately	73
1642	73
bolivia	73
nice	73
tiber@@	73
lah	73
4.1	73
cp	73
29,@@	73
sandy	73
boh@@	73
quan	73
witt@@	73
asiat@@	73
accident@@	73
hac@@	73
ensis	73
quel@@	73
175	73
109	73
instinc@@	73
fb	73
gymnasium	73
49@@	73
solid@@	73
cron@@	73
stern@@	73
tant@@	73
vag@@	73
fantast@@	73
freud	73
truck	73
adolf	73
mill@@	73
stair@@	73
marit@@	73
fid@@	73
pad	72
wall@@	72
zw@@	72
ulo@@	72
stuff	72
materiel	72
denver	72
eleg@@	72
sko@@	72
shaw	72
maz@@	72
excited	72
bolt	72
gaul@@	72
xo@@	72
mohammed	72
sur	72
hurt	72
eden	72
alarm	72
satan	72
950	72
2.9	72
herb@@	72
gris	72
23-@@	72
thi	72
flesh	72
1620	72
38.@@	72
antisemit@@	72
2,4@@	72
tres	72
158	72
ando	72
carlo	72
1804	72
potas@@	72
atum	72
idae	72
monster	72
troy	71
persona	71
yuz	71
embarras@@	71
iner@@	71
tera	71
facebook	71
4.4	71
willow	71
max@@	71
1781	71
elizab@@	71
terrible	71
ones@@	71
poster@@	71
stun@@	71
nex@@	71
colombia	71
gaga	71
lc	71
trait	71
bria	71
isra@@	71
ogne	71
nas	71
lons	71
bile	71
sql	71
nada	71
cana@@	71
lepid@@	71
177@@	71
wi	71
aler	71
buro	71
cleveland	71
tio	71
vu@@	71
elia	71
emile	71
dson	71
32@@	71
acht	71
ellen	71
elop@@	71
upan@@	71
door@@	70
aque	70
apprent@@	70
yol	70
40.@@	70
lou@@	70
kane	70
spike	70
mn@@	70
eck	70
aar	70
nehr@@	70
flet@@	70
moz@@	70
dedic@@	70
eira	70
auto-@@	70
gaius	70
hofer	70
bedro@@	70
yorkshire	70
neo	70
docum@@	70
arios	70
rive	70
eugen@@	70
drap@@	70
koch	70
gota	70
asan	70
mich@@	70
ille@@	70
agi	70
dod@@	70
gim@@	70
79@@	70
bertrand	70
kend@@	70
br	70
67@@	70
jagu@@	70
una@@	70
stefan	70
tev@@	70
39.@@	70
tip@@	70
armag@@	70
rina	70
2004-05	69
1773	69
smell	69
1794	69
bund	69
sos	69
reput@@	69
aper@@	69
mania	69
spit@@	69
vangu@@	69
gustav	69
aises	69
isen	69
luck	69
gebr@@	69
braun	69
hughes	69
josef	69
hiz@@	69
70-@@	69
murphy	69
dee@@	69
dier	69
then@@	69
1100	69
2-1	69
195	69
turkmen@@	69
mesa	69
entren@@	69
beth@@	69
saurus	69
pilot@@	69
normal@@	69
1828	69
74@@	69
wie	69
libre	69
sopr@@	69
sao	69
greg	69
cr	69
justin	69
shoes	69
convince	69
suz@@	68
mann@@	68
hindi	68
ice-@@	68
enrique	68
syno@@	68
239	68
lucius	68
parap@@	68
grac@@	68
haus@@	68
wagner	68
warmth	68
mahon	68
lal	68
sibl@@	68
angu@@	68
135	68
ente	68
27-@@	68
noah	68
shin@@	68
slovak@@	68
pueblo	68
ney@@	68
mat	68
36.@@	68
andes	68
liver@@	68
dat	68
quit	68
idi	68
otas	68
stopping	68
breath@@	68
mani	68
burg-@@	68
disen@@	68
160@@	68
aud	68
gottfried	68
graves	68
222	68
agn@@	68
99.@@	68
bu	68
alto	68
305	68
la-@@	68
telem@@	68
preston	68
lins	68
sliding	68
augu@@	68
arca@@	68
sette	68
ank	68
esh	68
275	68
pastor	67
lagos	67
oun	67
aid@@	67
nen@@	67
iga	67
sala	67
pto@@	67
nord@@	67
bibliotheque	67
ludwig	67
tales	67
glow	67
dine	67
hesse	67
loth@@	67
owen	67
ema	67
mest@@	67
caes@@	67
eyer	67
everybody	67
repr@@	67
ahmad	67
odi@@	67
uba	67
dante	67
william@@	67
estrat@@	67
burgh	67
ieu	67
alexis	67
vil	67
430	67
dent@@	67
aram@@	67
kri@@	67
depart	67
stru@@	67
maxwell	67
dawn	67
ander	67
ise@@	67
traj@@	67
pale	67
44.@@	67
paradise	66
1a	66
budapest	66
stra	66
perfectly	66
combust@@	66
lag	66
dys@@	66
325	66
sant	66
davia	66
boyle	66
australi@@	66
arched	66
rudol@@	66
ampa	66
disposition	66
hide	66
luc@@	66
cock	66
yor	66
boris	66
301	66
lich@@	66
tablo@@	66
delic@@	66
brief@@	66
sensibil@@	66
oner	66
bur	66
iva	66
anom@@	66
pie	66
fried@@	66
1818	66
passion@@	66
ecole	66
sounding	66
nt@@	66
107	66
440	66
1770	66
arance	66
breath	66
pol	66
shin	66
agr@@	66
bei	66
igu@@	66
2007-08	66
rah	65
vig@@	65
pasteur	65
uru	65
edmund	65
sebastian	65
ej	65
2500	65
sti	65
afr@@	65
glen@@	65
guatemala	65
eil@@	65
noc@@	65
oak@@	65
creen	65
urb@@	65
chor	65
0.8	65
pala	65
scot@@	65
mf@@	65
sium	65
rober@@	65
lom@@	65
lul@@	65
leger	65
kinder@@	65
sly	65
qi	65
raven@@	65
answers	65
karnataka	65
1,8@@	65
tana	65
ret	65
kazak@@	65
dex	65
sler	65
2011-12	65
luigi	65
mv	65
allan	65
embl@@	65
oh@@	65
aceae	65
rode	65
pock@@	65
hail	65
likes	65
etti	65
argentine	65
def	65
111	65
bennett	65
lov@@	65
sie	65
mod	64
1759	64
cnn	64
matt	64
alus	64
chev@@	64
wom@@	64
z-@@	64
cis	64
palais	64
dir@@	64
ig	64
bs@@	64
hors	64
bourbon	64
prix	64
emmy	64
anjou	64
uto@@	64
quez	64
sui	64
tight	64
95@@	64
spears	64
botswana	64
trom@@	64
louvre	64
cran@@	64
senegal	64
dragged	64
simpson	64
sis@@	64
whis@@	64
3,0@@	64
sham@@	64
nose	64
gabriel	64
vel	64
jar	64
prefecture	64
flas@@	64
abs	64
dp	64
hof@@	64
ennes	64
fabri@@	64
verde	64
bows	64
chamber@@	64
oria	64
aval@@	64
smart	64
desperate	64
150@@	64
1204	64
parole	64
1787	63
88@@	63
1823	63
19,@@	63
garage	63
uda	63
lennon	63
equi@@	63
133	63
methy@@	63
woo@@	63
willi@@	63
fun	63
sage	63
somebody	63
jesse	63
gering	63
lich	63
sements	63
luk	63
illon	63
clay@@	63
loving	63
lyon	63
ostro@@	63
bald	63
oro	63
79.@@	63
1803	63
holmes	63
cag@@	63
academia	63
610	63
are@@	63
3,6@@	63
117	63
sophia	63
lean	63
hip@@	63
qua	63
139	63
pere	63
feels	63
neil	63
alar@@	63
na-@@	63
chard	63
energi@@	63
tenberg	63
3,9@@	63
phil	63
wau@@	63
slept	63
zag@@	63
omar	63
nobody	63
kid	63
mata	63
organise	63
stein@@	63
145	63
stead	63
alin@@	63
shame	63
ref@@	63
coli	63
lant@@	63
meridi@@	62
bp	62
panda	62
medal@@	62
ark@@	62
chairs	62
relieved	62
fiji	62
arte@@	62
edra	62
thompson	62
eser	62
transfor@@	62
aja	62
lash	62
stanford	62
walks	62
kak@@	62
metal@@	62
lamb@@	62
inu@@	62
okin@@	62
decep@@	62
lant	62
iano	62
gently	62
aber@@	62
215	62
alli	62
idan	62
assu@@	62
kos@@	62
1784	62
dimit@@	62
killer	62
oses	62
bradley	62
mage	62
panama	62
lessly	62
1774	62
144	62
1811	62
fay@@	62
hey@@	62
bobby	62
192	62
buffalo	62
trach@@	62
thon	62
coco	62
dec	61
estro@@	61
hum	61
diffus@@	61
mason	61
yens	61
eh	61
112	61
pert	61
680	61
come@@	61
lest@@	61
lotus	61
dz@@	61
trent	61
lens	61
smann	61
mona	61
eses	61
consi@@	61
vague	61
brandt	61
opter@@	61
allen@@	61
dwin	61
ns@@	61
standard@@	61
hima	61
gonzalez	61
random	61
madre	61
mez@@	61
23,@@	61
undo	61
regret	61
2003-@@	61
teau	61
adobe	61
lang	61
zagreb	61
ogen@@	61
scenario	61
kus	61
terri@@	61
ision	61
146	61
mega	61
anal	61
raw@@	61
won@@	61
aha	61
will@@	61
wned	61
provin@@	61
ethan	61
wrapped	61
ivi@@	61
tired	61
imam@@	61
leonardo	61
ww@@	61
jules	61
worry	60
bres@@	60
piz@@	60
unga	60
ai-@@	60
1785	60
tigh@@	60
ugu	60
hl	60
finn@@	60
kiss	60
chak@@	60
ler-@@	60
174	60
tear	60
chances	60
lips	60
thera	60
spil@@	60
137	60
nage	60
mous@@	60
byz@@	60
hun	60
humor@@	60
oney	60
boz@@	60
litz	60
zy	60
bos	60
1760	60
espan@@	60
clor@@	60
rot	60
mau	60
bold	60
spider-@@	60
sei	60
emir	60
188	60
thol@@	60
weis@@	60
rodriguez	60
ider@@	60
nad@@	60
riga	59
22,@@	59
cycli@@	59
liger@@	59
wester@@	59
brest	59
ely@@	59
29-@@	59
bulent	59
instantly	59
dai	59
wwe	59
olympi@@	59
sean	59
parker	59
module	59
sr.	59
oda	59
centi@@	59
listen@@	59
kuip@@	59
130@@	59
pulitzer	59
slam	59
wir@@	59
emia	59
lice	59
aton	59
guen@@	59
opus	59
marco	59
hepat@@	59
3,5@@	59
breathing	59
malawi	59
ppy	59
2-3	59
chang	59
android	59
35.@@	59
xv	59
hannover	59
luxembourg	59
etz	59
dallas	59
tura	59
dram@@	59
argent@@	59
hc	59
diminu@@	59
auguste	59
124	59
onas	59
animation	59
curse	59
niem@@	59
kenya	59
sp	59
desp@@	59
warm@@	59
bologna	59
rumble	59
hammer@@	59
chin	59
vern@@	59
itas	59
heed	59
1300	59
pizza	59
gibraltar	59
pg	59
perten@@	59
1765	59
66@@	58
rivera	58
kufa	58
eva	58
epide@@	58
stin@@	58
thered	58
rade	58
dias	58
kara	58
jah@@	58
yag@@	58
acan	58
co.	58
exploit@@	58
fr	58
odor@@	58
shoulders	58
hall@@	58
gust@@	58
eres	58
189	58
thriller	58
132	58
ular@@	58
tening	58
checked	58
contemporan@@	58
aret	58
xia	58
blur@@	58
bd	58
chir@@	58
ruth	58
ismail	58
gay@@	58
drifted	58
icum	58
who@@	58
zip	58
giz@@	58
rhone	58
icion	58
dear	58
1761	58
letting	58
98.@@	58
mikhail	58
amber	58
ifa	58
nurse	58
edo	58
eni	58
96.@@	58
iture	58
insan@@	58
andi@@	58
linat@@	58
graf@@	58
assure	57
96@@	57
proced@@	57
maximilian	57
nol@@	57
hoff@@	57
rying	57
imi	57
alexandre	57
atari	57
stevens	57
hassan	57
illac	57
icked	57
nah@@	57
faint	57
otti	57
conduit	57
occidental	57
twin@@	57
sparta	57
continuo	57
pedia	57
yst@@	57
bust@@	57
camille	57
rau@@	57
cn@@	57
basque	57
eine	57
ub	57
var	57
halle	57
diffuse	57
mili@@	57
planet@@	57
nicol@@	57
embargo	57
tron@@	57
eyed	57
1751	57
latinos	57
etudes	57
da-@@	57
hue	57
atas	57
edia	57
kars	57
anny	57
86@@	57
dragons	57
wig@@	57
yourself	57
mortal	56
inci	56
shirt	56
finger	56
meal	56
rox@@	56
blanc	56
rim	56
nour@@	56
knife	56
schen@@	56
fah@@	56
creature	56
heter@@	56
please	56
fuz@@	56
tiv@@	56
poit@@	56
jung@@	56
accu@@	56
depot	56
alb@@	56
dab@@	56
mega@@	56
53@@	56
herschel	56
bm	56
etto	56
frederic	56
3,7@@	56
reliant	56
alma	56
natal	56
leeds	56
zay@@	56
eur	56
154	56
vice-president	56
massi@@	56
formes	56
igan	56
lucia	56
imagined	56
sich@@	56
jas	56
76@@	56
212	56
sine	56
370	56
hausen	56
reau	56
adam@@	56
widened	56
trinidad	56
gent@@	56
troph@@	56
ilis@@	56
db	55
registr@@	55
anton@@	55
tam	55
drag	55
167	55
phus	55
arth@@	55
2006-07	55
myo@@	55
sore	55
bola	55
hermann	55
migh@@	55
hiro	55
filipino	55
grun@@	55
nic	55
rid	55
ario	55
roberto	55
131	55
angela	55
ghana	55
troubles	55
aia	55
naire	55
sprint	55
112@@	55
situ	55
ishi	55
geant	55
310	55
iline	55
atr@@	55
1560	55
bren@@	55
eje	55
ma-@@	55
horrible	55
onica	55
ia@@	55
1715	55
cain	55
178	55
iman	55
mara	55
yuk@@	55
curtis	55
tig@@	55
alte	55
345	55
rob	55
calyp@@	55
trak@@	55
palli@@	55
1816	55
aziz	55
conrad	55
237	55
tuf@@	55
caf	55
2,3@@	55
dot@@	55
trif@@	55
orni@@	54
malcolm	54
uber@@	54
enta	54
-a	54
shake	54
razas	54
kids	54
brush	54
nus	54
soviet@@	54
jets	54
burton	54
bai	54
boots	54
boss	54
mant	54
remem@@	54
deck@@	54
wanting	54
hiro@@	54
md	54
islav	54
1991-@@	54
odd	54
ologue	54
eno	54
got@@	54
48.@@	54
1802	54
hook	54
avignon	54
pregn@@	54
1610	54
85@@	54
pu	54
sanchez	54
penal	54
hardcore	54
anum	54
destine	54
sana	54
icos	54
113	54
yar	54
ile@@	54
enne	54
bullet@@	54
propul@@	54
217	54
disi	54
dific@@	54
poured	54
sach@@	54
iges	54
alien	54
nr@@	54
portu@@	54
kh	54
ival@@	54
420	54
hell	54
paste@@	54
proposition	54
jon@@	54
reper@@	54
ir-@@	53
ajax	53
joy@@	53
1777	53
216	53
finger@@	53
isch	53
670	53
desper@@	53
tach@@	53
lea	53
arre@@	53
basket	53
sn	53
sura	53
spun	53
25,@@	53
rela@@	53
138	53
breton	53
portal	53
cartoon	53
quat@@	53
colon	53
frey	53
yen@@	53
tif	53
cale	53
fug@@	53
1779	53
solo@@	53
automo@@	53
du-@@	53
decim@@	53
valentine	53
amis	53
roma	53
omo@@	53
2005-06	53
kw	53
potter	53
euros	53
pas	53
peru@@	53
boa	53
mina	53
dich@@	53
kabul	53
illy	53
somehow	53
fool@@	53
oud	53
cion	53
huang	53
aldo	53
ichi	53
ux	53
otta@@	53
itus	53
colin	53
rust@@	53
hag@@	53
vain	53
jus@@	53
monten@@	53
hani	53
zub@@	53
andreas	53
cornel@@	53
oul@@	53
sd@@	53
ecia	52
cultu@@	52
mab@@	52
blum@@	52
ree	52
maggie	52
wurttem@@	52
cl	52
immen@@	52
sim	52
hyp@@	52
igen@@	52
punch	52
smooth@@	52
1638	52
di-@@	52
uth	52
afi	52
twisted	52
114@@	52
rama	52
ord	52
talked	52
ambas@@	52
dro	52
aines	52
agno@@	52
191	52
hearts	52
lausanne	52
must@@	52
ecuador	52
bend	52
pis@@	52
grad	52
polem@@	52
dues	52
francs	52
197	52
dere	52
relax@@	52
itiner@@	52
norm@@	52
paulo	52
1782	52
bek	52
2018	52
shouted	52
yap@@	52
milieu	52
aman	52
icho	52
kag@@	51
sson	51
grip	51
lors	51
nouveau	51
reag@@	51
elin	51
anders	51
cum	51
timor	51
iler@@	51
tem	51
punta	51
129	51
janet	51
lucha	51
fil	51
strang@@	51
dipl@@	51
f.@@	51
intro@@	51
eci	51
371	51
sang	51
busy	51
sins	51
immer	51
fano	51
hosp@@	51
heels	51
damp@@	51
matric@@	51
karen	51
deste@@	51
georgi@@	51
carmen	51
fritz	51
dak	51
julia	51
marquis	51
1769	51
ahu@@	51
thrust	51
ampl@@	51
oblast	51
33,@@	51
colombi@@	51
gui	51
ode@@	51
73@@	51
hoc	51
sno@@	51
isn	51
gum@@	51
revue	51
uel@@	51
k.@@	51
bullet	51
sink	51
cordoba	51
45,@@	51
kra@@	51
shado@@	51
pour@@	51
amin@@	51
355	51
264	51
chapelle	51
hesit@@	51
blin@@	51
rast@@	51
tenant	50
pascal	50
riaa	50
timur	50
chateau	50
fernando	50
nho@@	50
xviii	50
gentle	50
bez@@	50
asp@@	50
ante@@	50
hid@@	50
lou	50
theodo@@	50
blake	50
adas	50
eck@@	50
007	50
anton	50
rhen@@	50
augusta	50
krist@@	50
eder@@	50
verg@@	50
40,@@	50
goethe	50
amat@@	50
bank@@	50
ng	50
152	50
pd	50
prati@@	50
hasan	50
1660	50
irrit@@	50
vik	50
mitchell	50
hadi@@	50
craz@@	50
reply	50
expose	50
hep@@	50
prec@@	50
1640	50
christoph	50
austron@@	50
trab@@	50
enjoying	50
blaz@@	50
yah@@	50
aned	50
fascin@@	50
cam	50
esto	50
antique	50
1797	50
kov	50
mayo	50
carav@@	50
2,8@@	50
iss	50
rum	50
1650	50
witz	50
nd@@	50
etc.	50
annie	50
coch@@	50
eren	50
fingers	50
saus@@	50
auss	50
taller	49
doo	49
icio	49
aviv	49
rij@@	49
gama	49
jura	49
buz@@	49
233	49
look@@	49
emma	49
micha@@	49
abel	49
palmer	49
405	49
fantas@@	49
iso@@	49
umo	49
nec@@	49
ikos	49
angelo	49
espana	49
throat	49
andi	49
obr@@	49
lynn	49
liers	49
aco	49
pour	49
128@@	49
5,0@@	49
yd	49
voirs	49
sidney	49
upset	49
commis@@	49
rc	49
147	49
nev@@	49
plate@@	49
werner	49
clarke	49
nid@@	49
sorg@@	49
laos	49
eddin	49
ether@@	49
unid@@	49
smar@@	49
expe@@	49
eting	49
arta	49
old@@	49
acon@@	49
echo	49
1517	49
isid@@	49
wolfgang	49
sica	49
uld	49
twist@@	49
sept	49
gl@@	49
centro	48
1778	48
poten@@	48
ond	48
toni	48
text-@@	48
rac	48
pyrenees	48
excuse	48
opath@@	48
ddy	48
este	48
astron@@	48
182	48
zem@@	48
kind@@	48
iller	48
290	48
nano@@	48
unda	48
102	48
inverse	48
nus@@	48
trio	48
1748	48
awake	48
bras	48
8000	48
chon	48
inter	48
buck	48
invite	48
cube	48
oux	48
6000	48
variables	48
abdul@@	48
reichs@@	48
tet@@	48
97@@	48
bourne	48
ate@@	48
1998-@@	48
ramb@@	48
xe	48
trich@@	48
1688	48
295	48
osman@@	48
helsinki	48
weap@@	48
armee	48
saur@@	48
maybe	48
zeus	48
martin@@	48
1-2	48
silva	48
sensible	48
cortes	48
gilt	48
transports	48
303	48
ilus	48
176	48
89@@	48
xavier	48
waf@@	48
rats	48
jeans	48
kirk	47
accord	47
bangkok	47
half@@	47
zan@@	47
comte	47
ht	47
mein@@	47
couldn	47
powell	47
hapa	47
staf@@	47
det	47
hod@@	47
hector	47
dova	47
ova	47
adel@@	47
axe	47
enko	47
lange	47
trat@@	47
necro@@	47
hunger	47
benito	47
laugh@@	47
dees	47
-i	47
ppo	47
rosen@@	47
lance	47
390	47
lares	47
toch@@	47
francia	47
vard	47
glenn	47
1630	47
wolf@@	47
sd	47
zodi@@	47
burg@@	47
impression@@	47
1727	47
pop@@	47
bedroom	47
patric@@	47
basil@@	47
mick	47
zol@@	47
mickey	46
hao	46
520	46
jet@@	46
stephanie	46
cous@@	46
faded	46
288	46
mum	46
chy@@	46
panic	46
178@@	46
26,@@	46
tarif@@	46
assas@@	46
schw@@	46
issa	46
wali	46
hari	46
osia	46
lew@@	46
staying	46
icol@@	46
ted@@	46
164@@	46
560	46
pou@@	46
1521	46
hiding	46
-4	46
dit	46
illes	46
climb	46
wicz	46
obo@@	46
arj@@	46
oton@@	46
uly	46
reclam@@	46
aur	46
ulos	46
belly	46
imagination	46
logan	46
knee	46
155	46
tath@@	46
gop	46
cola	46
opolis	46
cohen	46
7.1	46
223	46
720	46
225	46
sas	46
internet@@	46
pacif@@	46
wien	46
660	46
abitur	46
176@@	46
rectang@@	46
petite	46
institut	46
ude	46
cerro	46
isabel	46
anto@@	45
papua	45
medre@@	45
eman@@	45
atha	45
bergen	45
nicole	45
169	45
phan	45
epis@@	45
mahmud	45
wati	45
arle	45
murad	45
idia	45
sini	45
ref	45
eful@@	45
cole@@	45
stare	45
anzen	45
scramb@@	45
handsome	45
uj@@	45
berliner	45
puzz@@	45
sola	45
ingi@@	45
wesley	45
185	45
nath@@	45
kaj@@	45
1526	45
1-0	45
lowe	45
collar	45
flames	45
hos@@	45
moon@@	45
township	45
nuc@@	45
ynn	45
1701	45
1755	45
venant	45
eh@@	45
quito	45
blem	45
45.@@	45
rech@@	45
dez@@	45
posterior	45
nai@@	45
nui	45
lac	45
sleeping	45
kia	45
bartol@@	44
ms-@@	44
myr@@	44
cf@@	44
wic@@	44
klein	44
234	44
carne@@	44
w.@@	44
owski	44
caine	44
stok@@	44
tribun@@	44
bem@@	44
bayer	44
dylan	44
folklor@@	44
cliff	44
burger	44
pulse	44
tau@@	44
unincorporated	44
vieja	44
afa	44
aden	44
torne@@	44
207	44
oklah@@	44
1637	44
boulev@@	44
onne	44
stabil@@	44
1520	44
episo@@	44
lace	44
rea	44
mississi@@	44
igor	44
antis@@	44
nail	44
aure@@	44
136	44
dion	44
jacket	44
nace	44
thea	44
royale	44
jk	44
icin	44
ramon	44
bourgeois	44
sorry	44
2001-@@	44
zip@@	44
sullivan	44
157	44
arn@@	44
dern@@	44
endra	44
konigsberg	44
spru@@	44
opha@@	44
208	44
torres	44
103	44
kamp@@	44
alvaro	44
ovi@@	44
beck@@	44
thinks	44
lieg@@	44
beast	44
turk	44
kicked	44
illi	44
afraid	44
agri@@	43
mustafa	43
1723	43
brag@@	43
turbo	43
406	43
johannes	43
omon	43
bailey	43
ampton	43
gna@@	43
omer@@	43
siemens	43
ery@@	43
87@@	43
)@@	43
2015-16	43
selves	43
surely	43
ieee	43
juni@@	43
dare	43
wonderful	43
niel@@	43
tightly	43
eb	43
madame	43
247	43
sounded	43
tightened	43
italia	43
ca-@@	43
danny	43
neville	43
grandes	43
chat	43
carl@@	43
plem@@	43
absolut@@	43
335	43
premier@@	43
eti	43
icul@@	43
qu	43
usi	43
rainbow	43
ort@@	43
232	43
howe	43
nat	43
donna	43
stad@@	43
marc@@	43
mare	43
ido	43
umin@@	43
negr@@	43
2004-@@	43
corri@@	43
skirt	43
crist@@	43
dham@@	43
1670	43
marc	43
itu	43
aph@@	43
akan	43
2002-@@	43
stitu@@	43
serie	43
sche	43
minh	43
1722	43
anap@@	43
luft@@	43
mun	43
regres@@	43
thie@@	43
contra	43
resting	42
nel@@	42
fond	42
326	42
regon	42
adju@@	42
tanzania	42
202	42
beaux-arts	42
corona	42
prohi@@	42
mention@@	42
ferro@@	42
reis@@	42
760	42
honduras	42
atoria	42
1720	42
sender	42
ahi	42
gali	42
impar@@	42
alo	42
arse	42
phor@@	42
roche	42
studi@@	42
frustration	42
erst@@	42
323	42
ien	42
stepping	42
rosa	42
asleep	42
sap	42
much@@	42
kitchen	42
gaz@@	42
lette	42
rafael	42
grau@@	42
cannes	42
traver@@	42
borg	42
rit	42
brab@@	42
127	42
indian@@	42
iani	42
curio@@	42
convers@@	42
342	42
erz@@	42
vigil@@	42
1997-@@	42
front@@	42
christina	42
sumatra	42
chav@@	42
etus	42
cologne	42
iger	42
401	42
1540	42
omy@@	42
kok@@	42
jit@@	42
fli@@	41
visa	41
nis	41
kilometer	41
climbed	41
luna	41
haute	41
fin	41
region@@	41
sili@@	41
ead	41
lipo@@	41
tants	41
beha@@	41
koz@@	41
cano	41
94.@@	41
yay@@	41
modal@@	41
achi	41
ego@@	41
armada	41
cd@@	41
hir	41
gala	41
gris@@	41
fra	41
24,@@	41
ione	41
gastronom@@	41
picking	41
cake	41
1680	41
cw	41
parc@@	41
increm@@	41
nap	41
retire	41
irene	41
tenu@@	41
1614	41
crum@@	41
ede@@	41
para	41
maxima	41
246	41
esome	41
alicia	41
veracruz	41
taz@@	41
zach@@	41
eddie	41
deau	41
stadt@@	41
hia	41
ather	41
001	41
bies	41
fum@@	41
tii	41
haber@@	41
align	41
shou@@	41
quick@@	41
televis@@	41
ose@@	41
gu	41
fad@@	41
kies	41
32.@@	41
robo@@	41
gesture	41
1567	41
hed@@	41
bench	41
peter@@	41
jaw	41
andy	41
shes	41
sahi@@	41
wart	41
roth@@	41
ignoring	40
etts	40
sheikh	40
dada	40
mack	40
sedan	40
fork	40
aura	40
oir	40
ngo	40
'll	40
143	40
conflu@@	40
rey@@	40
hamid	40
sawa	40
listened	40
demos	40
bride	40
udi@@	40
bye	40
ffen	40
washed	40
georg	40
entour@@	40
meyer	40
aa@@	40
kuh@@	40
vot	40
brave	40
otis	40
ingo	40
tland	40
antoine	40
hain@@	40
159@@	40
227	40
splen@@	40
march@@	40
chuck	40
1737	40
999	40
gues@@	40
sainte-@@	40
anis@@	40
kot@@	40
1550	40
-e	40
sob@@	40
lal@@	40
fing	40
mehmed	40
elias	40
ii@@	40
vila	40
zal@@	40
iat	40
alex	40
mozam@@	40
fiesta	40
bottle	40
quietly	40
tenstein	40
jeff@@	40
studium	40
400@@	40
barre	40
hari@@	40
boi	40
34.@@	40
riches	40
nero	40
148	40
mussolini	40
ellan	40
annah	40
jen	40
weiler	40
eci@@	40
uel	40
semi@@	40
demar@@	40
zig@@	40
puebla	39
start@@	39
aten@@	39
205	39
gesamt@@	39
adler	39
rudolf	39
ur-@@	39
2013-2014	39
xml	39
206	39
unat@@	39
blind@@	39
333	39
328	39
hated	39
guadal@@	39
dolo@@	39
khali@@	39
marse@@	39
gav@@	39
plenty	39
nar	39
cade@@	39
vee	39
pee	39
inen	39
ocy@@	39
sene	39
+@@	39
bac	39
berk@@	39
3,8@@	39
..@@	39
dug	39
jap@@	39
kras@@	39
perry	39
brom@@	39
suu	39
raz	39
amistad	39
1729	39
cabin	39
prox@@	39
nuevo	39
izo	39
tane	39
1772	39
rt@@	39
num	39
dubai	39
mccartney	39
vos@@	39
francesco	39
griff@@	39
madeleine	39
barrio	39
nationale	39
hay	39
lind@@	39
dalton	39
1764	39
281	39
atin@@	39
uganda	39
martha	39
origines	39
york@@	39
lern	38
1571	38
yard@@	38
39,@@	38
pau@@	38
marcel@@	38
mud@@	38
flotte	38
zimmer@@	38
gps	38
play-@@	38
voivo@@	38
1619	38
iff	38
wiz@@	38
carta	38
nun	38
atta	38
252	38
dir	38
stag	38
xu	38
arom@@	38
gida	38
184	38
brin@@	38
wie@@	38
itos	38
griffin	38
busch	38
ossa	38
mayan	38
stockholm	38
kov@@	38
yne	38
jes@@	38
lesi@@	38
chao	38
c1	38
1690	38
repar@@	38
parro@@	38
cea	38
abruptly	38
weber	38
shannon	38
1559	38
moderne	38
otom@@	38
plata	38
rek	38
instituto	38
hey	38
aras	38
1703	38
etz@@	38
stade	38
alu	38
ische	38
tice	38
mecklenburg-@@	38
amana	38
151	38
esch@@	38
wab@@	38
skaya	38
gloria	38
298	38
famil@@	38
masse	38
viva	38
enz	38
dah@@	38
potsdam	38
1683	38
zab@@	38
enti	38
ru	38
hud@@	38
inspire	37
linger	37
gaulle	37
kabil@@	37
wala	37
chon@@	37
ider	37
dez	37
esh@@	37
forehead	37
kriegs@@	37
amo	37
410	37
nord	37
bug	37
1982-@@	37
rfc	37
wik@@	37
tommy	37
sweat	37
38,@@	37
valle	37
1994-@@	37
jut@@	37
fom@@	37
rihanna	37
a1	37
625	37
bey@@	37
pretty	37
bain@@	37
topon@@	37
holt	37
1742	37
oto	37
endo	37
alite	37
trait@@	37
126	37
retir@@	37
1754	37
aide	37
zambia	37
mev@@	37
ting@@	37
rha@@	37
kathar@@	37
trump	37
forget	37
anglo@@	37
heather	37
rebo@@	37
rao	37
doom	37
elo	37
coni	37
requis@@	37
usement	37
cht	37
hanna	37
iter	37
lyco@@	37
1714	37
cv@@	37
bris	37
omer	37
319	37
jia	37
245	37
olar	37
nard	37
286	37
excitement	37
batman	37
ang-@@	37
louis-@@	37
45-@@	37
hof	37
candy	37
smith@@	37
alle	37
140@@	37
rose@@	37
ire@@	37
302	37
clut@@	37
ding@@	37
ears	37
wei@@	37
137@@	37
dina	37
moment@@	37
-de-@@	37
hoff	37
tani	37
patience	37
xo	37
peg@@	37
obl@@	37
hein@@	37
reminded	37
epoque	36
737	36
uh@@	36
jung	36
pek@@	36
267	36
samb@@	36
estadio	36
pren@@	36
alek@@	36
1689	36
425	36
kla@@	36
modest@@	36
desk	36
stras@@	36
itia	36
diy@@	36
gran	36
copen@@	36
177	36
pem@@	36
gali@@	36
debar@@	36
whist@@	36
serp@@	36
214	36
343	36
insky	36
1525	36
thar@@	36
benin	36
anhalt	36
cyclo@@	36
frances	36
1725	36
chel@@	36
ferguson	36
menace	36
mw@@	36
critiques	36
johan	36
fus	36
jamie	36
altar@@	36
bant@@	36
gier	36
gotten	36
sque@@	36
frost	36
klem@@	36
elisabeth	36
dap@@	36
a4	36
horri@@	36
polar@@	36
47.@@	36
aul@@	36
thor	36
lucky	36
podium	36
quoti@@	36
industr@@	36
tua	36
itt	36
nikol@@	36
owe	36
1612	36
dung	36
860	36
sne@@	36
cott@@	36
rage	36
emil	36
rachel	36
cet	36
illu@@	36
1566	36
201	36
ka-@@	35
entin	35
freder@@	35
236	35
granada	35
yom@@	35
taifa	35
hon	35
particul@@	35
apa	35
119	35
spid@@	35
barrage	35
blat@@	35
aleksand@@	35
estre@@	35
upa	35
chia	35
tav@@	35
yusuf	35
wikipedia	35
matri@@	35
ffer	35
lion@@	35
estado	35
525	35
747	35
adia	35
28,@@	35
quin	35
hut	35
cons	35
219	35
ank@@	35
reu@@	35
bayern	35
mang	35
490	35
fabrication	35
oper	35
iker	35
velvet	35
otr@@	35
1996-@@	35
anu@@	35
abo	35
3-4	35
biz@@	35
198	35
erich	35
scream	35
rider	35
rach@@	35
sain@@	35
wapo	35
navar@@	35
regroup@@	35
gutierrez	35
dica	35
bent@@	35
224	35
186	35
bates	35
299	35
narrowed	35
html	35
rushed	35
engen@@	35
psi@@	35
eson	35
orth@@	35
funer@@	35
179	35
mari	35
anah@@	35
yoshi@@	35
dirt	35
taxi	35
505	35
tanz@@	35
wimbledon	35
voy@@	35
diem	35
romant@@	35
rested	35
passi@@	35
354	35
haa	35
1665	35
ome@@	35
vanuatu	35
hol	34
itius	34
martinez	34
toledo	34
jeffrey	34
.org	34
glos@@	34
tene	34
tte	34
rett	34
pac	34
tely	34
illar@@	34
tri	34
stum@@	34
187	34
brooke	34
ars@@	34
imo	34
vim@@	34
arias	34
402	34
1718	34
magnif@@	34
olas	34
leic@@	34
403	34
teresa	34
eka	34
00-@@	34
nana	34
agustin	34
mash@@	34
remon@@	34
terran@@	34
cie	34
iki@@	34
1768	34
vince	34
isse	34
marie-@@	34
4,8@@	34
gem	34
bog@@	34
krak@@	34
amu	34
311	34
tun	34
casey	34
tril@@	34
kingston	34
kay	34
auton@@	34
dley	34
bunch	34
brat@@	34
honest@@	34
bastard	34
476	34
seren@@	34
hammer	34
zar	34
279	34
gao	34
1661	34
512	34
wand@@	34
ald@@	34
nome	34
clau@@	34
blade	34
namo	34
lyon@@	34
37,@@	34
toulo@@	34
tonight	34
ha-@@	34
honest	34
reel	34
furious	34
iels	34
2009-2010	34
amba	34
2019	34
figo	34
1611	34
petrol	34
sommer@@	34
conserve	34
--	34
wonder	34
sonder@@	34
esi	34
bw@@	34
mete@@	33
atos	33
tard	33
hender@@	33
remember@@	33
ard-@@	33
ipo	33
anj@@	33
mach	33
lio	33
clam@@	33
alain	33
sensu@@	33
internationale	33
sonora	33
cracked	33
todd	33
aunt	33
109@@	33
maison	33
sita	33
iata	33
stairs	33
leaning	33
kali	33
199	33
orn	33
floyd	33
expecting	33
kate	33
142	33
edil@@	33
int@@	33
drome	33
rn	33
thank	33
ugly	33
gp@@	33
nicaragua	33
bale	33
tik@@	33
dc@@	33
montan@@	33
84@@	33
eber@@	33
accuse	33
aat	33
bilbao	33
249	33
g.@@	33
jenny	33
172	33
tara	33
510	33
palms	33
zap@@	33
oner@@	33
1713	33
cong	33
340	33
ki-@@	33
wang@@	33
1150	33
tyler	33
mama	33
eurovision	33
163	33
tran	33
amt	33
lel@@	33
feu@@	33
228	33
iller@@	33
hispania	33
tire	33
paris-@@	33
charles-@@	33
toyota	33
proven@@	33
aker@@	33
vladi@@	33
rae	33
ved@@	33
albu@@	33
ufu	33
shil@@	33
commence	33
aru	33
fed@@	33
obscur@@	33
dera	33
roch@@	33
hungry	33
chun@@	33
aren	33
zimbabwe	33
heil@@	33
ingrad	32
poe	32
jumped	32
cee	32
ellon	32
tomorrow	32
olle	32
bob@@	32
ween	32
mot	32
vou@@	32
tong	32
1733	32
xt	32
herr@@	32
ifera	32
35,@@	32
snat@@	32
argent	32
edo@@	32
ayn@@	32
bunden	32
heit	32
hubert	32
aust@@	32
neck@@	32
gamma	32
1975-@@	32
yr	32
klu@@	32
chos	32
mol	32
minster	32
teca	32
selim	32
332	32
shay@@	32
incon@@	32
nous	32
44,@@	32
maili	32
les-@@	32
cara	32
semble	32
harp	32
dies@@	32
bull@@	32
pounding	32
mafia	32
kup@@	32
ogo	32
habitu@@	32
monte@@	32
sinop	32
antik@@	32
gno@@	32
fais@@	32
kt@@	32
dum	32
nod@@	32
noon	32
lg@@	32
siy@@	32
phyl@@	32
seduc@@	32
exit@@	32
cassi@@	32
donn@@	32
aji	32
conquist@@	32
lez@@	32
175@@	32
wali@@	32
arrondis@@	32
vancouver	32
funny	32
49,@@	32
gis	32
vasco	32
edt	32
istan@@	32
joke	32
1588	32
pointe	32
hendri@@	32
dig	32
amazing	32
banda	32
dana	32
1717	32
vio	32
eni@@	32
dore	31
laugh	31
aco@@	31
1618	31
eric@@	31
grandi@@	31
adrian	31
tier@@	31
rica	31
kun	31
244	31
hm	31
nueva	31
fury	31
vein@@	31
karad@@	31
sai	31
ril	31
229	31
smile	31
rehabilit@@	31
rios	31
pedag@@	31
edith	31
francaise	31
paral@@	31
92.@@	31
404	31
ghost@@	31
unab@@	31
sb@@	31
trick	31
1598	31
darling	31
formi@@	31
141	31
384	31
pret@@	31
mise	31
255	31
nany@@	31
1699	31
vu	31
deja	31
kissing	31
156	31
khal@@	31
bol	31
etude	31
eir@@	31
tips	31
anini	31
hagen	31
paa	31
communes	31
tomas	31
zim@@	31
aguil@@	31
halfway	31
hoch@@	31
159	31
waist	31
ieres	31
colonia	31
kam	31
clav@@	31
locales	31
sul	31
ami@@	31
3,4@@	31
evich	31
fasci@@	31
scien@@	31
muhammed	31
general@@	31
kenny	31
eda	31
460	31
dusseldorf	31
estudi@@	30
khi	30
tac	30
reich@@	30
rebecca	30
ibu	30
spectacle	30
marqu@@	30
still@@	30
grub@@	30
ophagus	30
ong-@@	30
caa	30
1735	30
vec	30
ajo@@	30
ande	30
gastr@@	30
krit@@	30
beyon@@	30
anu	30
1712	30
jerem@@	30
wonder@@	30
ende	30
sm	30
3-0	30
orta	30
lour@@	30
123	30
194	30
kast@@	30
lak	30
giorgio	30
remix	30
hana	30
volkswagen	30
np	30
oste@@	30
1547	30
trun@@	30
1450	30
popo@@	30
domingo	30
mesopotam@@	30
asper@@	30
297	30
crad@@	30
df@@	30
48,@@	30
gera	30
jas@@	30
populares	30
xp	30
ighs	30
scher@@	30
zin	30
4,9@@	30
363	30
asco	30
azar	30
oliv@@	30
1621	30
gavin	30
mst@@	30
sera	30
870	30
punk@@	30
mica	30
pepe	30
sebast@@	30
170@@	30
hack@@	30
jonas	30
eful	30
argentin@@	30
beri	30
1740	30
horiz@@	30
rei	30
einer	30
pio	30
rhi@@	30
bauer	30
zinc@@	30
societe	30
mour	30
yuc@@	30
blas@@	30
informat@@	30
appellation	30
bonus	30
5-6	30
wow	30
flash@@	30
ond@@	30
idon	30
heb@@	30
gul	30
309	30
gerat	30
muller	30
yem@@	30
gres	30
kron@@	30
amos	30
gg@@	30
242	30
504	30
nos	30
204	30
590	30
sanger	30
yid	30
bill@@	30
domen@@	30
ouv@@	30
dini	30
musique	30
enten@@	30
cif@@	30
q-@@	30
jardin	30
kirche	30
marion	30
gore	30
waited	30
schutz	30
50,@@	30
fried	30
eust@@	29
pod@@	29
rubbed	29
307	29
alin	29
happ@@	29
allgemeine	29
cesar	29
km@@	29
albrecht	29
guerrero	29
evo	29
aufklar@@	29
zel	29
constru@@	29
ibles	29
xxi	29
nil@@	29
1736	29
conde	29
wehrmacht	29
mey@@	29
oure@@	29
acor@@	29
435	29
iola	29
naj@@	29
ile-de-france	29
leit@@	29
880	29
traverse	29
avan@@	29
bronn	29
rur@@	29
269	29
pho	29
akar@@	29
joachim	29
kara@@	29
joshua	29
perez	29
x-men	29
crying	29
issim@@	29
blond	29
feld@@	29
sonia	29
esti	29
alman@@	29
asin	29
og	29
wm	29
uki	29
hau@@	29
conform@@	29
980	29
graf	29
liaison	29
loch	29
97.@@	29
365	29
janeiro	29
cadre	29
bler	29
415	29
quels	29
platy@@	29
ignant	29
bris@@	29
gou@@	29
schleswig-holstein	29
gau	29
271	29
smol@@	29
ega	29
grund@@	29
mosa	29
strom	29
gales	29
dii	29
andrea	29
580	29
zeitung	29
arap@@	29
ikov	29
universidad	29
duc	29
1999-@@	29
hwa	29
f1	29
vera	29
guan@@	29
263	29
138@@	29
shocked	29
gregor	29
caroline	28
bro	28
richter	28
218	28
kut	28
vous	28
troc@@	28
alten@@	28
appreciate	28
y.	28
paseo	28
proch@@	28
304	28
vamp@@	28
strom@@	28
engel@@	28
pertur@@	28
gabri@@	28
coma	28
hau	28
mary@@	28
1985-@@	28
tango	28
lorenzo	28
jason	28
shining	28
witch	28
eglise	28
oft	28
ivan@@	28
litho@@	28
horn@@	28
slipped	28
kampf@@	28
ffer@@	28
noire	28
pl	28
ule@@	28
jungle	28
2012-2013	28
ansi	28
condu@@	28
veterin@@	28
oglo@@	28
gari	28
atorio	28
igner	28
nitz	28
magdal@@	28
sell@@	28
iman@@	28
221	28
phry@@	28
etienne	28
schild	28
unas	28
fk	28
hadi	28
287	28
cv	28
dient	28
windo@@	28
rt	28
drac@@	28
1.0@@	28
norman@@	28
95.@@	28
au-@@	28
roi	28
yav@@	28
swung	28
santander	28
banco	28
hauer	28
tner	28
biblio@@	28
exemplar@@	28
uo	28
acey	28
agro@@	28
reggae	28
nud@@	28
lois	28
wwf	28
wur@@	28
kai	28
chong	28
251	28
butler	28
lei	28
alessandro	28
ambro@@	28
mans@@	28
kemal	28
kuz@@	28
yag	28
gabon	28
itz@@	28
lieuten@@	28
clair	28
lass	28
edad	28
olum@@	28
eye@@	28
kru@@	28
robot	28
charlo@@	28
weg	28
poto@@	28
marian@@	28
ankara	28
yab@@	28
seth	28
vaz@@	28
schle@@	28
0.9	28
ture@@	28
evi	28
153	28
excel@@	28
iden	28
buri	28
ih	28
oul	28
udo	28
zie@@	28
osi	28
gesch@@	28
dire	28
jackie	27
cried	27
ienne	27
kness	27
sq@@	27
boc@@	27
guerra	27
soy@@	27
falcon	27
hala	27
humbol@@	27
ridiculous	27
kot	27
musa	27
9000	27
iennes	27
34,@@	27
aparte	27
citos	27
unix	27
khalifa	27
yol@@	27
prun@@	27
2005-@@	27
senat	27
ob	27
lasi@@	27
gesellschaft	27
fak@@	27
grabbed	27
banqu@@	27
dip@@	27
esse	27
kem@@	27
anast@@	27
proc@@	27
word@@	27
tao	27
bane	27
mi-@@	27
carol	27
nassau	27
fles@@	27
kaf@@	27
1625	27
inger@@	27
bernardo	27
poitiers	27
2008-@@	27
queue	27
530	27
sieg@@	27
1-3	27
cez@@	27
automne	27
venes	27
grateful	27
toral	27
empor@@	27
haupt@@	27
ruk@@	27
reus@@	27
blew	27
utilis@@	27
edific@@	27
bundesliga	27
lincol@@	27
sov@@	27
1990-@@	27
smiling	27
itat@@	27
olo	27
bec@@	27
oka	27
abbas	27
urge	27
196	27
ono	27
illin@@	27
handel	27
roth	27
1585	27
carac@@	27
361	27
dessin@@	27
lent@@	27
jana	27
dria	27
lle@@	27
beach@@	27
gain@@	27
teo	27
bjor@@	27
139@@	26
ramirez	26
anita	26
yao	26
lil	26
tv-@@	26
nell	26
tos@@	26
jorge	26
selle	26
364	26
500@@	26
lex	26
hava	26
enig@@	26
barran@@	26
rotterdam	26
yet@@	26
richt	26
z.	26
sms	26
niedersachsen	26
javier	26
guilt	26
iko@@	26
prop@@	26
gott@@	26
zig	26
iglesias	26
ngu@@	26
coul@@	26
ongo	26
kylie	26
claus@@	26
1651	26
jama@@	26
ois@@	26
gottingen	26
jeremy	26
petit	26
kne@@	26
guys	26
castell@@	26
eduardo	26
definitely	26
uca	26
embarrassed	26
colegio	26
1753	26
midi	26
frank@@	26
reforma	26
isa@@	26
aciones	26
chou@@	26
jup@@	26
filipin@@	26
multiples	26
identific@@	26
anges	26
guillaume	26
bein	26
ihi	26
cato	26
{	26
}	26
570	26
stub@@	26
ern	26
alab@@	26
odor	26
cn	26
adela@@	26
bug@@	26
republique	25
heide@@	25
keit	25
kuru	25
nietz@@	25
taj	25
278	25
stupid	25
igno@@	25
730	25
cuk	25
su-@@	25
glat@@	25
aday	25
gymnas@@	25
musikal@@	25
ambas	25
tennes@@	25
32,@@	25
lik	25
rana	25
scur@@	25
gir	25
lightly	25
steph@@	25
huo	25
boyfriend	25
gov@@	25
morales	25
356	25
beij@@	25
2006-@@	25
bibli@@	25
rouge	25
intelli@@	25
43,@@	25
flar@@	25
tej@@	25
shausen	25
anterior	25
rip	25
luxe	25
3-2	25
travis	25
azzo	25
127@@	25
vega	25
171	25
champagne	25
egal	25
ganda	25
suisse	25
azul	25
feuer@@	25
145@@	25
eos	25
155@@	25
madagascar	25
leone	25
dad@@	25
padres	25
nae	25
970	25
fiba	25
mvp	25
arum	25
jos	25
cae	25
koy	25
wagon	25
ziy@@	25
emilio	25
1524	25
suarez	25
nois	25
gos	25
grit@@	25
lol@@	25
bolivi@@	25
motive	25
atan	25
allison	25
seine-@@	25
spell	25
guerre	25
publica	25
pile	25
ridae	25
isson	25
1995-@@	25
atina	25
rahman	25
breeze	25
375	25
1604	25
kk	25
fach@@	25
lau	25
samba	25
1745	25
absur@@	25
weis	25
feel@@	25
bio	25
alberto	25
hochschule	25
pf	25
vyak@@	25
408	25
hambur@@	25
165@@	25
illas	25
scha@@	25
alphon@@	25
canto	25
oku@@	25
inden	25
jordan@@	25
andres	25
jed@@	25
til	25
strum@@	25
arya	25
drom@@	25
1605	25
dix	25
iucn	25
hog@@	25
dari	25
tung	25
beir@@	25
entre	25
belli	25
other@@	25
engo	25
uten@@	25
avent@@	25
bao	25
kyo@@	25
logi@@	25
cote	25
eduard	25
declen@@	25
aza	25
tuber@@	25
joel	25
285	25
os-@@	25
pleur@@	25
http	25
-5	25
coups	25
nao	25
scher	25
2-0	25
luci@@	25
reck@@	25
patricia	25
aureli@@	25
nene	25
enri@@	25
bite	25
aves@@	25
hbo	25
-sur-@@	25
yote	25
caya	25
teatro	25
oran	25
umer	25
mariano	25
1678	25
rhin	24
probab@@	24
emont	24
alla	24
1988-@@	24
300@@	24
gerard	24
kirchen	24
baden-wurttemberg	24
metropole	24
1350	24
tore	24
470	24
166@@	24
tham@@	24
pulls	24
dak@@	24
onar@@	24
bea	24
eiro	24
pv@@	24
193	24
schneider	24
econ@@	24
rion	24
aku	24
holden	24
mz@@	24
rar	24
criti@@	24
hoo@@	24
gr	24
nina	24
augsburg	24
paolo	24
oder	24
ert@@	24
shaking	24
alfredo	24
bangla@@	24
kimo	24
opsis	24
saint-ger@@	24
1250	24
348	24
ako	24
mercado	24
autobahn	24
alonso	24
tique	24
apro@@	24
aye	24
leaned	24
jardin@@	24
uku	24
kig@@	24
bella	24
deserve	24
kana	24
historia	24
bek@@	24
udly	24
pseud@@	24
226	24
jel@@	24
bien@@	24
desperately	24
galer@@	24
fera	24
nino	24
inde	24
243	24
eki	24
stockhol@@	24
beg	24
phen	24
pietro	24
209	24
acha	24
weit@@	24
omas	24
www.@@	24
isabelle	24
pea	24
artes	24
mut	24
cey@@	24
murcia	24
teur	24
astero@@	24
bana	24
sen-@@	24
ung-@@	24
pute	24
helen	24
phila	24
kunst@@	24
sl	24
tern@@	24
203	24
hk	24
glau@@	24
aler@@	24
bart	24
mendoza	24
caleb	24
lieu	24
pre	24
brooks	24
395	24
cambi@@	24
deutscher	24
woke	24
smil@@	24
ifi	24
cm@@	24
umri	24
nokia	24
dure	24
lein@@	24
prob@@	24
glar@@	24
rein	24
marien@@	24
ia-@@	24
noi	24
hint	24
do-@@	24
ulio	24
auc@@	24
hoy	24
gentes	24
248	24
deon	24
nah	24
porch	24
awe	24
gout	24
47,@@	24
lemente	24
1704	24
1572	24
reprise	23
mobili@@	23
1721	23
ffed	23
icht	23
ocas@@	23
agh	23
detective	23
teras	23
nil	23
dik@@	23
agan@@	23
derek	23
urer	23
vez	23
baku	23
hait@@	23
deur	23
reim@@	23
hata	23
nica	23
vist@@	23
213	23
coo@@	23
zul@@	23
buc@@	23
mineral@@	23
scorp@@	23
turk@@	23
gerhard	23
ayo	23
knees	23
andal@@	23
demons	23
egi	23
abrup@@	23
fel	23
unde	23
casa	23
4,5@@	23
odul@@	23
iris	23
realise	23
ernesto	23
272	23
michel@@	23
sa-@@	23
318	23
knock	23
egi@@	23
sure@@	23
ont@@	23
hai@@	23
gaze	23
origen	23
bas-@@	23
alpes	23
1596	23
fahren@@	23
handler	23
volks@@	23
fosse	23
amazon	23
wouldn	23
guatem@@	23
uw@@	23
iae	23
1983-@@	23
grands	23
mig-@@	23
dido	23
guthrie	23
mainz	23
hos	23
mj@@	23
quai	23
dner	23
293	23
ender	23
oges	23
galaxy	23
iu	23
acher	23
minu@@	23
daz@@	23
metallica	23
anch@@	23
yen	23
publi@@	23
aflu@@	23
curious	23
hil	23
alz@@	23
how@@	23
aland	23
1987-@@	23
fern	23
montag@@	23
bhut@@	23
378	23
papa	23
cup@@	23
fein@@	23
359	23
ataturk	23
armad@@	23
1603	23
hoo	23
hakim	23
dram	23
mitter@@	23
erk@@	23
kt	23
vias	23
opo	23
denburg	23
amp	23
1766	23
kop@@	23
ombe	23
fang	23
beauti@@	23
leu@@	23
thierry	23
vicente	23
gericht@@	23
bara	23
tik	23
352	23
resp@@	23
zan	23
habi@@	23
bele	23
baj@@	23
unaf@@	23
211	23
eup@@	23
forgot	23
391	23
wasser@@	23
brenn@@	23
deh	23
mess	23
fers	23
camar@@	23
que-@@	23
dong@@	23
atz@@	22
alde@@	22
palma	22
territori@@	22
gendar@@	22
ples@@	22
ingles	22
demon	22
ping@@	22
1724	22
schro@@	22
zia	22
409	22
1530	22
acion	22
zeppel@@	22
4-5	22
leuco@@	22
izmir	22
148@@	22
zir@@	22
trier	22
accede	22
wurttemberg	22
bots@@	22
sieges	22
brist@@	22
duncan	22
whispers	22
602	22
freiburg	22
kant@@	22
wus@@	22
sprung	22
kib@@	22
francais	22
7000	22
idas	22
tero	22
338	22
uer	22
baz	22
ut-@@	22
agas@@	22
siz	22
inski	22
couts	22
dane	22
mercur@@	22
reit@@	22
yur@@	22
delan@@	22
265	22
keller	22
gements	22
sf	22
pon	22
analo@@	22
wiped	22
oss	22
awi	22
gericht	22
avant	22
trot@@	22
174@@	22
umba	22
cultura	22
limet@@	22
loire	22
linda	22
291	22
hymenoptera	22
anger@@	22
plex	22
conseil	22
avenida	22
des-@@	22
dler	22
rou@@	22
clara	22
jean-baptiste	22
elektr@@	22
girlfriend	22
kie@@	22
hek@@	22
tl	22
780	22
162	22
venir	22
abid@@	22
2010-@@	22
environs	22
cementerio	22
emmanuel	22
apo	22
840	22
kata	22
mil	22
1635	22
kiv@@	22
ault	22
tau	22
edu@@	22
glad	22
chif@@	22
prist@@	22
1580	22
afflu@@	22
inet	22
bier	22
waved	22
oru	22
nguyen	22
burkina	22
hernandez	22
dao	22
pants	22
dauph@@	22
faso	22
s.a.	22
4,7@@	22
sonne	22
iem	22
alcal@@	22
mercedes-benz	22
musica	22
minister@@	22
heit@@	22
xvii	22
muham@@	21
flick@@	21
1515	21
ancien	21
spy@@	21
ffy	21
depre@@	21
arus	21
nai	21
recen@@	21
imer	21
hist@@	21
leslie	21
inin	21
eco	21
toulouse	21
cere	21
ubini	21
illa@@	21
ricardo	21
ellen@@	21
cari@@	21
0.000	21
1981-@@	21
bonn	21
aq	21
phon	21
94@@	21
playa	21
eken	21
doc	21
dex@@	21
frowned	21
bryan	21
thum@@	21
nay@@	21
abilis	21
austral@@	21
fang@@	21
andor@@	21
unites	21
oso@@	21
gonz@@	21
bl	21
pach@@	21
gard	21
exempl@@	21
tris	21
lycee	21
hessen	21
implant@@	21
familia	21
computer@@	21
cruc@@	21
55,@@	21
taus@@	21
bursa	21
brow	21
0.0	21
2007-2008	21
zell	21
3500	21
becker	21
vale	21
tiz	21
bari	21
sade	21
uki@@	21
vie	21
movi@@	21
bula	21
135@@	21
258	21
324	21
solu@@	21
jis@@	21
1767	21
teurs	21
motion@@	21
anyway	21
megal@@	21
olf	21
rotten	21
osh@@	21
dette	20
1667	20
peso	20
1649	20
aki@@	20
alitat	20
baja	20
huel@@	20
pierce	20
della	20
sberg	20
campo	20
173	20
ingue	20
cula	20
hne	20
colt	20
yuk	20
kito	20
connor	20
rut	20
bera	20
erb@@	20
alp	20
asim@@	20
gai	20
courant	20
timber@@	20
cten@@	20
lagen	20
kaun@@	20
bag	20
luc	20
plar	20
pili	20
disha	20
dona	20
wanam@@	20
phora	20
rwanda	20
bung@@	20
pha	20
vania	20
46,@@	20
felic@@	20
366	20
dietrich	20
muhl@@	20
eliz@@	20
sensed	20
dl	20
duis@@	20
olia	20
campos	20
ael	20
uzi	20
gren	20
ikon	20
glim@@	20
bee@@	20
faus@@	20
elena	20
regierungs@@	20
particular@@	20
gana	20
tungs@@	20
tint	20
prinz	20
seri	20
marech@@	20
wning	20
mayor@@	20
laut	20
tilted	20
509	20
familias	20
brach@@	20
iw@@	20
syst@@	20
ento@@	20
auf@@	20
lao	20
johannes@@	20
okto@@	20
massen@@	20
mitt	20
formant	20
aly	20
eron	20
difficile	20
menac@@	20
schnell	20
amelior@@	20
hane	20
nhat	20
alcan@@	20
dici@@	20
forschung	20
elet	20
eten@@	20
1744	20
bonne	20
calle	20
kann	20
robe	20
1710	20
notre-dame	20
aida	20
911	20
hika	20
liege	20
chai	20
celer@@	20
syr@@	20
kovic	20
mora	20
rag	20
orus	20
guard@@	20
arco	20
neau	20
erer	20
onder@@	20
scol@@	20
tata	20
obi@@	20
396	20
generale	20
ocu@@	20
154@@	20
robin@@	20
129@@	20
hauts-@@	20
168@@	20
amad@@	20
schnell@@	20
wilhel@@	20
entes	20
weren	20
brug@@	20
iche	20
pey@@	20
calais	20
loge	20
339	20
emba	20
pik@@	20
citroen	20
academie	20
purse	20
theo	20
tierra	20
mehr@@	20
ford-@@	20
squeezed	20
babe	20
166	20
neustadt	20
maril@@	20
kent@@	20
otte	20
2011-2012	20
sexy	20
gros	20
451	20
kreise	20
enos	20
landtag	20
brucken	20
estar	20
sacerdo@@	20
iba	20
hom	20
1993-@@	20
313	20
evo@@	20
432	20
tsu@@	20
lonely	20
siv@@	20
e-	20
play-off	20
282	20
igo	20
forma	20
ouvert	20
ez-@@	20
1739	20
clasico	20
1771	20
himi@@	20
debil@@	20
marke	20
daisy	20
awful	20
yv@@	20
ornis	20
wari	20
sima	20
virgen	20
esn@@	20
holly	20
die@@	20
christi	20
pierre-@@	20
aon	20
omen	20
amel@@	20
angia	20
344	20
jela	20
achia	20
cul	20
elyn	20
chaus@@	20
aliza	19
ons@@	19
hanno@@	19
serr@@	19
abu@@	19
krieg	19
ologie	19
reza	19
dene	19
gaston	19
philipp	19
lique	19
kanun	19
anc	19
1709	19
leap@@	19
elbe	19
kened	19
bali	19
hali	19
poliz@@	19
erin	19
dien	19
pequ@@	19
antha	19
jenn@@	19
ibar@@	19
etas	19
amasya	19
cared	19
onis	19
ateur	19
bino	19
ubic@@	19
nantes	19
seur	19
haun@@	19
masa	19
vier@@	19
ungu@@	19
eus@@	19
1984-@@	19
alay	19
schema	19
regimen	19
1711	19
pso@@	19
parad@@	19
esper@@	19
herr	19
acta	19
shof	19
syndi@@	19
atp	19
mk	19
anymore	19
tout	19
tna	19
khmer	19
fev@@	19
hup@@	19
loi	19
nea	19
entos	19
57,@@	19
olor	19
ett@@	19
santos	19
rado	19
241	19
hacienda	19
meh@@	19
meredith	19
cimetiere	19
isla	19
solicit@@	19
iling@@	19
uga	19
noel	19
koh@@	19
milo	19
het	19
closet	19
siedlung	19
angi	19
alic@@	19
kou@@	19
grenoble	19
els@@	19
274	19
1535	19
monaco	19
cristiano	19
enga	19
mada	19
cham	19
sergio	19
afe	19
cai	19
ode	19
dik	19
plano	19
kraft	19
henri@@	19
960	19
wa-@@	19
1616	19
sok@@	19
agen@@	19
federico	19
sans	19
317	19
kand@@	19
tat	19
tay@@	19
airbus	19
sport@@	19
1676	19
croix	19
nach@@	19
juri@@	19
sio	19
sema	19
enia	19
ovic	19
cak@@	19
paraguay	19
ult@@	19
cache	19
1669	19
telef@@	19
<	19
kv@@	19
yasam@@	19
21,@@	19
hap	19
mik	19
snor@@	19
wale	19
unya	19
bitch	19
wand	19
ats@@	19
x.	19
ghar@@	19
peters	19
crack	19
terre	19
troupes	19
bela	19
commandant	19
solic@@	19
cop	19
barcel@@	19
jessica	19
oped	19
theodor	19
tsch@@	19
math@@	19
kauf@@	19
ayr@@	19
_	19
viktor	19
republica	19
fille	19
erent	19
caen	19
branden@@	18
kanu	18
helic@@	18
alba	18
inay@@	18
emily	18
hamburger	18
eugen	18
frigh@@	18
zac	18
ripped	18
dron	18
dile	18
ayi	18
bf	18
matthias	18
bas	18
core@@	18
diario	18
nak	18
onimo	18
arac@@	18
stin	18
etre	18
premieres	18
ilan	18
lyn	18
schmal@@	18
reb@@	18
fall@@	18
etu@@	18
ait@@	18
cz@@	18
siri	18
gs@@	18
squeez@@	18
essen	18
dose	18
mato@@	18
heer	18
wiscon@@	18
char	18
riz@@	18
nais	18
camino	18
thril@@	18
ruc@@	18
staaten	18
breathe	18
shang@@	18
straigh@@	18
158@@	18
araj@@	18
marne	18
spiegel	18
fen	18
rhodo@@	18
276	18
arz@@	18
ethe@@	18
bart@@	18
celles	18
enzo	18
teo@@	18
boo@@	18
macar@@	18
acker@@	18
vir	18
261	18
dek	18
sek@@	18
455	18
departement	18
sens	18
prasident	18
primit@@	18
ardo	18
yeo	18
duy@@	18
gron@@	18
pare	18
hohe	18
manfred	18
sages	18
org	18
muk@@	18
guzman	18
yesterday	18
flipped	18
dha@@	18
4-0	18
bung	18
berber@@	18
anam@@	18
pommern	18
statt	18
porno@@	18
primera	18
austro@@	18
1746	18
mont-@@	18
aachen	18
284	18
foro	18
poli@@	18
schul@@	18
obi	18
prive	18
berlin-@@	18
beau	18
ssen	18
385	18
largement	18
burger@@	18
cheek	18
heim@@	18
bir	18
shower	18
1480	18
1974-@@	18
septi@@	18
sid	18
graz	18
si-@@	18
toplan@@	18
luge	18
dach@@	18
chre@@	18
teri	18
salz@@	18
1519	18
leiden	18
eger	18
fischer	18
ta-@@	18
reino	18
vol	18
oise	18
castel@@	18
341	18
vah@@	18
bandes	18
ften	18
quent	18
hamil@@	18
swir@@	18
149	18
klar@@	18
huy@@	18
257	18
stella	18
bani	18
autoroute	18
fortunately	18
kucuk	18
tunis@@	18
stre	18
welt	18
ders@@	18
americain	18
maar@@	18
pres	18
bout	17
swear	17
chik@@	17
sepul@@	17
weder	17
hope@@	17
machi	17
mosp@@	17
kiw@@	17
paz@@	17
@	17
411	17
torio	17
183	17
septem@@	17
salzburg	17
klo@@	17
respu@@	17
rir	17
soll	17
elbow	17
togo	17
git	17
bordeaux	17
beauf@@	17
wies@@	17
materia	17
2-4	17
sami	17
levi	17
sv	17
landes@@	17
ellie	17
iere	17
1967-@@	17
hadn	17
orientales	17
lano	17
351	17
elas	17
ionale	17
mx	17
rodol@@	17
olen	17
team@@	17
1260	17
vita	17
universitario	17
moselle	17
tb@@	17
flut@@	17
bom	17
rodrigo	17
weird	17
wurzburg	17
bathro@@	17
nico	17
ede	17
ecoles	17
honneur	17
universitaire	17
margar@@	17
y.@@	17
6-3	17
353	17
nh	17
templo	17
stas@@	17
monde	17
benoit	17
-hol@@	17
bask@@	17
iglesia	17
.com@@	17
hef@@	17
ejo	17
flores	17
eux	17
roe	17
hatta	17
pays	17
superman	17
protege	17
two@@	17
breathed	17
zon	17
sut	17
akana	17
620	17
fool	17
sant@@	17
reims	17
americana	17
onio	17
kari	17
1685	17
lur@@	17
verdi	17
buda	17
tenden	17
sark@@	17
ustr@@	17
tet	17
costas	16
dispose	16
nouvelle	16
uka	16
0.0@@	16
realisation	16
df	16
klaus	16
levant@@	16
ama-@@	16
aso	16
historico	16
cox	16
ister@@	16
strit@@	16
wadi	16
volum@@	16
audio@@	16
164	16
136@@	16
tot	16
chefs	16
isim@@	16
klinik	16
grupo	16
shakespe@@	16
brasil	16
khi@@	16
antin	16
rada	16
cordil@@	16
nieder@@	16
sisi	16
rheinland-pfalz	16
nordrhein-westfalen	16
restes	16
zao	16
brushed	16
paz	16
dios	16
pinus	16
technische	16
tempt	16
2-	16
divers	16
simone	16
idad	16
alias	16
caria	16
sociedad	16
desser@@	16
amby@@	16
universitat	16
pyren@@	16
mv@@	16
nods	16
julio	16
eve@@	16
eski	16
schon@@	16
josh	16
inat@@	16
forgive	16
teddy	16
lage	16
bein@@	16
onde	16
ecke	16
aina	16
rop@@	16
goog@@	16
katie	16
partido	16
cay	16
vai	16
sturm	16
iku@@	16
yuri	16
suppose	16
raison	16
ico-@@	16
awkward	16
cute	16
ms.	16
bere@@	16
moja@@	16
bezirk	16
hora	16
reunion	16
saga	16
315	16
ala@@	15
80-@@	15
jes	15
bebe	15
ensi	15
"@@	15
cek	15
1970-@@	15
1728	15
primo	15
jimenez	15
riff	15
akar	15
oriente	15
schl@@	15
zug	15
alas	15
schach@@	15
barrios	15
lille	15
adoras	15
kau@@	15
onc@@	15
iones	15
ehe@@	15
salvo	15
kasi	15
emili@@	15
abi@@	15
sdorf	15
effectu@@	15
hannah	15
reyes	15
hamb@@	15
meister	15
wollen	15
lise	15
metropolit@@	15
por	15
1672	15
atel@@	15
1979-@@	15
oto@@	15
wrap	15
shud@@	15
endas	15
romana	15
koy@@	15
chili	15
muz	15
athan	15
paredes	15
istas	15
wanda	15
jem@@	15
diers	15
sever	15
11.3	15
balti@@	15
devleti	15
schutzen@@	15
ungo	15
mee	15
tehsil	15
schmidt	15
naye	15
kreuz	15
wy	15
wehr@@	15
adores	15
aret@@	15
titan	15
elen	15
musicale	15
pua	15
2100	15
322	15
matthe@@	15
sachsen-@@	15
etnik	15
issus	15
ulon	15
bacher	15
cadiz	15
atte@@	15
cya@@	15
eze@@	15
haji	15
album@@	15
xanth@@	15
kral@@	15
362	15
tl@@	15
rath	15
deux	15
cke	15
bau	15
raven	15
osten	15
inal@@	15
ml	15
169@@	15
nur	15
imba	15
ulu@@	15
dl@@	15
etat@@	15
aux@@	15
beli	15
jurgen	15
sven@@	15
anya	15
guna	15
zum@@	15
lucien	15
-le-@@	15
bote	15
cev@@	15
viet@@	15
maf@@	15
schulen	15
thiop@@	15
erus	15
petites	15
baji	15
plag@@	15
luce	15
istes	15
kopr@@	15
jou@@	15
107@@	15
mute@@	15
usia	15
munster	15
hardt	15
holz@@	15
kali@@	15
crypto@@	15
turismo	15
508	15
iente	15
eler@@	15
nen	15
export@@	15
didae	15
93.@@	15
icao	15
leopol@@	15
fortuna	15
bellas	15
uben	15
bahn	15
tropic@@	15
anz	15
woh@@	15
hug@@	15
sem	15
taro	15
kraftwerk	15
afrika	15
umbo	15
1634	15
enbach	15
tossed	15
tarak@@	15
johann@@	15
1527	15
sandra	15
europ@@	15
rivi@@	15
wip@@	15
rhein@@	15
desh	15
ilidae	15
gonzal@@	15
azal@@	15
andra	15
jang@@	15
quart	15
1592	15
emon	15
hazi@@	15
beer@@	15
ungen	15
eich@@	15
koo	15
warts	15
tels	15
shook	15
ulif@@	15
waffe	15
escu@@	15
berto	15
ardia	15
289	15
bosch	15
compagnie	15
wrist	15
donat@@	15
250@@	15
431	15
mussen	15
absol@@	15
bamb@@	15
1666	15
khu	15
piper	15
327	15
ianus	15
dole	15
tov@@	15
1555	15
swallowed	15
gustave	15
bul	15
abbe	15
zona	15
lager	15
bing@@	15
sheim	15
bmw	15
rhein	15
mag	15
nissan	15
iwa	15
pais@@	15
aji@@	15
enten	15
romeo	15
iree	15
kinder	15
fiestas	15
uf	15
hank	15
darmstadt	15
toba	15
cada	15
couch	15
1516	15
artistes	15
kip	15
atab@@	15
mitsubishi	15
pitts@@	15
sachsen	15
gesetz	15
den-@@	15
schles@@	15
icer@@	15
icien	15
baf@@	15
anot@@	15
locale	15
1522	15
onga	15
dey@@	15
329	15
adana	15
gai@@	15
haf@@	15
barro@@	15
samsung	15
umbled	15
noir	15
ambe	15
334	15
337	15
1568	14
elu	14
islas	14
deg@@	14
spat@@	14
muscul@@	14
zara	14
mk@@	14
4-	14
thay	14
1631	14
aliana	14
doi	14
kirch@@	14
verte@@	14
pel	14
juz@@	14
warf	14
rai	14
olus	14
uh	14
franc	14
1597	14
proposit@@	14
ruf@@	14
officiel	14
integri@@	14
cion@@	14
604	14
daire	14
cah@@	14
laurence	14
wissenschaft	14
see@@	14
rubbing	14
oo@@	14
illet	14
aan	14
-a-@@	14
ussia	14
mm@@	14
teste	14
pillow	14
venta	14
156@@	14
jakob	14
ikh	14
rouen	14
sag	14
philosophie	14
254	14
aguas	14
rera	14
homme	14
glan@@	14
zom@@	14
ulo	14
utz@@	14
ferrari	14
tema	14
audiencia	14
ibi	14
literar@@	14
litter@@	14
1978-@@	14
gruppe	14
tivo	14
piloto	14
aber	14
kler	14
wach@@	14
2011-@@	14
marino	14
soc	14
uten	14
giao	14
buddy	14
jaime	14
cua	14
jim@@	14
unbe@@	14
guber@@	14
zil@@	14
faz@@	14
edouard	14
quy	14
itement	14
krau@@	14
uku@@	14
erik	14
skor@@	14
daniel@@	14
osha	14
brillante	14
akas@@	14
fok@@	14
antoni	14
osaka	14
124@@	14
rne	14
mediev@@	14
ignacio	14
anak@@	14
femme	14
zoe	14
von@@	14
ux-@@	14
verano	14
bium	14
tien@@	14
enen	14
mess@@	14
1730	14
kreis	14
0,0@@	14
olivier	14
liche	14
arque@@	14
56,@@	14
mier@@	14
elis@@	14
famille	14
habitual	14
brett	14
pico	14
liman	14
fica	14
independencia	14
statten	14
lados	14
pita	14
ppa	14
analyse	14
1541	14
encia	14
alvar@@	14
ball-@@	14
opor@@	14
unsur@@	14
conservatoire	14
schop@@	14
1743	14
kume@@	14
tuba	14
yani	14
toto	14
shul@@	14
kav@@	14
hare@@	14
163@@	14
kon	14
fain@@	14
ahl	14
hissed	14
1534	14
suke	14
rach	14
ogu@@	14
rez@@	14
benefic@@	14
atica	14
grab@@	14
tep	14
anter@@	14
taine	14
bier@@	14
julie	14
grec	14
605	14
ilin	14
lid@@	14
mug	14
adhi	14
braun@@	14
zuge	14
kuj@@	14
willy	14
meer	14
thuringen	14
geschichte	14
ismus	14
eved	14
unis	14
wald@@	14
whel@@	14
312	14
ungs@@	13
ulrich	13
leans	13
konrad	13
vais	13
ajo	13
flachen@@	13
konig@@	13
ghu@@	13
slammed	13
mehmet	13
edificio	13
raul	13
policia	13
vet	13
chua	13
iques	13
beni	13
2400	13
ubu	13
tien	13
1977-@@	13
wawa	13
sur-@@	13
fuhrer	13
minas	13
insee	13
ilist@@	13
guth@@	13
fernandez	13
alay@@	13
huz@@	13
stron@@	13
trist@@	13
tucked	13
miranda	13
386	13
esperanza	13
t-shirt	13
1643	13
jude	13
esqu@@	13
dmit@@	13
hula	13
fich@@	13
alim@@	13
schat@@	13
aik@@	13
methode	13
auer	13
kanada	13
contre	13
yeti	13
archie	13
vivian	13
uncomfortable	13
grum@@	13
magdeburg	13
1627	13
paus@@	13
achu@@	13
odon@@	13
fists	13
wcw	13
renault	13
gruppen	13
fag@@	13
baum	13
zano	13
melissa	13
manos	13
agglomer@@	13
joaquin	13
graben	13
marques	13
reempl@@	13
economica	13
lt	13
lev	13
157@@	13
helmut	13
nacht	13
259	13
367	13
isin	13
camara	13
mund@@	13
tecn@@	13
chef	13
sto	13
affaires	13
fait	13
amik	13
araz@@	13
octav@@	13
fes@@	13
ologica	13
metacritic	13
zor	13
cheval	13
millimeter	13
akt@@	13
ife	13
nang	13
alpin@@	13
misch@@	13
1623	13
franken@@	13
itat	13
inum	13
verti@@	13
aline	13
anie	13
kaya	13
4-2	13
appel	13
debu@@	13
vit	13
hak	13
ince	13
181	13
oya	13
alyp@@	13
raza	13
eke	13
marque	13
tp	13
1536	13
autonome	13
unge@@	13
debit	13
ilos	13
guess	13
231	13
1570	13
tit	13
brunn	13
296	13
elek@@	13
quadrat@@	13
estrella	13
extran@@	13
yat	13
frances@@	13
acacia	13
moto	13
eul@@	13
dt@@	13
wallon@@	13
esco@@	13
aliment@@	13
chis@@	13
orno	13
mano	13
jour	13
a-	13
cken@@	13
vision@@	13
anar@@	13
bogota	13
dop@@	13
zis@@	13
entro	13
laura	13
mie	13
gare	13
306	13
pena	13
orie	13
tosa	13
chas	13
colom@@	13
igt	13
stark@@	13
uno	13
soma	13
desa	13
alcalde	13
quilla	12
olivia	12
acia	12
montre@@	12
blonde	12
corte	12
goodbye	12
staat@@	12
kac@@	12
gilles	12
prof.	12
premiers	12
nurnberg	12
azz@@	12
tc@@	12
2008-2009	12
kommunal@@	12
349	12
drit@@	12
kova	12
sprin@@	12
lassen	12
soy	12
fungi@@	12
inar@@	12
arden@@	12
aer	12
sche@@	12
s-	12
seurs	12
iments	12
fand	12
chok@@	12
buk	12
vex@@	12
urbaine	12
mong	12
yola	12
atura	12
ers@@	12
mira	12
acom@@	12
sae	12
balt@@	12
religiosa	12
recuper@@	12
augmentation	12
nom	12
hesitated	12
ylo@@	12
lily	12
tari	12
lig	12
viejo	12
slam@@	12
drif@@	12
marcos	12
aham@@	12
jean-paul	12
quiet@@	12
americano	12
neth	12
316@@	12
savo@@	12
afc	12
guc@@	12
whoever	12
herrera	12
beren@@	12
edel@@	12
moto@@	12
2007-@@	12
imet@@	12
meer@@	12
ini-@@	12
whispered	12
inia	12
oso	12
culte	12
https	12
ried	12
juniors	12
777	12
kip@@	12
konigs@@	12
parked	12
wiki@@	12
331	12
bruck@@	12
siku	12
bril@@	12
stro	12
zeit	12
seria	12
283	12
gre	12
freie	12
gasse	12
teleno@@	12
turm	12
heir@@	12
bios	12
nuestra	12
senora	12
pras@@	12
gustavo	12
punc@@	12
iku	12
plaz@@	12
mundo	12
yut	12
gada	11
arl@@	11
shoul@@	11
wondered	11
thigh	11
uc	11
pedago@@	11
alanda	11
ba-@@	11
ivo@@	11
denom@@	11
haut@@	11
wul@@	11
nj@@	11
konya	11
ianos	11
aban	11
blanche	11
garrett	11
sede	11
antho@@	11
pera	11
fice	11
betty	11
uria	11
steller	11
ngozi	11
eki@@	11
culp@@	11
dont	11
heu@@	11
ayar@@	11
angri@@	11
perci@@	11
che-@@	11
shouldn	11
cala	11
pais	11
thong	11
v.@@	11
nad	11
scared	11
ak-@@	11
oman@@	11
161	11
municipios	11
soh@@	11
mek@@	11
ulim@@	11
nacion@@	11
sik	11
sier	11
lovely	11
loudly	11
ke-@@	11
murmured	11
slayer	11
anne-@@	11
630	11
fing@@	11
sucked	11
blie@@	11
kongo	11
mno	11
russ@@	11
chocol@@	11
astur@@	11
ilis	11
phong	11
scar	11
mom	11
stas	11
reis	11
itaire	11
belgica	11
lt@@	11
arme@@	11
lat	11
vip@@	11
imia	10
dhul@@	10
sangu@@	10
marquee	10
alles	10
meria	10
cory@@	10
vogel	10
berlin@@	10
pson	10
chee	10
giu	10
liam	10
kure	10
abra@@	10
mekte@@	10
fiat	10
moc	10
conser@@	10
stranger	10
mahal@@	10
cac	10
onek@@	10
lima	10
frere	10
stuttgart	10
pala@@	10
iella	10
mh@@	10
x.@@	10
koln	10
ciencia	10
lista	10
orio	10
benz@@	10
fung	10
leich@@	10
conquista	10
ushi	10
huri	10
yves	10
inis	10
smelled	10
roux	10
jill	10
preside	10
chum@@	10
halic@@	10
nist@@	10
cec@@	10
guadalajara	10
ondo	10
hain	10
werk	10
phu	10
lana	10
chab@@	10
zac@@	10
suma	10
hidro@@	10
iza	10
hacen	10
beam@@	10
beur@@	10
kli@@	10
dacty@@	10
153@@	10
esen	10
ville@@	10
toge@@	10
kleine	10
loser	10
vay	10
myan@@	10
guardia	10
2-2	10
kraf@@	10
1749	10
oko	10
rath@@	10
fulani	10
zamora	10
neust@@	10
schiff	10
portugues	10
burgermeister	10
toc	10
soz@@	10
regierung	10
saba	10
kalk@@	10
fabrik	10
heo	10
harit@@	10
chner	10
10000	10
kars@@	10
travaux	10
jiji	10
efendi	10
schwer@@	10
relax	10
kale	10
adies	10
galerie	10
olan@@	10
phia	10
tivite	10
grab	10
bosque	10
292	10
baie	10
iliana	10
unia	10
uy	10
1.7@@	10
civ@@	10
kow	10
elik	10
reno	10
seel@@	10
noy@@	10
gah@@	10
sanat@@	10
ziv@@	10
ffled	10
iliano	10
smir@@	10
etro@@	10
aktu@@	10
ativa	10
oku	10
agh@@	10
muh@@	10
derer	10
ariat	10
twit@@	10
empereur	10
abou@@	10
damned	10
macher	10
zee	10
mesures	10
usu@@	10
livre	10
cees	10
dogr@@	10
hanh	10
desa@@	10
ender@@	10
meli	10
oben	10
neuf	10
riley	10
historique	10
thich	10
alessand@@	10
atta@@	10
hien	10
ques-@@	10
christine	10
anto	10
vino	10
isbn	10
batail@@	10
carre	10
brad	10
umma	10
ruz@@	10
caz@@	10
bathroom	10
yours	10
als@@	10
amac@@	10
bina	10
nde	10
mannheim	10
zik@@	10
poderes	10
apu	10
uer@@	10
zane	10
find@@	10
ffield	10
igne	10
rua	10
helene	10
elt	10
379	10
6-7	10
relle	10
passant	10
4-1	10
hoc@@	10
zeu@@	10
fortaleza	10
dorff	10
philo@@	10
damon	10
jugos@@	10
feo	10
stut@@	10
unlu	10
thighs	10
galatasaray	10
boden@@	10
coz@@	10
kea	10
gunde	10
ebe@@	10
toria	10
eint	10
mahak@@	10
poda	10
atifs	10
marches	10
omia	10
hopital	10
kiel	10
sona	10
adal@@	10
stee	10
schlacht	10
moines	10
tolkien	10
spun@@	10
4-6	10
bun	10
gp	10
dominique	10
enf@@	10
kiar@@	10
liban	10
geld	10
rang	10
cera	10
zun@@	10
baba	10
buch@@	10
olep@@	10
muster@@	10
imparatorlugu	10
taur@@	10
castillo	10
ofa	10
aliy@@	10
devlet@@	10
fati@@	10
1180	10
haya	10
cier@@	10
traduc@@	10
neu	10
dente	10
tenia	10
todos	10
main-@@	10
stau@@	10
anzu@@	10
paj@@	10
mej@@	10
lech	10
tados	10
tub@@	10
dienst	10
snapped	10
294	10
romano	10
upe@@	10
bres	10
delle	10
fels	10
schu@@	10
saires	10
mitsub@@	10
cidae	10
schein@@	10
mucha	10
genau	10
inas@@	10
dier@@	10
dren@@	10
1583	10
unver@@	10
modo	10
warri@@	10
idar@@	10
burgos	10
wakam@@	10
schar@@	10
voll@@	10
820	10
ninos	10
cumhur@@	10
kais@@	10
iyi	10
acu@@	10
xim@@	10
graphie	10
hasn	10
dej@@	10
infra@@	10
ayuntamiento	10
brachy@@	10
corre@@	10
jik@@	10
comite	10
muster	10
tanganyika	10
sinn	10
stero@@	10
staur@@	10
marguerite	10
99,@@	10
sez@@	10
kenn@@	10
locu@@	10
geza	10
atletico	10
msha@@	10
marche	10
forte	10
mala@@	10
cien	10
erlang@@	10
silly	10
stefano	10
1606	10
pueblos	10
technik	10
krieg@@	10
maden	10
faire	10
kol	10
bildungs@@	10
aventure	10
uck	10
sprach@@	10
orquesta	10
envi@@	10
angen@@	10
nies	10
ca.	10
anschluss	10
aue	10
zoni	10
toes	10
hug	10
gabe	10
klag@@	10
kissed	10
abend	10
planta	10
aeron@@	10
gira	10
kaz	10
ruby	10
alfa	10
erne@@	10
fist	10
idai	10
ninja	10
schwarz@@	10
meist@@	10
provincia	10
cuenca	10
pande	10
buena	10
budap@@	10
espace	10
wili	10
uil	10
sov	10
gur	10
usha@@	10
safa	10
tep@@	10
dores	10
ausch@@	10
ruhe	10
pindi	10
maritim@@	10
carden@@	10
shit@@	10
nadir	10
rhyn@@	10
annes	10
273	10
neue	10
cabe	10
biblioth@@	10
kest@@	10
ille-@@	10
trent@@	10
601	10
prensa	10
ulata	10
rapa	10
ames@@	10
circuito	10
olus@@	10
haj@@	10
geld@@	10
mouvement	10
serti@@	10
veli	10
vue	10
iet	10
afrique	10
leben	10
bien	10
rin	10
gide	10
gea	10
1-1	10
nota	10
screaming	10
ellas	10
thras@@	10
profil@@	10
kat	10
hemu	10
ior	10
noch	10
utilise	10
flir@@	10
dencia	10
citro@@	10
pura	10
rik	10
usen	10
elf@@	10
meda@@	10
dora	10
inge@@	10
droits	10
igen	10
thier@@	10
horst	10
ako@@	10
trem@@	10
dil	10
securite	10
hupata	10
handlungs@@	10
yaz	10
veri	10
louv@@	10
amanda	10
sous-@@	10
ungar@@	10
champs	10
academ@@	10
tete	10
snar@@	10
chamb@@	10
bong	10
massif	10
itre	10
kralice	10
geist@@	10
trevor	10
ugu@@	10
rund@@	10
primer	10
gregorio	10
korps	10
manch@@	10
inicial	10
urbana	10
neub@@	10
lante	10
gara	10
deniz@@	10
aume	10
kade@@	10
icius	10
ppen@@	10
1654	10
lehr@@	10
3.	10
viz	10
werks	10
cordillera	10
ifu	10
bala	10
spine	10
sevilla	10
kadar@@	10
ologique	10
marais	10
eury@@	10
vad@@	10
renom@@	10
internacional	10
presidente	10
presen@@	10
gemeinderat	10
jared	10
orn@@	10
lave	10
rique	10
ieri	10
wuch@@	10
suic@@	10
seb@@	10
meni	10
ubangi	10
dortmund	10
marsch@@	10
uko@@	10
braunschweig	10
borussia	10
combats	10
3-1	10
asien	10
guz@@	10
ataa	10
italiana	10
froze	10
kupo@@	10
verfassungs@@	10
futbol	10
lais@@	10
doyle	10
laughed	10
denk@@	10
k.k.	10
lego	10
danse	9
taria	9
amiga	9
alfab@@	9
dev	9
alii	9
cabeza	9
haps	9
vins	9
content@@	9
azo	9
eyi	9
bello	9
mti	9
luxemburg	9
ablanca	9
hili	9
nhac	9
awa@@	9
syndic@@	9
brau@@	9
clen@@	9
ambo	9
traite	9
wiki	9
mende	9
2006-2007	9
centrale	9
moderna	9
nau	9
herzog	9
gazet@@	9
spre@@	9
lengua	9
beno@@	9
khang	9
poids	9
amina	9
mendo@@	9
trainer	9
disch	9
phane	9
enge@@	9
besonder@@	9
iten	9
cual	9
stadte	9
kreis@@	9
amour	9
inae	9
anca	9
cuar@@	9
lubeck	9
gok@@	9
mille	9
reflex@@	9
inka	9
castan@@	9
volker	9
obvi@@	9
xit	9
nouvel	9
sncf	9
sse	9
lager@@	9
table@@	9
doner	9
gior@@	9
unidos	9
zos	9
pis	9
moyen	9
chill	9
valent@@	9
31.@@	9
poste	9
comandante	9
commer@@	9
marseille	9
nats	9
schal@@	9
silvest@@	9
uya	9
eid@@	9
egor@@	9
deutsch	9
uto	9
markt	9
alejandro	9
alistas	9
donner	9
ork@@	9
266	9
komo@@	9
segundo	9
aleman	9
bravo	9
leur	9
ellos	9
parte	9
kassel	9
medios	9
industrie	9
erde	9
llamadas	9
soleil	9
ologico	9
monter@@	9
tur	9
bolivar	9
ancienne	9
essa	9
usha	9
kaiser@@	9
chom@@	9
fuku@@	9
tecnologia	9
consejo	9
mundial	9
idium	9
2000@@	9
estat@@	9
etos	9
ji-@@	9
tig	9
blin	9
deutsch@@	9
echos	9
onen	9
ellus	9
grenz@@	9
parten@@	9
chay	9
patrim@@	9
bayr@@	9
siecle	9
kein	9
athen	9
alet	9
xanh	9
izi	9
brio	9
moderno	9
salas	9
aktion	9
sicher@@	9
gg	9
mana	9
stephan	9
vl@@	9
cienti@@	9
ritter	9
claudio	9
gorgeous	9
krom@@	9
behin@@	9
tys	9
vom	9
olid	9
gec@@	9
lop	9
duk	9
jeune	9
uwe	9
polin@@	9
troy@@	9
departements	9
comun@@	9
pata	9
ilustr@@	9
kano	9
swick	9
spha@@	9
turin	9
kloster@@	9
choi	9
phyllum	9
147@@	9
polonia	9
cant	9
sante	9
bachel@@	9
blau@@	9
sank@@	9
kudus	9
vain@@	9
akade@@	9
347	9
verwaltungs@@	9
alista	9
tepe	9
eaux	9
plus@@	9
uza	9
unas@@	9
lek@@	9
ahmet	9
wani	9
edirne	9
genie	9
377	9
rosario	9
didier	9
altas	9
comfor@@	9
sef@@	9
attire	9
agnes	9
kung	9
jad@@	9
149@@	9
leningrad	9
farben	9
dote	9
steiner	9
burgo	9
ift	9
mila	9
1.5@@	9
convento	9
ferrovi@@	9
bafta	9
chiffre	9
installer	9
ui-@@	9
moreno	9
glancing	9
puis@@	9
schweizer	9
tiques	9
thumb	9
blanket	9
bunde@@	9
hif@@	9
mani@@	9
aste	9
decou@@	9
bildung	9
uso	9
isler	9
66,@@	9
knapp	9
abschluss	9
amateur@@	9
arbe@@	9
depol@@	9
gom	9
ull	9
alpen	9
klas@@	9
decen@@	9
filo	9
bain	9
iee	9
technologie	9
lehrer	9
sommer	9
gemein@@	9
gler	9
laurent	9
dur	9
mera	9
moi	9
luft	9
1675	9
porta	9
klasse	9
toire	9
ilen	9
chico	8
chaine	8
mujer	8
they@@	8
marido	8
maho@@	8
fondo	8
karak@@	8
clip	8
tende	8
distrito	8
ongo@@	8
lettres	8
imar	8
wien@@	8
mur	8
api	8
quinn	8
montpellier	8
anthus	8
zeit@@	8
skal@@	8
zuk@@	8
407	8
gobierno	8
schmi@@	8
alogo	8
rote	8
boca	8
atlan@@	8
syndicat	8
tora	8
mort	8
ariste	8
agost@@	8
pone	8
generales	8
agua	8
bene@@	8
isches	8
stahl	8
carson	8
sied@@	8
klara	8
doz@@	8
auff@@	8
engel	8
ivoire	8
imar@@	8
loat	8
herze@@	8
duran	8
nz@@	8
ikawa	8
frei	8
dn@@	8
mimi	8
rini	8
nouvelles	8
whir@@	8
etats	8
edifice	8
mbu	8
want@@	8
yeah	8
moulin	8
nde@@	8
vida	8
rido	8
forman@@	8
quartiers	8
auverg@@	8
projet	8
modernes	8
histo@@	8
dendron	8
illos	8
bernhard	8
musik	8
dre	8
dort	8
t-	8
anciens	8
gii	8
spek@@	8
nxt	8
cir	8
arquitec@@	8
espir@@	8
isme	8
trabzon	8
asil@@	8
investigacion	8
veren	8
mala	8
dara	8
entrain@@	8
dim@@	8
avoc@@	8
uwe@@	8
stil	8
unter	8
anach@@	8
escuela	8
elde	8
karama	8
pd@@	8
riere	8
gregori	8
33.0	8
aun	8
yos	8
orf	8
nda	8
josep@@	8
riba@@	8
jake	8
sino	8
atro	8
idos	8
haria	8
cyr@@	8
uretic@@	8
brandon	8
phieu	8
glab@@	8
osen	8
hyn@@	8
vieux	8
ehren@@	8
skand@@	8
bourg-@@	8
constitucion	8
1989-@@	8
metac@@	8
pilote	8
miento	8
-and	8
1552	8
isho	8
mait@@	8
passe	8
though@@	8
amus	8
agust@@	8
carne	8
cheeks	8
soka	8
tenerife	8
iye	8
apparition	8
estas	8
baden-@@	8
inan@@	8
papier	8
endon@@	8
lauren	8
issances	8
niques	8
avril	8
oslo	8
tatus	8
staat	8
1920-@@	8
langue	8
autor@@	8
como	8
gua	8
estri@@	8
transporte	8
maire	8
isab@@	8
soo@@	8
salaam	8
fund@@	8
entree	8
allo	8
nuf@@	8
bruck	8
167@@	8
genos@@	8
dae	8
shine	8
bahia	8
134	8
bim@@	8
municipio	8
onn@@	8
boni	8
eminem	8
zas	8
sucre	8
naturelle	8
lte	8
yum@@	8
ichs	8
recr@@	8
ambi	8
eu-@@	8
ovich	8
cens	8
demen@@	8
noirs	8
jeu	8
nervo@@	8
mallor@@	8
hidi	8
pseudon@@	8
himalaya	8
alites	8
voie	8
536	8
deputes	8
dug@@	8
winc@@	8
chot	8
asoci@@	8
.net	8
olu	8
verband	8
tek	8
llo@@	8
alec	8
georgie	8
luk@@	8
brasil@@	8
lori	8
chambre	8
vitch	7
aliados	7
kal	7
haric	7
loc	7
dras	7
blancos	7
ii-@@	7
mav@@	7
nul	7
schir@@	7
queens@@	7
paused	7
esos	7
belle@@	7
smac@@	7
paler@@	7
|	7
puer@@	7
donne	7
onda	7
pazar	7
haber	7
dario	7
honestly	7
dm	7
cumhuriyeti	7
straf@@	7
adora	7
ichneum@@	7
tw	7
dena	7
isses	7
munchen	7
sozi@@	7
hier	7
zum	7
tekn@@	7
doorway	7
mosco@@	7
such@@	7
aras@@	7
vivo	7
elen@@	7
erho@@	7
philadel@@	7
rais	7
oren	7
esteban	7
villes	7
parti	7
1595	7
anunci@@	7
istat	7
histoire	7
6.	7
65,@@	7
serge	7
gagne	7
tir	7
loin	7
gere	7
tugged	7
bele@@	7
tche@@	7
laughing	7
gieng	7
uke	7
brunnen	7
vr@@	7
rapport	7
ngc	7
ppel@@	7
lider	7
maz	7
kyle	7
recherche	7
acho	7
cak	7
316	7
tu-@@	7
gomez	7
amon	7
felipe	7
lucy	7
zimmer	7
gini	7
rodri@@	7
kopf	6
chute	6
gute	6
stumbled	6
flashed	6
koc@@	6
bloque	6
cops	6
egos	6
base@@	6
uzo	6
presenter	6
klim@@	6
grosse	6
gsm	6
dicul@@	6
recht@@	6
kanal@@	6
quartier	6
gedan@@	6
kuba	6
helsin@@	6
toru	6
mei	6
quant	6
erra	6
orman	6
anderen	6
schweiz	6
landen	6
superieure	6
gado	6
shit	6
mak	6
yr@@	6
joaqu@@	6
ates@@	6
336	6
rechts	6
disque	6
administracion	6
mittel@@	6
cias	6
annees	6
alak@@	6
daddy	6
ahia	6
schau@@	6
rosas	6
discos	6
mrs	6
recu@@	6
amet@@	6
iver@@	6
dais@@	6
pab@@	6
witsch	6
griff	6
gueur	6
saal	6
breit@@	6
silently	6
merk@@	6
herz@@	6
akon	6
diz	6
lages	6
dau	6
tuc	6
308	6
acea	5
satz	5
fuer@@	5
notre-@@	5
iste	5
pich@@	5
suleyman	5
pennsyl@@	5
ayo@@	5
sif	5
filmi	5
mitch@@	5
neh@@	5
confi@@	5
mambo	5
annee	5
ologiques	5
jeunesse	5
kut@@	5
cung	5
pago	5
tod	5
atan@@	5
saini	5
gow	5
militar	5
plana	5
gerich@@	5
heria	5
ulip@@	5
unu	5
viny@@	5
iaceae	5
asag@@	5
kadi	5
desi	5
tank@@	5
ulem@@	5
ranh	5
hini	5
thu	5
amir@@	5
duong	5
verit@@	5
zat	5
keo	5
vuot	5
thoi	5
historien	5
seres	5
ordent@@	5
breve	5
nuoc	5
hip-@@	5
alon@@	5
pero	5
emplacement	5
adis	5
ume@@	5
368	5
yesil@@	5
princesa	5
pacifico	5
emin	5
tez@@	5
seyh	5
zama	5
zaf@@	5
orhan	5
objets	5
eben@@	5
sehir@@	5
padis@@	5
gc	5
bili@@	5
edor	5
ifs	5
reu	5
estrellas	5
ogia	5
karate	5
yuvar@@	5
fte	5
quinta	5
kek	5
besiktas	5
fenerbahce	5
altay	5
ieure	5
luz@@	5
wust@@	5
2.0@@	5
llam@@	5
vampire	5
prit	5
iden@@	5
lerin	5
telle	5
kommand@@	5
sair	5
evlen@@	5
mesi	5
schel	5
soni	5
icinde	5
deman@@	5
only@@	5
zep@@	5
henuz	5
dinh	5
vilay@@	5
yedi	5
toma	5
wir	5
repose	5
stad	5
atelier	5
qued@@	5
progr@@	5
kando	5
oza	5
moja	5
ozi	5
bouch@@	5
akaz@@	5
coree	5
urbain	5
mando	5
audi	5
honda	5
lust	5
akam@@	5
igny	5
unternehmen	5
412	5
karas@@	5
boudd@@	5
glanced	5
nature@@	5
huk@@	5
trung	5
357	5
angriff	5
zeuge	5
346	5
arke@@	5
daha	5
fa-@@	5
1980-@@	5
nini	5
ino-@@	5
atwa	5
politico	5
pfal@@	5
kampf	5
mares	5
leve	5
hans-@@	5
kommando	5
parlement	5
roche@@	5
cartagena	5
burok@@	5
quebeco@@	5
hoffmann	5
busho	5
frei@@	5
gria	5
ruf	5
ruh	5
karag@@	5
pk	5
nani	5
ipen@@	5
kamer@@	5
konstantin	5
wissenschaften	5
atz	5
kuten@@	5
chemie	5
rouges	5
.000	5
constante	5
aventura	5
ocho	5
sitz	5
actuel	5
binden	5
sbach	5
minden	5
abr@@	5
spat	5
2015-@@	5
sah	5
schwe@@	5
kino@@	5
th.	5
502	5
cela	5
hangi	5
christoph@@	5
kik@@	5
diki	5
dok@@	5
gah	5
mecklen@@	5
bahar	5
milletler	5
cosa	5
gideon	5
enton@@	5
bandera	5
joey	5
fusion@@	5
pewa	5
luf@@	5
bongo	5
fuego	5
phes	5
deni	5
phyllaceae	5
mbe@@	5
esha	5
thab@@	5
oue	5
manche	5
uyu	5
compagnies	5
sociale	5
atiques	5
campes@@	5
italien	5
lande	5
russes	5
lune	5
kichwa	5
euse	5
chini	5
ien-@@	5
heidel@@	5
clue	5
vaut	5
kundi	5
regie	5
messe	5
adhi@@	5
hiver	5
annah@@	5
soan	5
nora	5
hofe	5
rode@@	5
amarillo	5
aron	5
sumu	5
uu	5
uwa	5
sayan	5
plantes	5
uru@@	5
aka@@	5
mex@@	5
tisha	5
xuan	5
arma	5
ddr@@	5
bora	5
smiles	5
mombasa	5
reh@@	5
hada	5
pees	5
kuy@@	5
juma@@	5
taar@@	5
orden@@	5
agog@@	5
mobil	5
tros	5
himmel@@	5
buh@@	5
huc	5
democratique	5
politique	5
oire	5
peuple	5
ministere	5
postes	5
sung@@	5
ularis	5
mite	5
otor@@	5
saha	5
ebil@@	5
cerambycidae	5
elateridae	5
misri	5
tiem@@	5
neuroptera	5
uner@@	5
schwim@@	5
chrysomelidae	5
indigenas	5
comien@@	5
permet@@	5
haba	5
carab@@	5
differents	5
lei@@	5
especes	5
estudiantes	5
psychologie	5
beiden	5
probleme	5
erkennt@@	5
uro@@	5
afor@@	5
garia	5
146@@	5
kumu@@	5
espanoles	5
selbst	5
terra@@	5
einigen	5
ucken	5
giovan@@	5
scarab@@	5
usu	5
reformi@@	5
nucleo	5
cero	5
softly	5
uft	5
isee	5
268	5
holz	5
abat@@	5
stant@@	5
fuck	5
caso	5
affron@@	5
leb@@	5
lolo@@	5
grin	5
tele	5
dans	5
yanga	5
kub@@	5
omi	5
ecos	5
ye-@@	5
utu	5
iwe	5
tugr@@	5
dirigi@@	5
07@@	5
hiki	5
jimbo	5
telek@@	5
417	5
urais	5
comer@@	5
dos@@	5
awk@@	5
flughafen	5
suzuki	5
aku@@	5
iyat	5
ilio	5
sart	5
morte	5
fes	5
ciel	5
classe	5
abar@@	5
schie@@	5
tades	5
sekre@@	5
soi	5
universite	5
php	5
europeen	5
ubun@@	5
fik@@	5
zambezi	5
hohere	5
atl@@	5
giza	5
1986-@@	5
niers	5
lul	5
staring	5
amene	5
zek@@	5
keli	5
bik	5
2556	5
noblesse	5
alik@@	5
aft	5
habita	5
koc	5
kop	5
juvent@@	5
oblige	5
oscur@@	5
2525	5
escul@@	5
iores	5
adu@@	5
gine	5
prefet	5
republik	5
salomon	5
formis	5
silla	5
ambos	5
bido	5
relativamente	5
novembre	5
friedens@@	5
fre	5
originale	5
biel@@	5
historiques	5
critico	5
sistema	5
coleccion	5
marca	5
grafica	5
amech@@	5
abb@@	5
cabal@@	5
rojas	5
toro	5
amientos	5
acion@@	5
viene	5
piso	5
tula	5
colec@@	5
antiguo	5
baya	5
industria	5
383	5
federacion	5
tiva	5
calles	5
rung	5
mexiko	5
4.	5
wandte	5
wissenschaftliche	5
kongre@@	5
nationaler	5
gedenk@@	5
roten	5
halla	5
vont	5
lub@@	5
movimiento	5
oiseaux	5
bahnen	5
romain	5
markt@@	5
kreuz@@	5
platz	5
kabin@@	5
tliche	5
sammlung	5
mung	5
statte	5
stiftung	5
artistico	5
stared	5
emon@@	5
arda	5
deportivo	5
olimpico	5
hoan	5
ciencias	5
napoli	5
2014-@@	5
juventus	5
macho	5
tek@@	5
sortie	5
edes	5
ebe	5
atur	5
chloe	5
golfo	5
alfon@@	5
hombres	5
libre@@	5
tei	5
weil@@	5
fide@@	5
graphique	5
lings@@	5
hrt	5
attache	5
anor@@	5
iger-@@	5
ustun	5
biologie	5
englis@@	5
canti@@	5
ultimo	5
grabbing	5
dern	5
wrestlemania	5
flota	5
tokio	5
estra	5
oldu@@	5
unos	5
sinfon@@	5
3-	5
deli	5
endr@@	5
ambat@@	5
weih@@	5
durum	5
ncha	5
izo@@	5
iento	5
childr@@	5
zea	5
regel@@	5
verkehr@@	5
renn@@	5
bisch@@	5
heits@@	5
optik	5
schot@@	5
ie-@@	5
vog@@	5
7,5	5
hohen	5
endre	5
mai	5
sot	5
wun@@	5
anun@@	5
hiri	5
ywa	5
zit@@	5
atoires	5
usan	5
combustible	5
girl@@	5
berge	5
dener	5
yohane	5
wes	5
damn	5
panties	5
isel	5
ugg@@	5
unap@@	5
ulia	5
kanal	5
maschinen@@	5
stedt	5
buhne	5
nsdap	5
12.000	5
5.000	5
adt	5
puerta	5
escol@@	5
langen@@	5
ufer	5
trouve	5
lingen	5
tui	5
printemps	5
schauspiel@@	5
bergs	5
trois	5
nouve@@	5
resim@@	5
garon	5
zwei	5
neues	5
gegen	5
treffen	5
erine	5
schen	5
undu	5
steig@@	5
schmu@@	5
tisch	5
issen	5
doppel@@	5
offr@@	5
kij@@	5
reales	5
stadion	5
zaragoza	5
umbi	5
chea	5
claudia	5
auteurs	5
propriete	5
eigent@@	5
karol@@	5
letra	5
benzer	5
fie	5
geb@@	5
rees	5
yasi@@	5
lieb@@	5
asker	5
bros	5
gott	5
bui	5
asch@@	5
amster@@	5
mosk@@	5
pelig@@	5
begen@@	5
neer@@	5
erythro@@	5
nord-@@	5
does@@	5
zut@@	5
allem@@	5
orientale	5
ya-@@	5
vuelta	5
afu	5
pekin	5
reste	5
gunther	5
resi	5
camin@@	5
atlantico	5
lichen	5
auber@@	5
akademi	5
antwor@@	5
sich	5
ismo	5
gewerk@@	5
ksi	5
gebor@@	5
wahl	5
gier@@	5
murat	5
wenn	5
villen@@	5
angleterre	5
pierres	5
uhus@@	5
quand	5
oscuro	5
landes	5
atu	5
monsieur	5
akit@@	5
taka	5
historica	5
leuc@@	5
262	5
inea	5
vek@@	5
277	5
provence	5
goi	5
eris@@	5
groaned	5
ahora	5
gesi	5
ikia	5
.-@@	5
gusta@@	5
kic@@	5
petits	5
evin	5
acum@@	5
ii.	5
banque	5
soz	5
orne	5
atlant@@	5
gey@@	5
vive	5
sario	5
brech@@	5
pula	5
fico	5
acte	5
gani	5
capitan	5
schaft	5
abgeord@@	5
regier@@	5
erster	5
sprasid@@	5
staats@@	5
genis@@	5
negocios	5
escudo	5
omba	5
schalt@@	5
gleich@@	5
iria	5
freist@@	5
kiel@@	5
flug@@	5
peugeot	5
werk@@	5
werke	5
rad	5
monumento	5
julien	5
alen@@	5
axel	5
pteris	5
arini	5
erre@@	5
ilin@@	5
reserva	5
sinden	5
langage	5
enburg	5
pont-@@	5
issan@@	5
reconna@@	5
bretagne	5
beria	5
eje@@	5
datum	5
chte	5
gemeinden	5
mij@@	5
segunda	5
caballer@@	5
hurried	5
jero	5
metropolitana	5
siem@@	5
usar	5
startled	5
deutsch-@@	5
franzosischer	5
allemande	5
caracas	5
feu	5
bataillon	5
arcos	5
desen@@	5
sieben	5
keb@@	5
baki	5
rieres	5
shrugged	5
semaine	5
jager	5
wehr	5
milano	5
uti@@	5
tanga	5
yasa	5
kosten@@	5
acio	5
flugel	5
estacion	5
redes	5
frem@@	5
luga	5
justicia	5
rund	5
dich	5
res-@@	5
interes	5
turist@@	5
patrimonio	5
humanidad	5
almir@@	5
forment	5
lena	5
estudio	5
exposicion	5
eneo	5
arlo	5
ingil@@	5
haut	5
diya	5
avoir	5
meo	5
ausbau	5
muse@@	5
tad	5
zaidi	5
inidae	5
tiempo	5
lidae	5
heure	5
dispu@@	5
gata	5
musik@@	5
brucke	5
langen	5
funk@@	5
spiel	5
ebu	5
2013-@@	5
direk@@	5
gano	5
eley	5
nok@@	5
dieu	5
1538	5
efic@@	5
heures	5
dejar	5
2550	5
hii	5
oglos@@	5
hawa	5
sprach	5
nacht@@	5
geschlos@@	5
amiento	5
temps	5
ations@@	5
egas	5
valladolid	5
evenements	5
rechte	5
voit	5
gemeinde	5
sier@@	5
reduit	5
loa	5
westlife	5
proz@@	5
nk	5
onte	5
literatura	5
corum	5
goc	5
nyo@@	5
255@@	5
kilom@@	5
ales@@	5
ryth@@	5
isit@@	5
tomor@@	5
iyu	5
bother	5
poti	5
esit@@	5
condi@@	5
isch-@@	5
publik@@	5
hnen@@	5
rennen	5
torino	5
innsbruck	5
nha	5
vos	5
yok@@	5
empl@@	5
9.	5
liches	5
kilimanjaro	5
akari	5
iha	5
ady	5
1590	5
testam@@	5
sprache	5
mischen	5
gebaude	5
pide	5
fuhr@@	5
1.9@@	5
eji	5
istique	5
cours	5
aitre	5
galax@@	5
fabrica	5
ruta	5
asam@@	5
4,5	5
asko@@	5
juni	5
rium	5
tiv	5
inici@@	5
kek@@	5
kadar	5
demokr@@	5
blei@@	5
romanos	5
yugoslav@@	5
hac	5
noms	5
gina	5
imler	5
wiener	5
benz	5
sek	5
chansons	5
atoire	5
elab@@	5
tale@@	5
uka@@	5
kem	5
ewa	5
giac	5
soko	5
odi	5
fergus@@	5
mazo@@	5
gele@@	5
lamu	5
zes@@	5
sala@@	5
diye	5
kanda	5
beste	5
achten	5
erbe	5
geschlecht	5
entar@@	5
erd@@	5
corrientes	5
artista	5
rues	5
tru	5
tida	5
guay@@	5
gt	5
armas	5
gri	5
kuu	5
cep	5
vya	5
septen@@	5
lada	5
terren@@	5
padre	5
sehr@@	5
bandas	5
apres	5
fener@@	5
zani	5
ulis@@	5
klor@@	5
litt	5
2017-18	5
tois	5
piedra	5
1702	5
2532	5
edonia	5
nung	5
cik	5
carreras	5
wim@@	5
chino	5
tney	5
salamanca	5
mayores	5
kazan	5
feh@@	5
escuelas	5
kump@@	5
kuku@@	5
armon@@	5
batal@@	5
aband@@	5
abbaye	5
stuttgar@@	5
turqu@@	5
enfant	5
rois	5
frut@@	5
soc@@	5
sua	5
drian	5
bomba	5
whisper	5
ivre	5
phylla	5
pendant	5
distas	5
tamb@@	5
dhana	5
isees	5
kalan	5
kulu	5
bil	5
siva	5
hello	5
sasa	5
atore	5
ferdin@@	5
avu	5
bleu	5
batalla	5
militarischen	5
reiche	5
alie	5
nachrich@@	5
elest@@	5
erina	5
lehn@@	5
verac@@	5
xix	5
risque	5
macer@@	5
iant	5
endes	5
deutschland	5
kenne@@	5
renac@@	5
siones	5
kurz	5
krimin@@	5
nationales	5
dov@@	5
sicherheit	5
metros	5
bernar@@	5
zentrum	5
stech@@	5
duque	5
mogol@@	5
juridi@@	5
apok@@	5
ludwig@@	5
dag	5
uz	5
apata	5
mea	5
politik	5
amor	5
humana	5
onu	5
secreto	5
aseg@@	4
007@@	4
bord	4
singap@@	4
universitaten	4
feste	4
nombre	4
kio	4
oute	4
dulce	4
deven@@	4
concours	4
tadores	4
most@@	4
deren	4
vient	4
6-1	4
dese@@	4
507	4
wanga	4
apelli@@	4
nef	4
interieur	4
map@@	4
whisper@@	4
segu@@	4
italiano	4
celle	4
dick@@	4
wahili	4
protag@@	4
etap@@	4
tubingen	4
ielle	4
geist	4
vivre	4
isti	4
gipfel	4
usch@@	4
dendro@@	4
haup@@	4
1,5	4
avenir	4
asma	4
igos	4
piste	4
mots	4
umet@@	4
esco	4
alya	4
schluss	4
ruz	4
wasi	4
dique	4
schut@@	4
wiesen	4
publics	4
ioni	4
2009-@@	4
mutter	4
kok	4
nga	4
aison	4
evine	4
loves	4
ministre	4
mbo@@	4
kk@@	4
nightmare	4
civile	4
waka	4
chp	4
origine	4
gestalt	4
senor	4
rurales	4
developpement	4
pano	4
aner@@	4
sf@@	4
leri	4
leitung	4
felder	4
anze	4
1622	4
halbinsel	4
biz	4
parma	4
quier@@	4
pau	4
mexicana	4
regis@@	4
yus@@	4
eko	4
notables	4
ikis@@	4
blatt	4
kuran	4
limous@@	4
2499	4
reak@@	4
vina	4
ccm	4
cuarto	4
estadist@@	4
azia	4
cristo	4
comand@@	4
espe@@	4
eden@@	4
grecia	4
kost@@	4
sefer@@	4
alem	4
grafia	4
raum	4
quim@@	4
lebens@@	4
enin	4
chryso@@	4
klav@@	4
fras@@	4
antalya	4
rett@@	4
erson	4
parle	4
ambia	4
wagen	4
brun	4
antage	4
wana@@	4
nazo	4
rov@@	4
izi@@	4
lige	4
hurry	4
onie	4
chlo@@	4
halt@@	4
armees	4
teh@@	4
ocamp@@	4
stab	4
ipes	4
zus@@	4
gesund@@	4
eser@@	4
vile	4
zili@@	4
kare	4
casco	4
glis@@	4
eten	4
lina	4
commande	4
lui	4
daron	4
i-	4
groupe	4
wohl	4
servir	4
katherine	4
ulatus	4
phis	4
hacien@@	4
sober@@	4
avanz@@	4
ilir@@	4
derecho	4
msa@@	4
guillermo	4
igi	4
ivas	4
waffen@@	4
estudios	4
tug@@	4
proceso	4
poder	4
idades	4
quien	4
ik-@@	4
osterreich	4
garn@@	4
ghan@@	4
carpa	4
deportes	4
ancia	4
memoria	4
premio	4
eba	4
bosques	4
cena	4
glance	4
ases@@	4
asist@@	4
karik@@	4
akano	4
siglo	4
espanola	4
hiper@@	4
sig	4
thieu	4
heidelberg	4
1960-@@	4
almac@@	4
comme	4
soit	4
ainsi	4
accepte	4
sujets	4
geti@@	4
saint-pierre	4
liger	4
antil@@	4
fior@@	4
komis@@	4
dost@@	4
ppel	4
fabr@@	4
hierro	4
galeria	4
ailes	4
reseaux	4
hopit@@	4
publique	4
evre	4
agence	4
odes	4
normale	4
etablissements	4
christophe	4
stros	4
nelle	4
italiens	4
presse	4
d8	4
parlem@@	4
entaire	4
elos	4
sinn@@	4
regional@@	4
segur@@	4
verbande	4
odacty@@	4
irak@@	4
victoires	4
opita	4
resse	4
madal@@	4
baul@@	4
vallee	4
meur@@	4
peinture	4
chevalier	4
fontaine	4
rette	4
lumiere	4
ateurs	4
zidi	4
anglaise	4
anglais	4
riche	4
ile-@@	4
somme	4
kont@@	4
estos	4
dite	4
alier	4
onge@@	4
uret@@	4
2010-2011	4
dawa	4
compositor	4
finanz@@	4
arbeits@@	4
your@@	4
suren	4
demir@@	4
gung	4
bam	4
coche	4
arroyo	4
gratu@@	4
seit@@	4
guerras	4
eja	4
doma	4
stres	4
travers	4
nunca	4
mais	4
socialista	4
espanol	4
ecr@@	4
rez	4
mui	4
geri	4
burundi	4
karls@@	4
innen@@	4
tements	4
stellungen	4
kua	4
amie	4
suya	4
keit@@	4
lugares	4
einzel@@	4
cken	4
marguer@@	4
jazz@@	4
etten	4
pfe@@	4
jugend@@	4
gelen@@	4
linie	4
kubwa	4
dua	4
sho	4
1-	4
empe@@	4
ancon	4
lied@@	4
thail@@	4
yahudi	4
sg	4
relles	4
quem@@	4
einsatz@@	4
ouest	4
nement	4
karlsruhe	4
catholique	4
silber@@	4
nham	4
estados	4
euphor@@	4
phyll@@	4
schwan@@	4
wissenschaftlichen	4
sieu	4
antigua	4
terie	4
yelled	4
muon	4
esc@@	4
liens	4
sili	4
pista	4
frau	4
501	4
kette	4
e9	4
allant	4
klar	4
luxem@@	4
dige	4
goren@@	4
jer	4
yum	4
arbres	4
tarde	4
lanz@@	4
pham	4
matth@@	4
doul@@	4
romains	4
bw	4
azim@@	4
etranger	4
magdalena	4
6-	4
erin@@	4
bezir@@	4
heren	4
plom@@	4
spren@@	4
126@@	4
-ball	4
cinq	4
7-5	4
hipo@@	4
circun@@	4
marzo	4
comercial	4
mento	4
juli@@	4
ferrocarril	4
compania	4
treinta	4
franz@@	4
lago	4
mister	4
hauses	4
britanico	4
iri@@	4
vena	4
aller	4
japon@@	4
ghi	4
corazon	4
disp@@	4
adio	4
vize	4
sauf	4
enfr@@	4
choc	4
gne	4
achen	4
comis@@	4
villan@@	4
chum	4
uen@@	4
llama	3
ivo	3
bibliothek	3
osaur@@	3
rong	3
ndi@@	3
ekt	3
continua	3
oshi	3
abstand	3
baum@@	3
gie@@	3
medias	3
wende	3
achim	3
obispo	3
opa	3
eko@@	3
kuti@@	3
marin	3
diger	3
alvarez	3
venez@@	3
08.@@	3
maximal	3
alizacion	3
thanh	3
troi	3
rist	3
romaine	3
schwein@@	3
grunen	3
cen	3
natalie	3
aidi	3
bataille	3
reyn@@	3
tiens	3
nte	3
quat	3
fraktion	3
demokrat@@	3
partei	3
junge	3
liste	3
trat	3
kirchen@@	3
zanzibar	3
kimi	3
poz@@	3
curled	3
duka	3
yek@@	3
oko@@	3
grup@@	3
causa	3
vre	3
yeu	3
aux-@@	3
bauern@@	3
schuss	3
0,1	3
manis@@	3
direktor	3
regionales	3
ciz@@	3
adjoint	3
gigg@@	3
richt@@	3
waffen	3
scin@@	3
doro@@	3
menschen	3
moyen@@	3
bains	3
masha@@	3
unam@@	3
inam@@	3
anen	3
conna@@	3
erden	3
toren	3
wert	3
sts-@@	3
wegen	3
ulas@@	3
schnit@@	3
beit@@	3
wieder@@	3
londres	3
cour	3
tey@@	3
assen	3
entscheid@@	3
aar@@	3
montgom@@	3
medio	3
verwal@@	3
suede	3
ukraina	3
literatur@@	3
mole@@	3
faz	3
stamm	3
tenham	3
dano	3
fiz@@	3
terek	3
educacion	3
eit@@	3
zana	3
zika	3
koti	3
amia	3
bbi	3
wled	3
acent@@	3
kle	3
ambu@@	3
bk	3
cristobal	3
anzas	3
durant	3
puntos	3
parta	3
381	3
saz@@	3
khol@@	3
deria	3
finn	3
quarti@@	3
meden	3
efa	3
1.	3
tay	3
uzulu	3
wayo	3
onidae	3
comerciales	3
emann	3
kocaeli	3
essay@@	3
licked	3
marcha	3
acab@@	3
iales	3
curso	3
recompen@@	3
revolucion@@	3
mois	3
gam	3
1632	3
familiares	3
nong	3
aute	3
pler@@	3
mede	3
pios	3
macedo@@	3
akti@@	3
capa	3
noticias	3
freguesia	3
demi	3
pell@@	3
ruck@@	3
galak@@	3
imos	3
saint-jean-@@	3
shugh@@	3
hoa	3
udi	3
drive@@	3
combate	3
recursos	3
dernier	3
eux-@@	3
ologicos	3
kiye	3
sibles	3
medicina	3
ologia	3
cinco	3
atique	3
uom	3
ilya	3
attaques	3
couleurs	3
pein@@	3
lir	3
mittlere	3
sekun@@	3
teil@@	3
laus@@	3
asily	3
deri	3
travail	3
tren	3
immeub@@	3
communaute	3
sinan	3
partisi	3
bene	3
erem@@	3
utilisation	3
oficial	3
memes	3
dair	3
volker@@	3
kultur@@	3
503	3
seh@@	3
diaceae	3
atac@@	3
atif	3
contrain@@	3
salto	3
mercedes	3
ufa	3
desde	3
naciones	3
instituts	3
unidas	3
mch@@	3
castellano	3
beruf@@	3
biblioteca	3
leip@@	3
taa	3
rak	3
cau	3
etin	3
fuerte	3
2012-@@	3
direccion	3
kil	3
humain	3
indica	3
ngan	3
tous	3
atlet@@	3
yed@@	3
siempre	3
montes	2
avion	2
empresa	2
estand@@	2
osas	2
coloc@@	2
lengo	2
carril	2
barco	2
kasab@@	2
visibles	2
akawa	2
arca	2
pistas	2
cdu	2
majani	2
therine	2
830	2
oran@@	2
sabah	2
wagen@@	2
licenci@@	2
gress	2
pelic@@	2
semana	2
planeta	2
gobi@@	2
kunste	2
hallway	2
klin@@	2
cami	2
arpa	2
tand@@	2
abdallah	1
vitesse	1
acci@@	1
roose@@	1
vey@@	1
saa	1
pote@@	1
vus	1
soziale	1
alisee	1
wirtschaft	1
zucker@@	1
kunst	1
verwaltung	1
gestaltung	1
performan@@	1
arbeit	1
sische	1
