，	490776
的	459260
。	216511
是	184059
,	165867
、	154770
.	120697
一	98614
：	96063
年	90780
在	90488
>	86300
<@@	84179
了	74394
》	72574
《	72451
“	70971
”	69931
有	68878
人	65572
为	64522
和	60135
不	59166
（	53924
）	53624
中	46186
上	45740
个	43411
之	41214
最	41119
大	40351
第	37935
国	37708
-	36119
中国	35507
月	35148
于	31943
他	30856
日	30152
一@@	29647
就	27097
；	26375
子	26088
大@@	25510
世界	24002
与	23928
我	23701
称	23043
地	22244
会	22098
时	22015
名	21943
这	21732
到	20683
后	20631
家	20483
而	20200
(	20107
都	20067
)	20002
山	19975
也	19747
被	19723
市	19456
以	19410
等	18437
答	18083
下	17832
省	17763
出	16998
王	16653
来	16500
三@@	16214
说	16130
多	15937
1	15827
用	15594
对	15449
体	15166
天@@	15137
天	14882
生	14854
又	14332
部	13950
前	13745
种	13738
高	13662
所	13382
:	13332
无	13220
次	13210
明	13171
水	13129
2	13072
·	13035
能	12845
小	12756
里	12743
小@@	12729
由	12654
中@@	12546
长	12432
其	12368
成	12354
将	12316
从	12306
．	12287
者	12196
区	12175
州	12108
你	11991
代	11972
号	11876
它	11833
位	11767
李	11704
着	11634
张	11627
并	11583
国家	11495
三	11444
城	11438
3	11412
诗@@	11245
——	11216
分	11155
西@@	11129
书	10937
力	10922
长@@	10919
文	10889
起	10817
性	10796
东@@	10642
没	10634
人@@	10569
发@@	10446
花	10388
得	10348
但	10305
要	10272
作	10257
高@@	10248
二	10203
点	10196
"	10086
军	10043
河	10017
好	10005
新	10001
林	9939
也@@	9923
级	9923
国@@	9907
历史	9904
县	9869
本	9862
面	9838
水@@	9633
海	9465
法	9458
度	9426
南@@	9390
方	9324
可以	9283
主要	9253
把	9233
节	9232
情	9228
4	9212
剧	9159
海@@	9149
美国	9148
地@@	8982
过	8974
叫	8974
原	8955
写	8941
色	8936
气	8927
！	8898
多@@	8890
女	8827
5	8756
星	8643
两@@	8543
尔	8504
族	8463
刘	8408
心	8355
歌	8353
米	8347
诗	8320
马	8303
同	8266
阳	8199
周	8194
线	8150
斯	8125
北@@	8092
出@@	8090
字	8087
或	8081
曲	8041
化	8039
两	8020
如	7986
动	7960
开@@	7952
成为	7871
位于	7860
爱	7858
平@@	7850
道	7838
名@@	7793
可	7785
南	7784
首	7755
汉	7748
江	7729
饰	7657
传	7614
数	7607
黄@@	7594
话	7593
所以	7592
头	7587
经	7567
著名	7528
使	7524
制	7508
指	7478
四	7460
学	7435
万	7432
10	7418
马@@	7395
人民	7337
实	7319
处	7314
球	7272
物	7257
门	7251
6	7223
内	7164
上@@	7154
间	7127
五@@	7122
去	7088
语	7083
四@@	7041
代表	7035
金	7024
自	7021
至	7014
达	7013
老@@	6991
安	6977
作者	6934
/	6917
机	6910
量	6890
自己	6867
金@@	6866
城市	6832
场	6829
白	6796
西	6785
年@@	6782
记	6729
新@@	6727
入	6701
约	6691
光	6686
7	6650
成@@	6605
东	6605
还	6572
行	6571
给	6561
生@@	6560
今	6557
山@@	6519
地区	6516
美@@	6498
白@@	6496
开始	6496
主@@	6493
手	6486
很	6455
自@@	6449
定	6441
北京	6434
运动	6405
奥@@	6381
即	6378
8	6363
运	6363
及	6329
元	6328
神@@	6328
史	6324
朝	6310
她	6306
战@@	6285
尔@@	6267
相@@	6264
美	6258
此	6253
向	6248
风	6247
因为	6223
文@@	6195
则	6159
外	6159
关	6154
词	6142
唐	6140
事	6114
风@@	6108
士	6104
爱@@	6095
这个	6085
英国	6077
公元	6034
发展	6006
陈	5991
宋	5990
百@@	5968
时间	5949
明@@	5927
曾	5922
全@@	5876
意	5870
特	5868
师	5866
分@@	5854
看	5846
国际	5836
皇帝	5832
古	5831
世	5805
后@@	5784
早	5777
届	5762
岁	5759
战	5759
已	5743
时期	5717
电@@	5707
12	5707
孙	5691
队	5671
当	5664
公@@	5662
作品	5653
小说	5653
龙	5649
公司	5643
见	5639
杯	5631
日@@	5627
带	5612
公里	5612
传@@	5602
太@@	5597
民族	5595
拉@@	5593
特@@	5592
内@@	5587
原@@	5562
春@@	5560
像	5558
德	5535
路	5520
演	5492
因	5491
质	5466
日本	5465
唱	5437
宗	5435
流@@	5430
世纪	5424
体@@	5420
期	5412
面积	5406
帝	5394
器	5392
石	5392
可@@	5374
类	5368
古@@	5358
罗	5348
神	5348
发	5346
湖	5331
二@@	5331
产	5326
法国	5324
外@@	5320
?	5317
然	5315
座	5278
才	5272
集	5244
重	5243
华	5236
9	5232
比	5225
加@@	5219
利	5191
清@@	5178
画	5177
总	5157
任	5152
五	5083
我们	5067
那	5055
正@@	5034
片	5032
更	5031
？	5018
青@@	5014
喜@@	5008
车	5001
篇	4984
文化	4984
义	4961
角	4942
句	4939
正	4936
克	4919
主义	4909
维@@	4909
气@@	4896
进	4893
岛	4884
文学	4869
极	4857
阿@@	4839
11	4828
还@@	4820
强	4811
提@@	4805
属于	4794
红@@	4791
十	4781
当时	4777
进行	4772
回@@	4771
生活	4751
言	4748
亚	4740
前@@	4736
手@@	4722
少	4722
公	4722
口	4713
对@@	4701
乐	4690
样	4670
清	4660
立	4638
全国	4624
让	4622
汉@@	4607
北	4606
身	4605
万@@	4603
兰	4600
古代	4578
安@@	4576
其中	4572
花@@	4559
部分	4555
心@@	4544
秦	4542
故	4535
条	4531
华@@	4528
重要	4522
当@@	4517
官	4503
而@@	4497
里@@	4495
别	4482
元@@	4475
权	4475
共	4466
出生	4456
主	4455
经济	4451
—	4442
什么	4436
电影	4430
千@@	4403
现在	4400
台	4398
他们	4396
】	4396
黄	4384
资@@	4381
拉	4366
下@@	4366
…	4364
红	4361
【	4353
20	4346
克@@	4336
火@@	4335
建	4312
员	4311
其@@	4292
想	4273
婚	4268
革命	4259
首@@	4256
曹	4252
形	4243
感@@	4236
相	4233
流	4229
应	4225
由于	4222
中心	4217
属	4212
杨	4203
武@@	4203
－	4197
战争	4189
赛	4189
电视	4183
只	4179
奖	4175
光@@	4171
社会	4162
音	4162
人物	4161
德@@	4143
创@@	4134
现@@	4132
通过	4120
因此	4119
亚@@	4114
交@@	4107
一般	4105
人们	4104
平	4102
深@@	4100
这@@	4091
视	4088
作为	4086
业	4058
峰	4046
知	4045
全	4045
远	4042
政治	4040
理	4036
死	4025
民	4021
叶	4016
巴@@	4007
声	3992
身@@	3980
赵	3977
式	3975
界	3974
合@@	3964
音乐	3960
料	3956
细胞	3943
受	3938
如果	3937
温@@	3933
型	3933
秋	3933
却	3929
春	3927
乐@@	3918
段	3911
世@@	3903
八@@	3901
吴	3901
进@@	3900
几	3898
边	3895
开	3887
做	3864
星@@	3860
派	3856
图	3853
故事	3853
就@@	3842
唐@@	3841
宫	3836
毛	3836
作用	3834
情@@	3831
民@@	3821
为@@	3817
组织	3812
大学	3806
好@@	3804
变	3802
景	3764
格	3760
论	3757
但是	3756
儿	3751
亮	3748
获得	3744
纳	3738
欧洲	3733
法@@	3731
=	3727
品	3722
合	3722
艺术	3718
管	3706
使用	3703
科学	3694
女@@	3689
初	3688
具有	3674
夫	3674
出现	3674
项	3673
变@@	3672
该	3667
认为	3666
政府	3664
宁	3657
七	3646
演员	3643
血@@	3623
真	3619
动@@	3614
军@@	3613
便	3612
空	3598
楼	3591
打@@	3588
后来	3588
在@@	3585
石@@	3583
洲	3583
影响	3576
志	3574
观	3567
那@@	3561
~	3561
总@@	3560
造	3558
加	3554
重@@	3537
再	3535
形成	3535
历	3535
游	3526
丽	3520
识	3517
案	3509
十@@	3504
云	3502
格@@	3491
镇	3490
尼@@	3489
罗@@	3487
各	3474
思想	3470
学@@	3470
教	3468
祖	3465
时候	3462
取	3457
同@@	3430
不@@	3422
居	3417
时@@	3416
经@@	3407
园	3404
最后	3402
先	3393
写@@	3387
史@@	3384
饰@@	3377
王@@	3368
乡	3361
精@@	3350
九@@	3350
层	3342
已经	3337
地球	3335
冠军	3335
誉	3334
还有	3325
书@@	3324
系	3321
中华	3321
土	3321
地方	3320
强@@	3317
布	3317
德国	3315
根据	3306
同时	3302
时代	3302
政	3295
台湾	3293
为了	3292
酒	3283
鲁	3282
欢	3273
发现	3272
游@@	3271
六@@	3264
非	3262
工	3259
奇	3256
以及	3256
以@@	3254
斯@@	3252
自然	3251
酸	3248
圣@@	3248
布@@	3244
胜	3243
歌@@	3239
果	3229
之间	3226
上海	3224
热@@	3210
树	3205
家@@	3204
建立	3201
越	3201
动物	3200
周@@	3195
月@@	3186
包括	3181
通@@	3179
香港	3178
火	3173
兴	3167
诸@@	3167
苏@@	3165
现	3153
选	3150
中央	3143
六	3133
人口	3133
源	3129
思	3122
太阳	3119
兵	3116
典	3115
创作	3108
称@@	3087
苏	3086
事@@	3086
久	3079
这种	3076
籍	3074
目	3069
产生	3066
!	3066
推@@	3065
通	3055
千	3043
液	3042
雨	3041
真@@	3040
信	3038
回	3036
少@@	3034
现代	3034
这样	3033
断	3033
之后	3028
宝@@	3025
景@@	3017
正式	3017
治	3016
易	3013
转@@	3008
各@@	3007
研究	2995
英	2989
反@@	2985
15	2982
生产	2977
举行	2974
望	2970
象	2963
木	2962
仅	2960
空@@	2951
首都	2944
其他	2941
优@@	2940
打	2938
夜	2935
吉@@	2933
只有	2926
征	2922
局	2922
发生	2921
活动	2918
陆	2918
皇	2916
很@@	2910
行@@	2906
放@@	2904
面@@	2902
本@@	2902
桥	2902
知道	2900
说@@	2898
著	2892
考@@	2887
飞	2881
消@@	2873
据	2861
洋	2860
演@@	2857
共和	2850
个人	2850
七@@	2848
省@@	2847
江@@	2846
艺	2843
雪	2829
陵	2827
[	2824
落	2821
奇@@	2819
节@@	2819
余	2819
建@@	2817
深	2817
植物	2816
武	2816
封@@	2815
]	2813
略	2812
势	2810
哈@@	2806
证	2803
科	2801
们	2801
步	2798
实@@	2788
印度	2788
版	2787
道@@	2782
田	2774
计	2774
韩	2774
直@@	2773
满	2771
性@@	2770
利@@	2766
看@@	2763
从@@	2762
30	2761
简称	2759
表	2758
连	2757
鱼	2753
氏	2752
问	2752
成立	2750
底	2750
素	2749
农@@	2748
徐	2746
问题	2745
龙@@	2737
一些	2736
表示	2735
老	2734
历@@	2734
波@@	2734
秀	2728
击	2727
足球	2724
黑@@	2723
八	2719
过@@	2712
男	2712
～	2710
杜	2709
应该	2706
确	2705
初@@	2701
作家	2697
保@@	2696
歌曲	2689
四川	2688
定@@	2686
杰@@	2683
别@@	2680
始@@	2677
秦@@	2675
圣	2673
占	2662
工作	2661
而且	2659
组成	2654
比@@	2653
常	2651
长江	2651
参加	2651
独@@	2650
飞@@	2649
人类	2646
祖@@	2646
复@@	2645
浙江	2641
%	2641
18	2640
解	2637
科@@	2635
兰@@	2633
封	2630
故@@	2622
团	2621
太	2621
九	2620
夏	2620
感	2618
院	2617
热	2615
味	2613
剧@@	2613
盛@@	2609
调	2602
吃	2598
13	2597
丹	2588
商	2586
难	2583
子@@	2580
得@@	2579
教@@	2579
草	2575
近	2572
联	2572
亚洲	2572
富	2572
京	2568
物质	2568
年代	2567
操	2565
宝	2562
根	2561
乌@@	2560
木@@	2560
请	2556
众	2553
这些	2552
泰@@	2552
玉	2549
比赛	2547
君	2544
程	2542
联合	2541
端	2540
专@@	2539
等@@	2537
许多	2534
梦	2534
单@@	2525
丰@@	2525
备	2518
塔	2518
洛@@	2518
进入	2514
河南	2513
很多	2511
声@@	2508
射	2507
简@@	2502
香	2500
意大利	2500
19	2498
表现	2488
终@@	2486
朱	2483
广@@	2482
威@@	2481
题	2476
运@@	2475
选@@	2474
旗	2472
16	2470
率	2467
卡@@	2464
孔	2461
以后	2460
富@@	2460
章	2459
居@@	2458
术	2457
存	2455
快	2453
冰@@	2449
琴	2448
走	2446
沙@@	2446
态	2444
名字	2437
观@@	2435
达@@	2435
村	2433
病	2430
伟@@	2429
成功	2429
朝@@	2427
府	2423
经过	2418
温	2418
梁	2411
图@@	2408
关系	2406
比较	2405
和@@	2403
每	2402
杀	2402
基	2402
大陆	2401
收@@	2397
用@@	2397
魏	2393
副	2381
刻	2379
照	2373
算	2372
若	2368
山东	2367
卡	2364
脉	2364
电	2363
技术	2362
血	2362
起来	2359
半	2358
范	2356
离	2354
基本	2349
藏	2348
峡	2345
羽	2337
建筑	2337
依@@	2333
编@@	2333
养	2328
何	2327
画@@	2327
船	2327
关@@	2323
所@@	2323
阶@@	2320
永@@	2319
统一	2317
连@@	2317
亲@@	2317
站	2310
录	2310
除	2302
登@@	2302
向@@	2301
块	2295
贵@@	2295
作@@	2294
_	2294
吧	2293
半@@	2290
种@@	2290
令	2285
尼	2285
商@@	2282
干	2281
顿	2280
佳	2276
菜	2273
岳	2273
季	2271
7@@	2270
参@@	2266
传统	2263
李@@	2263
会@@	2260
伦	2258
可能	2256
食	2254
齐	2253
谁	2252
男@@	2250
昌	2250
领	2250
装	2244
系统	2242
干@@	2241
保护	2239
14	2239
一定	2236
一直	2236
父	2236
统治	2236
起@@	2233
放	2229
目前	2228
命	2222
兴@@	2222
百	2221
室	2221
谢	2220
教育	2217
非常	2209
舞	2205
网	2200
馆	2195
河@@	2195
剑	2192
名称	2181
贵	2180
丁	2179
骨	2177
广东	2173
需要	2171
双@@	2171
死@@	2164
眼@@	2163
转	2163
核	2162
草@@	2162
鸟	2160
烈	2159
卫	2155
遗@@	2152
晋	2151
会议	2150
服	2145
想@@	2143
才@@	2143
极@@	2141
先生	2140
工@@	2139
母	2137
;	2136
自治	2130
远@@	2128
满@@	2123
江苏	2120
父亲	2120
米@@	2118
答@@	2116
设计	2115
5@@	2115
岸	2114
演唱	2113
鲁@@	2111
读	2110
25	2110
气候	2109
广	2108
笔	2106
记载	2099
航@@	2098
6@@	2098
结	2097
二十@@	2096
主角	2096
唐朝	2094
邮@@	2091
象@@	2090
湖南	2089
载	2087
普@@	2084
始	2083
韩国	2081
歌手	2080
出来	2075
松	2072
啊	2072
司@@	2071
福	2069
不过	2068
东北	2067
中文	2066
军事	2064
知@@	2061
低	2060
所有	2060
工业	2058
17	2058
述	2057
方@@	2056
波	2056
这里	2054
21	2054
分别	2054
美洲	2053
务	2053
玉@@	2051
卫@@	2050
觉	2048
单位	2047
诺@@	2046
表@@	2046
头@@	2044
许	2044
接	2041
过程	2041
状	2040
南京	2038
夏@@	2037
铁	2037
维	2034
决定	2032
制@@	2032
葛	2030
哥	2029
方面	2027
接@@	2027
意@@	2026
描@@	2025
害	2021
友	2019
兵@@	2016
儿子	2015
牛	2015
呢	2012
环境	2010
先@@	2008
肉	2006
雅@@	2006
指@@	2004
语言	2000
改	1998
虽然	1994
24	1992
导	1989
庆	1988
介@@	1983
内容	1981
英雄	1981
特别	1980
沙	1979
留	1978
轻	1978
意思	1978
学家	1977
胡	1976
制度	1974
房	1974
报	1973
扮演	1973
规定	1972
绿@@	1972
立@@	1972
彩	1972
具	1970
标志	1969
未	1966
离@@	1965
列	1964
物@@	1961
50	1957
虎	1954
英@@	1952
0	1952
楚	1949
影	1949
英文	1947
结构	1941
以上	1940
巴西	1939
听	1938
原名	1936
巴	1936
眼	1935
察	1935
领导	1930
卷	1930
壁	1927
么	1925
色@@	1925
100	1923
丝	1921
律	1920
良	1915
索	1914
题@@	1909
币	1901
川	1898
青	1897
另	1893
充@@	1892
羊	1891
皮	1887
校	1886
银行	1886
珠	1886
雷@@	1885
湖北	1885
排@@	1882
费	1881
仙	1880
迹	1878
生物	1878
汽车	1872
劳@@	1871
学院	1870
激@@	1870
举	1869
亡	1867
黑	1860
得到	1860
郑	1860
侯	1858
°	1858
口@@	1857
尽	1857
脑	1857
圆@@	1853
工程	1851
泉	1849
导演	1848
铁@@	1847
常@@	1847
份	1847
变化	1846
杰	1846
品牌	1846
末	1845
坚@@	1844
基础	1838
结@@	1835
化学	1834
精神	1830
票	1829
庄	1827
堂	1824
获	1824
无@@	1819
读@@	1817
博@@	1816
客	1816
门@@	1816
苦	1816
住	1815
虫	1815
宋@@	1813
列@@	1810
求	1809
各种	1806
代@@	1806
戏@@	1805
板	1803
只是	1802
郭	1802
龄	1801
佛	1801
2008	1800
纪念	1799
注@@	1799
非洲	1797
姓	1796
安徽	1791
绍	1788
斗	1783
欧@@	1783
入@@	1782
认@@	1780
谓	1779
颗	1778
足	1778
难@@	1777
介	1777
临@@	1776
贝@@	1771
笑	1771
智@@	1770
机@@	1767
散@@	1766
宣@@	1765
看到	1764
孟	1762
纳@@	1760
按	1758
争	1757
希腊	1754
旅游	1753
左右	1751
平原	1749
试	1749
钱	1749
巴黎	1748
细	1748
阳@@	1747
环	1745
传说	1745
都@@	1744
绝	1741
壮@@	1741
形象	1739
碳	1731
情况	1731
党	1728
欧	1727
梅	1726
于是	1726
采@@	1725
香@@	1723
秋@@	1721
油	1719
主席	1718
完成	1717
独立	1716
皇@@	1716
西北	1716
创	1714
较	1714
哥@@	1713
考	1711
4@@	1711
较@@	1709
善	1708
件	1708
云南	1707
谷	1707
境	1706
刚	1706
俗	1704
短@@	1702
适@@	1690
茶	1686
甲@@	1686
此@@	1683
斗@@	1683
送	1682
网@@	1681
氧化@@	1681
均	1680
恩	1680
行政	1680
来@@	1679
师@@	1677
哪	1676
容	1676
灭	1674
精	1673
22	1672
败	1671
险	1670
归	1670
每年	1669
客@@	1666
郎	1666
育	1665
伊@@	1663
广州	1662
十二	1660
管理	1659
反应	1658
念	1658
边@@	1655
蒙古	1654
基@@	1654
关于	1652
压	1651
呼@@	1651
荣	1650
伯@@	1650
以来	1649
标	1649
领@@	1644
活@@	1643
群	1640
云@@	1638
尚	1638
方法	1637
办	1635
纪	1630
确@@	1629
帝国	1628
形式	1628
摩@@	1627
甘@@	1625
汉族	1625
大量	1625
柳	1624
意义	1621
寺	1621
分布	1620
23	1618
追@@	1618
存在	1618
往	1617
清朝	1617
围	1614
原因	1613
多年	1613
形@@	1613
引@@	1613
镜	1612
专辑	1611
雷	1611
自由	1610
西南	1609
反	1609
康	1609
班	1608
修@@	1608
印@@	1607
漫	1607
赤@@	1607
签@@	1604
南北	1602
千米	1601
28	1600
那么	1599
2@@	1598
复	1597
受@@	1597
10@@	1597
幕	1595
毕业	1594
含@@	1591
悲@@	1591
超@@	1590
条约	1590
俄罗斯	1589
职	1586
晚	1585
漫@@	1584
持	1582
临	1581
皮@@	1581
塞@@	1580
错	1579
昆@@	1579
蓝@@	1579
乱	1579
40	1578
实际	1578
官@@	1578
牙	1575
静	1575
举办	1574
智	1574
青年	1574
粉	1573
委员	1572
阿	1572
造@@	1571
路@@	1571
体育	1567
甲	1567
唯一	1566
+	1566
元素	1564
学生	1564
夜@@	1564
京@@	1563
化@@	1562
地位	1557
银@@	1557
牛@@	1555
灵	1555
差	1554
交	1554
伤	1553
位置	1552
告	1552
河北	1549
亿	1549
灵@@	1549
区@@	1548
球@@	1546
尾	1544
绝@@	1542
齐@@	1541
承@@	1541
陕西	1540
靠	1540
戏	1538
东南	1537
2000	1537
苏联	1536
侵@@	1535
序	1534
完@@	1533
童@@	1529
土@@	1527
果@@	1525
直	1524
顺@@	1524
巨@@	1523
叫做	1523
预@@	1522
材	1521
邦	1521
播	1520
换	1520
主题	1518
亦	1517
繁@@	1517
它们	1516
些	1514
圆	1513
每@@	1511
见@@	1511
或者	1510
丹@@	1510
主演	1509
登	1508
钟	1508
纪@@	1506
27	1505
林@@	1505
制造	1505
细@@	1503
莱@@	1503
祥	1502
烧	1502
城@@	1501
药	1501
支	1500
记@@	1499
颜@@	1499
联@@	1497
仪	1497
单	1497
营@@	1497
利用	1497
家庭	1496
紫@@	1496
沉@@	1496
信@@	1493
雪@@	1492
密@@	1491
朋友	1489
修	1488
藏@@	1486
晚@@	1486
辽@@	1485
受到	1485
2010	1482
笔@@	1482
冠	1481
张@@	1481
出版	1480
解放	1479
数@@	1478
并@@	1477
显@@	1476
思@@	1475
活	1474
含	1474
归@@	1472
然后	1472
女儿	1471
作曲	1469
越@@	1468
条件	1468
港	1466
结婚	1461
伟	1461
东西	1460
径	1459
海拔	1459
野	1457
直接	1457
弹	1453
季@@	1452
平均	1451
山西	1451
26	1451
罗马	1449
荷兰	1449
母亲	1448
觉@@	1447
曲@@	1446
设	1446
舰	1444
词@@	1444
车@@	1444
次@@	1443
衣	1442
姐	1441
小时	1440
守	1438
十分	1437
娘	1437
将@@	1436
希望	1436
江西	1434
至@@	1433
纸	1433
生命	1432
仙@@	1432
怀	1431
户	1431
生于	1431
60	1431
福@@	1430
圈	1429
既	1428
旧	1428
似	1427
迪@@	1426
糖	1426
勒	1426
迁	1425
雅	1424
微@@	1424
款	1424
溶@@	1422
异	1422
改@@	1421
志@@	1420
夺@@	1419
助	1417
带@@	1417
学习	1417
值	1416
采用	1415
约@@	1413
分子	1412
珍@@	1411
诞@@	1411
顾	1411
社	1411
发行	1410
超	1409
要求	1409
超过	1406
编	1405
酒@@	1404
兄弟	1403
怎@@	1399
烟	1399
来自	1398
迅	1397
方式	1397
甫	1397
顶	1397
盖	1396
雄@@	1393
系列	1393
0@@	1392
积@@	1392
点@@	1391
礼	1388
功	1388
陆@@	1387
相当	1386
听@@	1386
宫@@	1386
整@@	1385
刀	1384
产@@	1384
境内	1383
王朝	1383
太平洋	1383
应@@	1383
探@@	1382
功@@	1382
测	1380
如@@	1378
地理	1377
全球	1376
集团	1376
切	1375
制作	1374
源于	1374
麦	1372
拥有	1370
妹	1370
密	1364
落@@	1360
盛	1360
角色	1360
谋	1356
对于	1355
礼@@	1354
解@@	1348
尊	1345
完全	1344
大家	1343
国内	1343
待	1343
民主	1342
以前	1342
拜	1341
雨@@	1341
坛	1340
灯	1339
理@@	1338
蓝	1338
游戏	1338
起义	1337
论@@	1336
贤	1334
2014	1332
少年	1332
引起	1331
盘	1331
取@@	1331
报@@	1331
\	1330
西方	1327
成都	1325
身份	1325
能够	1325
左	1324
说法	1323
牌	1323
最终	1322
申@@	1320
萨@@	1319
足@@	1319
西部	1319
露	1318
福建	1318
期间	1318
积	1318
浪@@	1317
梅@@	1315
曰	1314
快@@	1314
旦	1314
功能	1313
结束	1312
场@@	1312
必须	1312
总统	1312
肃	1311
包	1311
共@@	1310
大会	1309
交通	1309
风格	1308
争@@	1308
厚	1308
至今	1305
袁	1305
士@@	1304
赛@@	1303
学校	1302
锦@@	1302
9@@	1302
贝尔	1301
吕	1301
留@@	1300
息	1300
架	1297
冷	1297
标准	1297
威	1296
合作	1296
蔡	1296
热带	1296
燕	1295
丽@@	1294
武帝	1292
独	1291
讲@@	1291
欢@@	1291
规模	1290
低@@	1290
速	1289
理论	1289
愿	1289
示	1289
控制	1288
钢@@	1287
增@@	1287
整个	1286
「	1285
随	1284
佛@@	1284
跟	1283
议	1282
俄@@	1282
邓	1280
29	1280
达到	1280
嘉@@	1279
县@@	1279
冰	1277
野@@	1277
随@@	1276
习@@	1276
猫	1275
企业	1273
文字	1272
相对	1272
西班牙	1271
」	1269
雄	1269
宇	1267
重庆	1266
肠	1264
臣	1264
玄@@	1263
怀@@	1263
文章	1262
处@@	1261
医@@	1261
杀@@	1261
红色	1260
日期	1258
止	1257
破@@	1257
降@@	1255
杭州	1254
全部	1254
塞	1254
湖@@	1252
90	1252
8@@	1251
价	1251
共同	1250
戴	1249
熟	1249
建设	1247
轮	1245
双	1245
射@@	1244
物理	1244
组	1244
病@@	1242
字@@	1242
素@@	1242
田@@	1242
查	1242
压@@	1238
锋	1238
萨	1238
<	1237
微	1237
伦@@	1237
更@@	1236
毒	1235
典@@	1235
仲	1234
将军	1234
娜	1234
速度	1229
现象	1228
反映	1228
影@@	1228
济@@	1227
能力	1227
北部	1226
亲	1226
液@@	1225
产品	1225
品@@	1224
楚@@	1224
恩@@	1223
缘	1222
短	1222
隆	1221
首先	1221
公主	1221
被@@	1221
半岛	1220
*	1220
几@@	1219
电子	1218
今天	1217
原子	1217
近代	1217
编辑	1216
举@@	1215
主持	1214
塔@@	1214
婆	1212
表演	1211
舟	1211
氧	1210
食物	1210
鲜@@	1209
梦@@	1209
姓@@	1208
陶	1208
距	1207
曼	1207
义@@	1206
升	1206
展	1206
共产党	1206
调@@	1206
夫@@	1205
走@@	1205
蛋白	1205
做@@	1204
冲	1204
盐	1204
试@@	1203
验	1203
改革	1202
铜	1200
伯	1197
晓	1197
成就	1195
穿	1195
发表	1193
天文	1192
结果	1192
群@@	1191
失@@	1190
大战	1190
破	1189
佛教	1189
限	1189
网络	1189
宽	1189
莫@@	1189
枪	1189
护	1186
赞@@	1186
终	1185
队@@	1184
找	1184
集@@	1183
绿	1183
通常	1183
托	1181
览	1181
仁	1180
甚至	1180
结合	1179
池	1177
先后	1177
致	1176
防@@	1176
巨大	1176
酸@@	1175
土地	1175
折	1174
2009	1174
伦敦	1174
伤@@	1172
荣@@	1172
政@@	1172
呼	1172
你@@	1171
洪	1170
闻	1170
湾	1170
拿@@	1168
讲	1168
异@@	1167
并且	1167
鸡	1166
’	1165
吸收	1165
逐渐	1165
计划	1164
孩子	1164
分析	1164
实验	1163
侠	1160
著作	1160
选择	1159
崇@@	1159
套	1157
音@@	1157
儒@@	1156
方向	1156
宁@@	1155
抗@@	1155
真正	1154
女子	1154
域	1153
事件	1153
博	1153
已@@	1152
扬	1152
收	1152
决@@	1150
买	1148
力量	1147
豆	1146
战役	1146
尊@@	1146
且	1146
协@@	1145
70	1143
取得	1143
距离	1143
枚	1142
冬@@	1142
假	1142
部@@	1142
侧	1142
奏	1141
军队	1140
南部	1139
希@@	1139
施	1138
构成	1138
舍	1137
提供	1136
莫	1134
漠	1133
闻@@	1132
职业	1132
早@@	1132
喜	1132
200	1132
址	1131
批	1131
西安	1129
大约	1128
吗	1127
曾经	1127
和平	1127
除了	1127
加入	1125
具体	1125
认	1123
今@@	1121
以下	1121
来说	1121
借	1121
勇	1121
‘	1121
鱼@@	1118
送@@	1118
码	1117
洞	1117
坐	1117
严@@	1117
指挥	1116
危@@	1113
秀@@	1113
3@@	1113
弱	1112
流行	1111
胜利	1111
宗教	1111
轻@@	1111
赏	1110
奥	1110
铁路	1108
农	1108
一切	1108
趣	1107
洁	1105
药@@	1105
贾	1105
执@@	1105
幸@@	1104
力@@	1104
树@@	1102
机构	1102
广泛	1102
2006	1101
成员	1101
吸	1100
2007	1100
到@@	1099
银	1098
呈	1098
十五	1098
航	1097
明朝	1097
项目	1095
特色	1095
爆发	1095
误	1095
固	1095
托@@	1094
器@@	1093
确定	1093
扩@@	1092
经历	1092
质量	1092
含有	1092
亭	1090
泽	1090
市场	1090
姆	1089
信息	1089
店	1089
澳大利亚	1089
骨@@	1088
岁@@	1088
继	1087
附近	1087
庭	1087
任何	1086
译	1086
阿拉伯	1086
蒸@@	1086
宣布	1085
为主	1084
珠@@	1084
鹿	1084
延@@	1083
仅@@	1082
岛@@	1081
新疆	1080
泽东	1080
补@@	1080
包@@	1079
支@@	1079
浒	1079
另外	1076
惊@@	1074
实现	1074
必	1072
号@@	1068
奖@@	1068
叶@@	1068
喻	1067
价值	1066
海洋	1066
统	1066
计算机	1065
环@@	1064
河流	1063
岭	1063
汗	1063
财@@	1063
横@@	1062
蒙	1062
朝鲜	1061
盆@@	1061
加拿大	1060
妻子	1059
灭@@	1058
行星	1058
寒	1058
溪	1057
据@@	1057
杂@@	1057
随着	1056
圭	1056
再@@	1055
男子	1055
郡	1055
2002	1052
坡	1052
文明	1052
仍	1050
掉	1050
赋	1049
末@@	1049
左@@	1047
只能	1045
殿	1042
乔@@	1042
灰	1042
埃及	1041
耳	1040
未@@	1039
益	1038
芬	1038
粉@@	1037
2003	1037
高度	1036
油@@	1035
东部	1034
剂	1034
近@@	1034
从而	1034
何@@	1033
2005	1031
脏	1031
艺@@	1030
妈	1030
2004	1029
倒	1028
鬼	1028
食@@	1027
节目	1026
31	1026
妃	1026
爸	1025
右	1025
台@@	1025
敬	1025
冷@@	1023
冲@@	1023
岩	1022
散	1021
下来	1021
利亚	1020
飞机	1019
营	1019
欲	1018
造成	1016
辛@@	1016
邻	1015
蒋	1015
北方	1015
佳@@	1014
冬	1014
几乎	1014
瓦	1013
吉	1013
凤	1011
渊	1011
中山	1011
流域	1011
貌	1011
发射	1010
范围	1010
查@@	1010
团@@	1009
订	1009
白色	1008
丝@@	1007
庆@@	1007
开发	1005
善@@	1005
80	1005
办@@	1004
屈	1004
弃	1004
资	1003
提	1001
茶@@	1000
枝	1000
装@@	997
负	997
000	996
注	996
夫人	995
升@@	995
失	994
担任	994
有限	994
阴	994
政权	994
辰	993
各地	992
康熙	992
肯@@	991
菌	991
飞行	991
辖	990
乾隆	990
观众	990
资源	990
奴	990
卫星	989
毛@@	989
饮@@	989
错@@	988
续	987
十六	987
汤	987
金属	986
拍	986
模@@	985
13@@	985
潮	984
敌	983
染	982
透@@	982
忆	980
卵	980
例	980
保	980
专业	980
状@@	980
膜	980
徒	979
凤@@	979
抗	979
贺	979
迫	978
莲	977
静@@	977
腔	976
遇	976
街	975
帮助	974
实行	974
森	973
妻	973
响@@	973
贯	972
瓦@@	972
告@@	972
用于	972
倍	971
浩@@	970
曼@@	970
顺	970
皇后	969
研@@	966
诺	966
启@@	966
尼亚	966
哲学	965
册	964
衔	962
支持	962
分钟	961
周年	961
武汉	961
凡	961
材料	961
浓@@	961
冈	961
勇@@	960
航空	960
揭@@	960
宜@@	960
乃	959
铜@@	959
诉	958
羽@@	958
增加	958
配	957
便@@	957
堡	956
部队	955
等等	955
额	955
淮@@	954
奥林匹克	954
麦@@	951
庙	951
社会主义	951
法律	950
治@@	950
贡献	949
您	947
农业	947
安全	946
鹤	946
改变	946
幽@@	945
判	945
防	945
借@@	944
夺	944
孤@@	943
厂	942
竟	942
即@@	942
12@@	941
儿童	941
朗	939
舞蹈	939
销@@	938
脸	937
竞@@	935
必@@	935
背景	935
魔@@	935
促@@	934
逊	934
阶段	933
练	933
接受	932
处理	931
炮	931
杂	931
敢	930
命名	930
残@@	930
沟	929
熊	928
纬	926
帝@@	926
隔	926
培@@	925
启	925
紧@@	924
阴@@	923
片@@	923
埃@@	922
开放	922
货@@	922
导@@	921
十三	920
魂	920
艾@@	920
广西	920
数字	919
恶	919
泪	919
颂	918
桃@@	917
阔	917
生成	917
存@@	916
望@@	914
证明	913
英语	912
2012	912
怕	909
使@@	909
慧	908
普通	908
健	907
暗	906
沈	906
之@@	906
救	905
宾	905
董	903
帅	903
谈	903
西洋	902
寒@@	902
阁	902
针	901
植	901
视@@	900
巧	898
固@@	898
依	898
聚@@	898
球队	898
保持	896
卖	895
直到	894
按照	893
雕@@	893
奉	892
仑	892
敏	891
氧@@	891
划@@	891
恋	890
衡	890
长期	890
①	889
求@@	889
浪	888
充	888
排	888
颖	887
瀑@@	886
篮@@	886
顶@@	886
阿根廷	886
凯@@	886
孟@@	886
跑	885
内蒙古	885
屿	885
晋@@	884
跳@@	884
容易	884
豪@@	884
抒@@	884
丰	882
个@@	882
午	882
金牌	882
享@@	881
伊	881
泡	880
相同	880
拿	879
征@@	879
大小	879
嘉	879
俗@@	879
零@@	878
刻@@	878
数学	878
卢	877
隆@@	877
集中	877
表面	877
殖民	877
背@@	876
滨	875
00	874
乡@@	874
勒@@	873
如此	873
无法	872
芳	871
卿	871
隐@@	869
记录	869
解释	868
服务	866
夷	865
′	865
寻@@	865
贯@@	865
重大	864
狼	864
渡	864
韦	864
洋@@	863
纯@@	862
燃@@	862
墓	862
弟	861
爸@@	861
证@@	860
疑	860
右@@	859
奠@@	859
脚	858
孙@@	858
旋@@	857
母@@	857
2001	857
决赛	857
中部	856
监@@	856
厘米	854
氢	854
类型	854
忠	854
暖	853
祝	853
虽	853
塑@@	853
雕	853
'	853
刚@@	852
简单	851
著@@	851
幅	851
仁@@	851
司	849
贝	849
姬	849
迁@@	848
继续	848
潜@@	848
氧化	848
攻@@	848
缩@@	847
当年	847
规@@	847
予	847
夕	847
命@@	846
大型	846
拍摄	846
古老	845
柱	845
刺@@	845
寿	845
斯坦	844
户@@	843
烟@@	843
跨	843
完	842
僧	841
悠@@	840
特殊	840
隶	840
井	840
泰	840
则@@	840
泳	839
核@@	839
伏	839
腺	838
瑞士	837
蛋	837
奔@@	836
哪@@	835
辛	835
鸣	835
赫	834
奶	834
去@@	833
印	833
其它	833
献	833
背	833
群岛	833
语@@	833
完整	833
500	832
徽	832
1999	832
桑	831
晶	831
委	831
导致	830
十一	830
输@@	830
状态	830
评	829
诞	827
绘	827
蒙@@	827
晓@@	826
经常	826
标@@	826
弹@@	826
十八	825
致@@	825
测@@	825
塘	824
科技	824
鼓	823
苦@@	823
粒	822
300	822
宜	822
职@@	822
决	822
丘	821
球员	821
奴@@	820
天津	820
综合	819
瓜	818
皆	818
当地	818
令@@	818
愁	817
生长	817
艘	817
移	816
慢	815
出演	815
民国	815
2011	814
古典	814
朵	814
松@@	814
沈@@	814
永	814
键	814
伊斯@@	813
迎	813
裁	812
建造	812
明星	812
特征	811
建议	811
护@@	811
禹	811
仪@@	811
魔	811
准	810
南方	809
太平	809
元年	808
彩@@	807
惠	807
动画	807
哈	807
西亚	806
怪	806
攻	806
齿	806
反对	806
吸@@	806
竹	806
耶@@	806
绕	805
总部	805
痛	804
萧	804
迷	803
应用	803
驾@@	803
投@@	803
江南	803
玛	802
因而	802
蜀	802
35	801
太空	800
熙	800
惯	799
妙	799
置	797
14@@	797
了解	796
目的	796
及其	796
设@@	796
西藏	796
抗日	796
兼	796
恨	795
暗@@	795
１@@	794
照@@	794
冯	794
围@@	794
比如	794
断@@	793
友@@	793
人员	792
肤	792
退@@	792
妈@@	791
局@@	790
只要	789
详@@	788
技	787
衣@@	787
划	787
十四	787
只@@	786
谱	786
休@@	786
洞@@	786
森林	786
然而	785
处于	784
胜@@	784
隋@@	784
秒	784
童	783
蛇	783
苹@@	783
区域	782
幻	782
横	782
刺	781
股	781
比亚	780
晨	778
咸@@	777
深圳	777
凝@@	777
提高	777
菲	775
要@@	775
睛	774
壤	773
②	771
颁@@	771
炎	771
委会	770
碑	770
展@@	769
严重	769
迪	768
沿@@	768
忘	768
菲@@	768
首府	768
准备	768
注意	768
贸易	768
％	767
市@@	767
混@@	767
震@@	766
行为	765
众多	765
姜	764
占@@	763
配@@	762
扎@@	762
殖	761
雀	761
可是	761
守@@	761
符合	761
检@@	760
海军	760
狗	760
玻璃	759
习	758
官方	758
普	758
父母	758
君@@	758
学者	757
同年	757
计算	756
诚	756
幼@@	756
煌	755
承	755
影片	755
盐@@	755
理想	754
水平	754
翻	754
叔	752
凉	752
赴	752
谢@@	752
假@@	751
姐@@	751
惜	750
拔	750
商业	750
兽	750
牡@@	749
连接	748
爷	748
由此	748
湘@@	748
鸦@@	747
容@@	746
矛盾	746
绘@@	746
大臣	745
敌@@	745
杨@@	744
虚@@	744
建成	744
况	743
需	743
辉	743
译@@	743
45	743
楼@@	743
余@@	743
鼓@@	742
库	742
驶	742
降	741
失败	741
1@@	741
早期	741
医	740
国王	740
评@@	740
尉	739
基地	738
赫@@	737
切@@	737
联系	737
廷	737
蒂@@	736
显	736
穿@@	735
数量	735
成绩	735
净	734
麻@@	734
讯	734
弦	733
郁	733
效	733
扬@@	733
秘@@	733
尤其	733
熟@@	732
政策	731
凡@@	731
刑	731
凭@@	729
费@@	729
虎@@	729
核心	729
采	729
服@@	729
途	728
牧	728
招@@	728
党@@	727
竹@@	727
辞	727
继承	727
刘@@	726
鹅	726
夏季	725
黑龙@@	725
因@@	725
二年	725
策	725
火箭	725
国务院	723
穷	723
芬@@	723
联盟	722
纽约	722
判@@	722
毕@@	721
耐	721
召开	721
火山	721
原理	721
鲜	721
尺	720
重点	720
锡	720
那里	720
1000	720
朴	720
胆	720
界@@	720
每个	719
廉	719
女性	719
振@@	718
谭	716
缺@@	716
壳	715
1998	715
二十	715
哦	715
倾@@	715
愈	715
荐	714
郑@@	714
钠	714
2013	714
严	713
发动	713
战斗	713
重新	712
悟@@	712
南非	712
设立	711
啦	710
天然	710
明显	709
宗@@	709
急	709
400	709
羊@@	709
桂@@	709
搜@@	709
婚@@	708
响	707
孔@@	707
1949	707
罪	707
叙@@	706
相关	706
昭@@	706
℃	706
吨	705
救@@	705
忠@@	705
孝	705
作战	705
回到	705
改编	704
寸	704
赞	703
瑜	703
载@@	703
笑@@	703
再次	702
署	702
往@@	702
纯	701
摄@@	700
居住	700
全面	700
连续	699
园@@	699
除@@	699
01	698
整	698
润	697
翻@@	697
公斤	696
唱@@	695
脱@@	695
负责	695
紫	695
32	694
36	694
磁@@	693
板@@	693
势@@	693
储@@	693
陵@@	692
颜	692
猪	692
地震	691
道路	691
话@@	691
组合	690
石油	689
着@@	689
医学	689
构@@	689
霍	689
过去	689
庸	689
鸿	689
太子	688
厅	688
15@@	687
牙@@	687
轼	687
国民	687
准@@	686
琳	686
显示	686
番	686
养@@	685
纲	684
王国	683
来源	683
问@@	683
匈@@	682
桃	682
船@@	682
佩@@	680
典型	680
三十	680
翁	679
索@@	679
逢	679
犬	678
迅速	678
朗@@	678
尽@@	677
钙	677
绣	677
刊	677
霞	677
新加坡	677
陈@@	676
践	676
纵@@	675
差@@	675
1984	675
期@@	674
斯特	674
柯@@	674
参与	674
迷@@	674
耳@@	673
派@@	672
袭	672
乔	672
健康	671
贫@@	671
漂@@	671
朱@@	671
灯@@	671
蜀@@	670
空间	670
国民党	670
击@@	670
来到	669
宾@@	668
程度	668
推出	667
释	667
遂	667
棋	667
1990	667
到达	666
矿@@	666
赵@@	666
黑色	665
审@@	665
跳	665
根本	665
乳	664
淡	663
插@@	663
迎@@	663
1988	663
姑@@	663
如下	662
正常	662
娱@@	662
浮@@	661
乘	661
多次	661
适	661
掌	661
最近	661
例如	661
轰@@	660
伐	660
清代	660
腹@@	659
16@@	659
武器	659
梁@@	659
腾	658
教师	658
棒	657
领域	657
汇@@	657
计@@	656
谈@@	656
巧@@	655
此外	655
优	655
宏	655
稳定	655
正在	654
内部	654
演出	653
技@@	653
底@@	653
默	653
玛@@	652
07	652
际	651
这次	651
1930	651
旧@@	651
骑	650
冬季	650
33	650
秘	649
悬@@	649
56	648
减@@	648
鼎	648
带来	647
眉	647
统@@	647
狂@@	646
→	646
乳@@	646
新闻	646
吴@@	646
凯	645
如何	645
更加	644
梵@@	644
脂@@	644
葬	644
规	644
宪法	644
葡@@	644
缩	643
女孩	643
醉	643
机关	643
记者	643
轮@@	642
能@@	642
康@@	642
零	642
任务	641
去世	641
绍@@	641
萄	640
于@@	640
荡	639
丈夫	639
英格兰	639
退	639
狱	638
忌	637
努力	637
钟@@	637
剑@@	637
姆@@	637
触	636
阵@@	636
能量	636
食品	635
献@@	635
叹	635
纸@@	635
劳	634
离开	634
线@@	634
此后	633
霸@@	633
胡@@	633
酶	633
1992	633
软	633
全长	632
君主	631
从事	631
俊@@	630
移动	630
墙	630
镇@@	630
鬼@@	630
施@@	629
卓	629
鉴	629
48	628
弗@@	628
步@@	628
恢复	627
批准	627
孩	626
碳@@	626
硬@@	626
获@@	626
卒	625
十九	625
宇宙	625
穆@@	624
释@@	624
沉	624
脱	624
杆	624
解决	623
突@@	623
督	623
俊	623
之外	622
须	621
聚	621
执行	621
饭	621
引	619
课@@	619
隐	619
那些	619
庵	618
荆@@	618
恋@@	618
普遍	617
本人	616
1997	616
轨道	616
专门	616
条@@	616
继@@	616
1994	616
禁@@	615
帮	615
翰	615
拜@@	615
废@@	615
版本	615
乒@@	614
工具	614
妇	614
葡萄牙	613
基督教	613
墨	613
毫米	613
瑞典	612
丑	612
死亡	612
奥地利	612
奉@@	612
效@@	611
同样	611
阿尔@@	611
洗@@	611
阵	611
奋@@	611
协会	611
燕@@	610
部门	610
戈@@	609
售	609
数据	609
御	609
市区	608
联邦	608
榜	608
宏@@	608
幸	607
折@@	607
俄	607
艇	607
潮@@	607
宵	607
鸡@@	606
徒@@	606
疾	606
敬@@	606
金融	606
洪@@	605
翼	605
舒	605
津	604
逃@@	604
暴@@	604
垂@@	603
纬@@	603
狮@@	602
符@@	602
找到	602
汇	601
度@@	601
涵	601
1996	601
豆@@	600
作出	600
鹰	600
禁	600
妇@@	600
原始	599
坚	599
杜@@	598
滑@@	598
幂	598
泉@@	598
免@@	598
公园	597
幼	597
评价	597
月球	596
胃	596
诸	596
美元	595
卢@@	595
翻译	594
伏@@	594
形容	594
管辖	593
越南	593
谷@@	593
犹@@	593
洛	593
胎	592
办理	592
寻	591
壮	590
端@@	590
泌	590
双方	589
破坏	589
纷@@	589
专家	589
薄	588
辟	588
隋	588
挂	588
炸	587
麻	587
递	587
豪	586
汽	586
般	586
彭	586
肪	586
岳@@	586
挑@@	586
惊	586
此时	586
浮	585
中共	585
肥	585
脚@@	585
己	584
宽@@	584
彻@@	584
进一步	583
相互	583
薇	583
权@@	583
使得	582
探	582
革	582
乙@@	582
症	581
教授	581
吹	580
糖@@	580
总理	580
46	579
任@@	579
毁	578
蓉	578
05	577
1986	577
霸	576
宣传	575
肺	575
腐@@	575
慈@@	574
刷	574
司令	574
感到	574
推	574
沿海	573
因素	573
湿@@	573
股@@	573
少女	572
03	571
目标	571
投	570
渐	570
某	570
|	569
饼	569
鸟@@	569
苍@@	569
牧@@	568
有效	568
卓@@	568
巡@@	568
亥	568
舒@@	567
校@@	567
工人	566
库@@	566
庐@@	566
补	566
倒@@	565
熊@@	565
墨@@	564
儿@@	564
庞@@	564
钱@@	563
盖@@	563
某@@	562
骑@@	562
淡水	562
瑞@@	562
理解	562
傅	562
滩	561
突出	561
书记	560
桂	560
申	560
概	560
墨西哥	560
仍然	559
芽	559
惠@@	559
箱	558
52	558
割	558
泊	558
痛@@	557
涛	557
娇	557
韩@@	556
渔@@	556
与@@	556
汤@@	556
鼠	556
衡@@	555
配音	555
王子	555
中学	555
撒@@	555
雾	555
艰@@	555
於	554
绝对	554
玩	554
土耳其	554
试验	554
柔@@	554
臂	553
家族	553
众@@	553
舞@@	553
咏	553
警@@	553
荷@@	553
负@@	552
创建	552
聂	552
指出	552
是否	552
聪@@	551
寨	551
桑@@	551
皇家	551
出口	551
37	551
硫@@	551
恒@@	550
燃	550
描述	550
遍	550
薛	550
75	550
玫@@	550
毒@@	550
染@@	550
捷	549
尤@@	549
地面	549
亦@@	549
吐@@	549
赏@@	549
&	548
55	548
潘	548
事情	548
郊	548
柴	548
励	547
奶@@	547
汁	546
档	546
保存	545
06	545
奈	545
团体	545
易@@	545
外交	545
岩@@	545
1982	544
附	544
甜@@	544
床	544
税	543
凌	543
悉	543
本身	543
匠	543
箭	542
伍	542
绩	542
逝世	542
44	542
概@@	541
挥	541
勃	541
柏	541
莱	541
监	541
欣@@	541
勾@@	541
起源	540
碧@@	540
居民	540
34	540
创办	539
氢@@	539
莉	539
均@@	539
污@@	538
凿	538
制定	538
绰@@	538
效果	538
避@@	538
乌	538
鹿@@	538
访	537
滴	537
弟@@	537
兹	536
尝	536
坝	536
销	536
乎	536
珍	536
胚@@	536
姚	535
脂	535
▪	535
互@@	534
瓶	533
析	533
每天	533
焰	533
体系	532
济	532
③	532
庄@@	532
祭@@	532
帕@@	532
硬	532
醒	531
味@@	531
犯	531
及@@	531
停@@	531
质@@	531
修建	530
餐	530
随后	530
延	530
乘@@	530
承认	530
比例	530
喝	530
闹	529
晚上	529
72	529
即位	529
信仰	529
唱片	529
偏@@	529
颇	529
毅	529
辉@@	528
彦	528
寿@@	527
屠@@	527
矶	527
摩	527
湖泊	527
父@@	527
飘@@	527
供@@	526
权力	526
昭	526
韵	526
混合	526
责@@	526
瑰	525
38	525
分裂	524
融	524
三月	523
1993	523
概念	523
绪	523
悲	523
类似	522
掌@@	522
09	522
附@@	520
禅	520
弟弟	520
42	520
困@@	520
炉	520
氨@@	520
括	519
抱	519
茎	519
年度	519
旗@@	519
恶@@	519
晶@@	518
宪	518
机械	518
戒	518
绸	517
导弹	517
海上	517
荒@@	516
软件	516
相信	516
湘	516
消息	515
警	515
投资	515
贞	515
关注	514
购@@	513
赤	513
价@@	513
矿	513
俱乐部	513
莎	513
泥	512
肝@@	512
虚	512
村@@	511
柔	511
氯@@	511
黎@@	511
68	511
愿@@	510
偶像	510
公路	510
豹	510
供	510
平衡	509
甘	509
初期	509
沃@@	509
昂	509
1987	509
婚姻	508
匡	508
驰	508
菜@@	508
昌@@	508
仇	508
媒体	507
傣@@	507
经营	507
运输	507
凰	507
跃	507
房@@	506
乓	506
您@@	506
盟	505
碱	505
织	505
毫@@	505
08	505
尘	504
进攻	504
行动	504
雍@@	503
合成	503
知名	503
往往	503
塑	503
参	503
02	503
批@@	503
欣	502
煤@@	502
院@@	502
摇@@	502
雁	502
羲@@	502
畅	502
璋	500
阻@@	500
窟	500
赛季	500
仲@@	499
频@@	499
62	499
涯	498
琪	498
怒	498
饮	498
浩	498
章@@	497
恒	497
即使	497
1991	497
播出	497
排名	497
艳	497
忍@@	497
宇@@	497
未来	496
沟@@	496
隶属	496
评论	496
陀	495
担@@	495
吾	495
邑	495
却@@	495
恐@@	494
常用	494
遵@@	494
展开	494
肖	494
莎@@	494
41	494
汪	493
1995	493
1945	493
鲸	492
心理	492
急@@	492
采取	492
忽	491
海岸	491
哲	490
肾	490
逸	490
博士	490
根@@	490
由@@	490
彻	489
道德	489
港口	489
瑞	489
闪@@	489
04	489
忧@@	488
言@@	488
覆@@	488
奋	488
生涯	488
1983	488
1985	488
希	488
激	487
字母	487
坦@@	487
接近	486
循@@	486
1980	486
纤@@	486
减少	486
43	485
舞台	485
筑	485
改名	485
浦	485
旁	485
人数	485
日军	484
贞@@	484
运行	484
仔	484
肥@@	484
拳	484
突然	484
亿@@	483
公布	483
迫@@	483
固定	483
出身	483
生存	483
发布	483
霍@@	483
役	482
简	482
芝	481
平面	481
辅@@	481
私@@	481
磨@@	481
十七	480
赢得	480
寄@@	480
住@@	480
光绪	480
贴	479
续@@	479
堪@@	479
76	479
麓	479
澳@@	479
串	478
吸引	478
1958	478
逐@@	477
商品	477
吟	477
高级	477
小学	477
妹@@	476
吏	476
喷@@	475
紧	475
狂	474
机会	474
锦	474
逝	473
观点	473
怡	472
表明	472
领袖	471
透	471
辞@@	471
伴	471
一致	471
高速	471
1979	471
囊	470
纷	470
稣	469
植@@	469
够	469
比利@@	469
玲	469
走向	469
61	469
×	469
拍@@	468
映	468
吾@@	468
否@@	467
翔	467
萧@@	467
企@@	466
锅	466
豫	466
基因	466
询	465
马来西亚	465
以外	465
胸@@	465
穆	465
收入	465
残	464
屋	464
尽管	464
掌握	464
轴	463
炎@@	463
孝@@	463
常见	463
辽	462
输	462
坊	462
规则	462
丁@@	462
哀	461
菩@@	461
擅@@	461
傲	461
杠	461
盘@@	461
泊@@	460
忧	460
烧@@	460
位@@	459
失去	459
患	459
佑	459
哈尔@@	459
―	459
主任	458
炼	458
率领	458
坦克	458
农村	458
粮@@	458
遗址	458
驻	458
篮	457
婷	457
源@@	457
旋	457
地形	456
授	455
1978	455
51	455
究	454
崔	454
医院	454
蒂	454
钻@@	454
尿	454
玩@@	453
腾@@	453
姿	453
如今	453
戈	453
娃	452
通用	452
设置	452
文件	452
人工	451
樱@@	451
翠	451
尖	450
填@@	450
尼斯	450
业@@	450
替	450
五月	450
尾@@	449
坏	449
荷	449
烂	449
侦@@	448
仿@@	448
实施	448
粤@@	448
玄	448
裂	448
操作	448
肯	448
储	447
值@@	447
59	447
投降	446
软@@	446
拼@@	446
高中	446
祝@@	446
武装	446
占领	446
废	446
割@@	446
凭	446
耀	445
酷	445
奥斯@@	445
臭@@	445
震	444
德里	444
坐落	443
洛杉@@	443
休	442
遥	441
产业	441
艾	441
浅	441
样@@	441
忘@@	441
39	440
停	440
莲@@	439
颇@@	439
管@@	439
广场	438
牲	438
密度	438
窦	438
触@@	438
藤	437
稀@@	437
炭	437
赖	437
啡	437
迈@@	437
甚	436
71	436
洗	436
逐	436
一方面	436
幻@@	435
籍@@	435
兼@@	435
版@@	435
1989	435
盗	434
寓@@	434
丘@@	434
训	434
咖@@	433
斋	433
衰@@	433
统计	433
碎	433
邪	433
徐@@	433
120	432
斯特@@	432
地下	432
照片	432
印度@@	432
目@@	432
突破	432
辆	431
买@@	431
陶@@	431
柳@@	431
主力	431
闲	431
遇到	430
湿	430
纹	430
间@@	430
谋@@	430
文物	430
襄@@	430
绵@@	429
棋@@	429
肉@@	429
亮@@	428
54	428
睡@@	428
演奏	428
忙	428
贸	428
议@@	427
600	427
尤	427
巢	427
驻@@	427
默@@	427
49	426
朝廷	426
伴@@	426
辖@@	425
甸	425
滚	425
彗@@	425
自动	425
铭	425
第@@	425
菊	424
腿	424
─	424
大多	424
猛@@	424
64	424
以南	424
陷	424
抵@@	423
角@@	423
贼	423
1956	423
惑	423
勃@@	423
罚	423
累	422
恰@@	422
兄	422
1981	422
同盟	422
赐	422
咏@@	422
斜	422
序@@	422
袋	421
蜜	421
99	421
备@@	421
埃	421
相似	421
兔	421
化石	420
牺@@	420
鸭	420
叫@@	420
杭	420
稿	420
钢	419
辱	419
跨@@	419
临时	419
焦@@	418
刑@@	418
十月	418
暂@@	418
权利	418
哺@@	417
浓	417
荆	417
辈	416
79	416
戒@@	416
距@@	416
喀@@	416
1937	416
嘴	415
页	415
授予	415
狮	415
委@@	415
叛@@	415
轩	415
•	414
旅行	414
勤	414
昨@@	414
大夫	414
丞@@	414
遭	414
协	414
秘密	414
蕾	413
杂志	413
磁	413
若@@	413
锡@@	413
束	412
协议	412
拟	411
助@@	411
鉴@@	411
脊@@	411
崇	410
1912	410
灰@@	410
沿	410
交流	409
苗@@	409
3000	409
巩@@	408
黎	408
稻	408
魅@@	408
业务	408
旅	408
吃@@	407
寂@@	407
产地	407
港@@	407
录@@	407
宰@@	407
龟	407
宣	407
眠	406
良@@	406
磨	406
似乎	406
层@@	406
慕@@	405
苗	405
镜@@	405
卷@@	405
互相	405
良好	405
训练	405
担	405
都市	405
爵	405
叉	404
芹	404
怪@@	404
冠@@	404
寺@@	404
报告	404
瓜@@	404
方便	404
岗	404
专	403
某些	403
什	403
持续	402
太后	402
88	402
机场	402
偶@@	401
寄	401
青岛	401
纲@@	401
角度	400
窝	400
请@@	400
哭	400
恺	399
`	399
打破	399
慧@@	399
叔@@	398
乐队	398
浆	398
擦	397
的@@	397
炮@@	397
屋@@	397
排列	397
潭	397
公开	397
暑	397
★	397
０	397
把@@	397
81	396
猛	396
部长	396
旨	396
考虑	396
贡	395
蔺	395
当选	395
跟@@	395
中期	395
上帝	394
00@@	394
９@@	394
类@@	394
态@@	394
胰@@	394
180	394
95	394
给@@	394
卜	394
1955	394
毫	394
宴	394
利益	394
偏	394
芙@@	393
南海	393
忍	392
爆炸	392
付	392
肌@@	392
而言	391
遭到	391
萍	391
65	391
董事	390
1946	390
啤@@	390
巾	390
常常	390
斩	390
非@@	390
珊@@	390
晴	390
提到	389
仿	388
人士	388
娥	388
笛	388
襄	388
命令	388
档@@	388
／	388
川@@	387
慕	387
坑	387
敦@@	387
鼻@@	386
闭@@	386
蓄	386
邀@@	386
鼎@@	386
1972	386
士兵	385
免	385
唯@@	385
二月	385
椒	385
级@@	385
柏林	385
军区	384
狭@@	384
麟	384
同意	384
渡@@	384
莫斯科	384
妮	384
锁	384
蒲	383
购	383
乃@@	383
滑	383
摆@@	382
邻@@	382
枢@@	382
券	382
淀@@	382
侣	382
懂	381
悦	381
柯	381
私	380
茨	380
800	380
程序	380
赶@@	379
缓@@	379
47	379
通信	379
昏	379
部落	379
睡	379
尿@@	378
挺	378
防止	378
疆	378
驱@@	378
官员	378
法院	377
增长	377
遇@@	377
侧@@	377
境@@	377
1969	377
投入	377
阅@@	377
辣	377
跑@@	376
做出	376
福州	376
霜	376
设备	376
联赛	376
乙	376
裔	376
赠	375
婉@@	375
嫁	375
烷	375
寓	374
倡@@	374
酒店	374
霖	374
午@@	374
贾@@	374
哲@@	373
闭	373
芭@@	373
立即	373
98	373
85	373
偶	372
扇	372
辑	372
裕	372
鸿@@	372
人大	372
呀	372
瓷	371
彼@@	371
手段	371
霆	371
厦@@	371
桥@@	370
怨	370
大桥	370
1954	370
一百@@	370
限制	370
肌	370
健@@	369
腹	368
算@@	368
涂	368
纽	368
庙@@	368
冒@@	367
胶@@	367
拓	367
筝	367
泼@@	367
治疗	367
范@@	367
胶	366
撰	366
蝶	365
58	365
靖	365
1970	365
货	365
出道	365
衰	365
支付	364
交易	364
爽	364
栏	364
效力	363
伽@@	363
煮	363
小组	363
筹@@	363
包含	363
86	363
猴	363
克斯	363
增	362
沧@@	362
陆军	362
基督	362
弄	361
璧	361
胆@@	361
勤@@	361
报道	361
组@@	360
虹	360
蜂	360
剩	360
对象	360
伙	359
逃	359
困	359
灾	359
缅@@	359
谊	359
甜	359
灌@@	359
违@@	359
谐	359
律@@	358
茅	358
讨论	358
基金	358
前身	358
通道	358
晴@@	357
卧	357
迄@@	357
奕	357
殷	357
缺	357
２@@	356
腰	356
避	356
重量	356
1950	355
蜂@@	355
浑@@	355
嘛	355
1961	355
儒	354
髓	354
频	354
孤	353
桐	353
郁@@	353
驱	353
今日	353
病毒	352
猎@@	352
雁@@	352
空中	352
琶	352
班@@	352
移@@	352
损@@	352
绵	352
详	352
室@@	352
学术	351
妆	351
150	351
琵@@	351
〉	350
1974	350
戴@@	350
枢	350
荀	350
耐@@	350
1966	349
丑@@	349
杏	349
枫@@	349
挥@@	349
海外	349
骚	348
尖@@	348
66	348
狐	348
彝@@	348
占地	348
相比	348
棉@@	347
唯	347
1957	347
稀	347
荒	347
莹	347
旅@@	347
宙@@	346
台北	346
０@@	346
攻击	346
疫	346
忽@@	346
掘	346
惨@@	345
降低	345
罪@@	345
教堂	345
醇	345
遥@@	344
同名	344
慨	344
措施	344
烈@@	344
枪@@	344
78	344
豚	344
符	344
虞	344
腐	344
估@@	344
插	343
克里@@	343
携@@	343
召	343
前往	343
安排	343
菊@@	342
巫@@	342
朽	342
席	342
80@@	342
空军	342
碧	342
研	342
缺乏	342
垂	341
用户	341
悉@@	340
规划	340
编码	340
波兰	340
责	340
培	340
1936	340
敏@@	340
股份	340
上述	339
自身	339
街@@	339
棍	339
特有	339
勋	338
误@@	338
职务	337
露@@	337
耀@@	337
原本	337
饭@@	337
棉	337
捕	337
57	336
瑟	336
溶	336
5000	336
保留	336
煤	335
1959	335
捕@@	335
搭@@	335
扣	335
厚@@	335
疾病	335
击败	335
方案	335
醋	335
慢@@	334
禅@@	334
壶	334
魏@@	333
1935	333
呈@@	333
润@@	333
坐@@	333
出色	333
殿@@	333
黛@@	333
融@@	333
畔	333
末期	333
伯特	332
课	332
磷@@	332
瑶	332
耶	332
汗@@	331
森@@	331
69	331
葵	331
粗@@	331
堆	331
扎	331
1968	331
尚书	331
刀@@	331
媒	330
帽	330
毕	330
淡@@	330
82	330
大致	330
卧@@	330
驼	329
曹@@	329
膀	329
1928	329
尹	329
酷@@	329
宠@@	329
偷@@	329
劲	329
灾@@	328
碍	328
卵@@	328
轨	328
享	328
嫩	327
1911	327
夸@@	327
属@@	327
茂	327
偷	327
链	327
屏	327
1900	327
隔@@	326
街道	326
1960	326
慈	326
依然	325
瑚	325
89	325
上升	325
堰	325
网站	325
脑@@	325
帘	324
鄂	324
家人	324
姑	324
格兰	324
祀	324
铝	324
至少	324
下午	324
辐@@	324
签	324
梯	323
追	323
燥	323
涉及	322
得以	322
抚@@	321
娜@@	321
倩	321
讨	321
坤	321
呵	321
契@@	321
④	321
句@@	321
以北	320
匈牙利	320
返	320
悟	320
鞠	320
公民	320
定义	320
1948	319
淀	319
亨@@	319
直至	319
宿	319
展示	319
碱@@	319
蛙	319
娶	318
96	318
广播	318
另@@	318
愤	318
量@@	317
深度	317
鹏	317
选举	317
但@@	317
撒	317
锐	317
构	317
意志	317
魄	316
讽@@	316
信号	316
斑	316
努@@	316
茅@@	316
道光	316
减	316
动机	316
俑	315
支流	315
装备	315
吞@@	315
〈	315
53	314
97	314
禧	314
呵@@	313
列入	313
孕	313
振	313
碘	313
上映	313
央@@	313
聊@@	313
牌@@	313
1962	313
鳍	313
爬@@	313
牵@@	313
刊@@	312
蕉	312
融合	312
娃@@	312
茂@@	312
取代	311
装置	311
斤	311
社@@	311
钧	311
授@@	310
渭@@	310
她@@	310
迟	310
感染	310
犁	310
侠@@	309
顷	309
谥@@	309
颗@@	309
或@@	309
寞	309
厢	309
方言	308
盆	308
凌@@	308
滚@@	308
避免	308
耕@@	308
厦	307
嫁@@	307
摇	307
戚	307
冥@@	306
沛	306
消失	306
学名	306
检	306
商人	305
娘@@	305
粹	305
1964	305
高等	305
执	305
堪	305
1976	305
丈	305
佩	304
坞	304
下令	304
加以	304
庐	304
盾	304
舰队	303
四月	303
1927	303
途中	303
喊	303
暴	303
肢	302
代替	302
84	302
雯	302
87	302
泼	302
炬	302
莺	301
73	301
议会	301
宿@@	301
泥@@	301
蚕	301
蕃	301
控	300
沿岸	300
劫	300
害@@	300
弘@@	300
弥@@	300
67	300
杠@@	300
梨	300
停止	299
扰	299
肝	299
返回	299
瓶@@	299
稻@@	299
各自	299
奈@@	299
餐@@	299
劝@@	299
蛮	299
踏	299
爷@@	299
稍	299
胃@@	299
庚	298
学会	298
挪威	298
盟@@	298
吹@@	298
沃	298
截@@	298
遍@@	298
殊	298
肖@@	298
汽@@	298
渤@@	298
1953	297
井@@	297
凉@@	297
耗	297
旱	297
练@@	297
许@@	297
鸣@@	297
赋@@	297
芦	297
快速	296
成人	296
番@@	296
山大	296
铺	296
疑@@	296
眉@@	295
恭	295
袍	295
丸	295
罕@@	294
车辆	294
翅@@	294
付@@	294
廊	294
上市	294
萌	294
濒@@	294
冀	293
织@@	293
丞	293
繁	293
螺@@	293
63	293
钾	293
1919	292
叙	292
诏	292
踪	292
亩	291
妖@@	291
物种	291
嘴@@	291
抢@@	291
换@@	290
巨	290
工厂	290
1921	290
盈	290
弦@@	290
乱@@	289
珊	289
饱@@	289
顽@@	289
审	288
敦	288
淘@@	288
满足	288
舟@@	288
茵	288
琼	288
溢	288
93	288
1975	287
扶@@	287
窗@@	287
贤@@	287
墓@@	287
性能	287
1938	287
祖父	287
撰@@	287
83	286
拒绝	286
城区	286
艳@@	286
模式	286
骗	286
粗	286
捷@@	285
杉	285
途@@	285
能源	285
配合	285
斯拉@@	285
凄@@	284
修改	284
妖	284
淋@@	284
尚@@	284
诵	284
壁@@	284
渐@@	284
20@@	283
姚@@	283
损失	283
铃@@	283
翰@@	283
邓@@	283
败@@	283
撞	282
驾	282
惨	282
磷	282
狼@@	282
峻	282
收集	282
伸@@	282
坦	282
1967	282
洒	282
旬	281
天堂	281
骆@@	281
崖	281
任命	281
樊	281
翅	281
蝉	280
乾@@	280
耗@@	280
窗	280
峨@@	279
疏@@	279
推行	279
财	279
倡	279
纱	279
穴	279
肩	279
毗@@	279
示@@	279
搞	278
泽@@	278
狄	278
竟@@	278
慎	278
胸	278
学位	277
1934	277
糕	277
4000	277
蟹	277
旺	277
蚀	277
帆	277
改造	277
下降	276
皖	276
燃料	276
23@@	276
熔@@	276
潜	276
资格	276
纵	276
宪@@	275
1947	275
大道	275
贴@@	275
阻	275
74	275
抽@@	275
泛@@	275
丧@@	275
入侵	274
祭	274
争议	274
什@@	274
雌@@	274
胁	274
桓@@	274
候	274
理由	274
仓	274
蓬@@	274
厉@@	274
绎	274
郡@@	273
1965	273
限@@	273
埋@@	273
阐@@	273
妍	273
淮	273
阀	272
旭	272
校长	272
哀@@	272
墙@@	272
究@@	272
冲突	272
肺@@	271
钦@@	271
柄	271
160	271
栖	270
具@@	270
萱	270
91	270
舰@@	270
山峰	270
诱@@	270
1894	270
魔法	270
本科	270
裴	270
扁@@	269
株	269
滋	269
浙	269
1931	269
粮	269
阿拉@@	269
晏	269
700	269
蜜@@	269
卑	269
涉	268
额@@	268
帜	268
座@@	268
猎	268
订@@	268
淹	268
司法	268
喇@@	268
1952	267
抓@@	267
泡@@	267
蚁	267
凶@@	267
禄	267
女王	267
94	267
1963	267
奔	266
靠近	266
卑@@	266
副@@	266
崎	266
厂@@	266
畏	266
衍	265
辣@@	265
旁@@	265
寇	265
歼@@	265
枝@@	265
蕊	265
溥	265
磊	265
饶	265
鞋	265
候@@	265
24@@	265
侨	264
填	264
纺@@	264
讨@@	264
下辖	263
调查	263
窄	263
灿@@	263
拱@@	263
苑	263
闽@@	263
粘@@	263
他人	263
甄	263
待@@	262
吐	262
止@@	262
益@@	262
1896	262
访问	262
桓	262
醉@@	262
家中	262
佐	262
渝	262
兮	261
琴@@	261
诘	261
吕@@	261
相反	261
氮	261
逆	261
弱@@	261
胤	261
1918	260
1904	260
鄱@@	260
峡@@	260
橄@@	260
硫	259
厄@@	259
琼@@	259
肠@@	259
^	259
伊拉克	259
握	259
海域	259
祥@@	259
调整	259
佟	258
扫@@	258
奏@@	258
炸@@	258
捷克	258
腻	257
挺@@	257
酿@@	257
婉	257
逼@@	257
猫@@	257
姿@@	257
励@@	257
筒	257
焦	257
雾@@	256
丧	256
92	256
婴@@	256
乾	256
特定	256
脸@@	255
马尔@@	255
罢	255
顾@@	255
朴@@	255
1929	255
1971	255
1905	255
代理	255
脊	255
鄂@@	255
骄@@	254
舱	254
愚@@	254
逼	254
俞	254
抱@@	253
狄@@	253
鞅	253
犹	253
黔	253
择	253
赔@@	253
砚	253
耻	253
自我	253
次年	253
杏@@	252
毁@@	252
围绕	252
尸	252
斯基	252
拉斯	252
220	251
菲律@@	251
更名	251
耕	251
上午	251
爆	251
筷@@	251
津@@	250
妙@@	250
巷	250
速@@	250
房屋	250
扮	250
澳	250
天体	250
驰@@	249
鸭@@	249
猴@@	249
沸@@	249
舌@@	249
1917	249
1924	249
棠	248
驴	248
型@@	248
屏@@	248
铸@@	248
剥@@	248
置@@	248
冒	248
未能	248
沁	247
帖	247
怜	247
损	247
赠@@	247
昵@@	247
碰@@	247
馨	246
卖@@	246
1932	246
债@@	246
1939	246
烦	246
氮@@	246
桌	246
保障	245
骼	245
蔬@@	245
加盟	245
幽	245
允许	245
遗	245
芳@@	245
早年	245
以色列	245
烛	244
遭遇	244
筋	244
77	244
媚	244
雏@@	244
金山	244
纠@@	244
蹴@@	244
椎	244
冕	244
1923	244
疏	244
屈@@	243
夕@@	243
彪	243
焚@@	243
猪@@	243
薯	243
斜@@	243
１	243
玮	243
1920	243
陇@@	243
率@@	242
男性	241
伐@@	241
埋	241
邀	241
豫@@	241
贬	241
矣	240
诚@@	240
赣	240
樱	239
鹊	239
延伸	239
愤@@	239
邱	239
本土	239
引发	239
搞@@	238
浦@@	238
佐@@	238
既@@	238
暮	238
盗@@	237
抚	237
闷	237
模	237
岑	237
『	237
2015	236
蒸	236
坎@@	236
粤	236
偿	236
嵩@@	236
仰@@	235
更新	235
1840	235
替@@	235
葱	235
劝	235
裁@@	235
炙	235
陪@@	234
900	234
仗	234
畅@@	234
硝@@	234
地铁	234
蜡@@	234
祯	234
抵抗	234
221	234
滨@@	233
瘦	233
喝@@	233
穗	233
芒	233
北美	233
添	233
危	233
吻	233
韦@@	233
炼@@	233
僚	233
沫	232
拥@@	232
鲍@@	232
铅	232
岚	232
裂@@	232
欺@@	232
』	232
喉	232
涨	232
阎	232
瑙	232
1500	231
互	231
闰@@	231
靖@@	231
碗	231
谦	231
铃	230
催@@	230
伊朗	230
烨	230
1940	230
合并	230
浑	230
匀	230
唤	229
飘	229
运营	229
疗	229
恰	229
得知	229
陕@@	229
骆	229
●	228
挡	228
110	228
婆@@	228
阅	228
趋@@	228
虾	228
弗	228
厌	228
腊@@	227
蛋@@	227
策@@	227
愧	227
戌	227
自行	227
毅@@	227
险@@	227
吞	227
抑@@	227
1942	227
夹	227
1915	226
池@@	226
必要	226
薄@@	226
1941	226
凌晨	226
◆	226
茹	226
尺@@	226
沫@@	226
正面	225
媛	225
御@@	225
兆	225
尧	225
郊@@	225
布拉@@	225
沪	225
突	224
首播	224
а	224
汴@@	224
攻打	224
立方@@	224
氛	223
莽	223
否	223
滋@@	223
辩	223
小型	223
久@@	223
立法	223
凸	223
桐@@	223
谱@@	223
仕	223
渠	223
癌	222
碑@@	222
卉	222
按@@	222
庞	222
尝@@	221
芦@@	221
206	221
摆	221
绒@@	221
滤	221
朔	221
茄	220
捉	220
戊@@	220
拖@@	220
混	220
特性	220
徽@@	220
1925	220
淳	219
仍@@	219
累@@	219
匹@@	219
孜	219
1898	219
子女	219
猜@@	219
膑	219
锌	218
靡	218
弯	218
移民	218
腰@@	218
惯@@	218
缀	218
撑	217
泣	217
柏@@	217
削	217
砖	217
扣@@	217
漏	217
频道	217
嵩	217
识@@	216
1944	216
蝠	216
络	216
氏@@	216
暖@@	216
硕@@	216
沦	216
近年	216
设施	216
缓	216
1933	216
召@@	215
瞬@@	215
巴基斯坦	215
柴@@	215
170	215
骏	214
蹄	214
蝴@@	214
26@@	214
尚未	214
戎	214
斐@@	214
茫	214
映@@	213
肾@@	213
迈	213
冤	213
俩	213
猜	212
榄	212
橡@@	212
谜	212
蕴@@	212
瓷@@	212
印尼	211
1973	211
邯@@	211
有@@	211
渗@@	211
昏@@	211
堤	211
综@@	211
缘@@	211
伪	211
胀	210
寨@@	210
念@@	210
寂	210
撼	210
傲@@	210
疯@@	210
茜	210
伙@@	210
瑟@@	209
霉@@	209
鸽@@	209
詹姆@@	209
丛@@	209
分成	209
浏@@	209
氯	209
屡	208
1913	208
赶	208
捐@@	208
1951	208
缝	208
患者	208
国会	208
爆@@	208
钗	208
挂@@	208
汞	207
纶	207
恒星	207
吊@@	207
盲	207
娟	207
斥	207
濒	207
下列	207
后者	207
改善	207
臭	207
弯@@	207
享年	207
昼	206
咸	206
请求	206
睿	206
篇@@	206
彤	206
101	206
胞	206
垄@@	205
扇@@	205
垒	205
如同	205
铺@@	205
1922	205
套@@	205
摸	205
恐	205
代码	205
舅@@	205
招	205
1914	205
仕@@	205
５	205
用途	204
分配	204
贫	204
巩	204
辨	204
意外	204
弘	204
尔德	204
逻@@	204
谨	204
掀@@	204
播@@	204
诉@@	204
250	203
警察	203
迦	203
肃@@	203
叠	203
沂	203
援	202
狗@@	202
薪	202
澜	202
冻	202
政协	202
辅	202
婴	202
惟	202
泻	202
朋	202
退役	201
姜@@	201
翟	201
允	201
稽	201
襟	201
倾	201
闲@@	201
取消	201
橙	201
粒子	201
潇@@	201
阶	200
幕@@	200
出席	200
郸	200
捧	200
梨@@	200
拱	200
镁	200
辨@@	200
颠	199
祠	199
锁@@	199
葫@@	199
夹@@	199
蚂@@	199
阮	199
此次	198
税@@	198
幅@@	198
酵	198
邵	198
疆@@	198
挚	198
贪@@	197
针@@	197
涅@@	197
匹	197
960	197
大使	197
乞@@	197
宦@@	197
舍@@	196
萌@@	196
瓣	196
釜	196
循	196
掩@@	196
拨	196
6000	196
鸽	196
逵	196
援@@	196
36@@	196
周边	196
主管	196
枫	196
平台	195
虏	195
熹	195
懿	195
厉	195
萝@@	195
丕	195
煜	195
邹	195
枣	195
1916	195
烯	195
弓	195
岗@@	194
铸	194
嫣	194
榜@@	194
悠	194
肩@@	194
崛@@	194
强度	194
妃@@	194
涌	194
蝙@@	193
斑@@	193
焉	193
滕@@	193
教学	193
1895	193
鹃	193
渴@@	193
透露	193
洁@@	193
犯罪	192
斌	192
席@@	192
陪	192
抓	192
谥	192
暂	191
歇@@	191
趋	191
浅@@	191
大楼	191
笛@@	191
30@@	191
翠@@	190
俱	190
＝	190
柬@@	190
埔@@	190
轿@@	190
员@@	190
1908	189
投票	189
亡@@	189
谣	189
〔	189
疲@@	189
略@@	189
首席	189
谏	189
1842	189
脉@@	189
130	189
契	189
澄@@	189
27@@	189
弄@@	188
娄	188
校区	188
漏@@	188
＞	188
票@@	187
追溯	187
〕	187
潇	187
蓄@@	187
惟@@	187
纂	187
颐	187
锤	187
龚	187
冰川	187
出任	187
枯@@	187
公共	187
椭@@	186
浸@@	186
迦@@	186
畜	186
罢@@	186
大街	186
净@@	186
舜	186
淑@@	186
祸	186
藩	186
押	186
陷@@	186
宠	185
拥	185
局长	185
疾@@	185
葬@@	185
菠@@	185
操@@	185
抄@@	185
雍	185
澎@@	185
澳洲	185
140	185
勿	185
涣	185
芝加哥	185
楠	185
搬@@	184
悔	184
阜	184
粟	184
盒	184
糊	184
叛	184
提名	184
琦	184
1977	184
脍@@	184
促	183
舅	183
鼻	183
仰	183
哉	183
衷	183
逆@@	183
凹	183
瑾	183
爬	182
脆	182
125	182
针对	182
晒	182
糯@@	182
钉	182
攀@@	182
篆	182
拾	182
御史	182
泄	181
闽	181
檬	181
贱	181
务@@	181
尘@@	181
崩	181
稳@@	180
涌@@	180
阙	180
钻	180
纽@@	180
豹@@	180
螺	180
抵	180
岷@@	180
藻	180
渴	180
症@@	180
360	180
峙	180
３	180
是@@	180
50@@	179
掠@@	179
1600	179
堂@@	179
彼得	179
晨@@	179
庶	179
憾	179
炫	179
退出	179
仔@@	179
硕	179
腊	178
淑	178
地名	178
蚊@@	178
矮	178
宰	178
辩@@	178
帆@@	178
组建	177
纤	177
学科	177
削@@	177
峰@@	177
锥	177
邈	176
羌@@	176
州@@	176
设有	176
罩	176
鸯	176
利斯	176
水域	176
瞩@@	176
租	176
芯	176
昼@@	176
17@@	176
帽@@	176
栽培	176
剪@@	176
掷	175
颈	175
姨	175
棒球	175
市长	175
丙@@	175
誓	175
帅@@	175
鹤@@	175
饲@@	175
赣@@	175
市民	175
亨	175
1200	175
嗣	174
屠	174
钦	174
雌	174
功率	174
彬	174
线路	174
敲@@	174
⑤	174
事故	174
姥	173
闪	173
猿@@	173
棣	173
轩@@	173
渊@@	173
添@@	173
羞	173
奥林匹@@	173
辈@@	173
冢	172
梯@@	172
匈	172
跃@@	172
宛@@	172
钊	172
挽@@	172
撤@@	172
粱	172
骂	172
1926	172
又@@	172
斩@@	172
茨@@	172
倪	172
纣@@	171
唾@@	171
榴@@	171
230	171
袭击	171
列车	171
链@@	170
域@@	170
8000	170
指示	170
鸳@@	170
任期	170
昂@@	170
绳	170
挖	170
亭@@	170
陌@@	170
需求	170
拼	170
摘@@	169
芙	169
姨@@	169
批评	169
烹@@	169
骞	169
痕	169
1943	169
虑	169
一同	169
障@@	169
殷@@	169
演化	169
帐	169
呆	168
牢	168
首相	168
萨克@@	168
哇	168
＜	168
藤@@	168
院长	168
婿	167
嫦@@	167
卦	167
硅	167
鞭	167
拳@@	167
铅@@	167
钩	167
涂@@	167
４	166
108	166
宴@@	166
365	166
缴@@	166
克拉@@	166
胚	166
剪	166
聪	166
汝	166
族@@	166
扫	166
竖@@	166
尸@@	165
и	165
扑	165
橘@@	165
澈	165
倚@@	165
案件	164
禁止	164
仓@@	164
仆	164
聘	164
晰	164
嘉靖	164
描	164
肚@@	164
驹	164
棒@@	163
兆@@	163
原有	163
斯洛@@	163
颠@@	163
鼠@@	163
蓬	163
赢	162
恐怖	162
25@@	162
蔷@@	162
消	162
廖	161
铭@@	161
炒	161
噪@@	161
梓	161
挑	160
厥	160
夷@@	160
巡	160
坏@@	160
皆@@	160
袖	160
７	160
蜡	160
卜@@	160
佗	160
丫@@	160
娅	160
1300	160
惧	159
1906	159
伪@@	159
栋	159
彰	159
龟@@	159
潍@@	159
播放	159
涉@@	159
悬	159
蛛	159
加利福@@	159
遭受	159
鲍	158
胖	158
爵士	158
青少年	158
猿	158
晁	158
镑	158
锈	158
通知	158
绚@@	158
斯蒂@@	158
懂@@	158
1851	158
披@@	157
貂@@	157
烤	157
沾	157
侍	157
棕@@	157
派出	157
辕	157
鸦	157
丛	157
咽	157
妾	157
1860	157
５@@	156
■	156
埠	156
滇	156
稼	156
梭	156
穆斯林	156
挖@@	156
竿	156
舌	156
茱@@	156
用以	156
殉@@	155
巍@@	155
88@@	155
讼	155
遣	155
跋	155
伞	155
1400	155
禽	155
侍@@	155
唇	155
∶	155
褐@@	155
嬴@@	155
敲	155
路易@@	155
弥	155
硅@@	155
瑰@@	155
莓	155
宛	155
２	155
怒@@	155
刺史	154
邮	154
吟@@	154
冶@@	154
锻@@	154
119	154
汀	154
旺@@	154
楷@@	154
陷入	154
辙	153
鸥	153
沼@@	153
奢@@	153
穷@@	153
帮@@	153
110@@	153
悄@@	153
1910	153
盲@@	153
囚@@	153
祁@@	152
沛@@	152
榴	152
源自	152
蛇@@	152
檀	152
涩	152
６	152
1899	152
冻@@	152
电台	152
踢	152
裳	151
河道	151
历任	151
礁	151
绅	151
咨@@	151
娱	151
洲@@	151
湛	150
水库	150
酿	150
维尔	150
枣@@	150
弧	150
再度	150
莞	150
280	150
访@@	150
鲸@@	150
裹	150
８@@	150
酬	150
澄	149
私人	149
下属	149
咽@@	149
酋@@	149
溃	149
裘	149
郝	149
烤@@	148
奸@@	148
饥@@	148
丢	148
胥	148
霜@@	148
徙	148
贺@@	148
愉@@	148
杖	148
淄@@	148
拌	148
莉@@	148
饿	147
韵@@	147
33@@	147
坪	147
屡@@	147
罗斯	147
例@@	147
120@@	147
非法	147
持@@	147
湛@@	147
俯@@	147
搅@@	147
210	146
撤销	146
踏@@	146
茫@@	146
敢@@	146
蕴	146
贡@@	146
恼	146
11@@	145
112@@	145
披	145
肿	145
寅	145
僧@@	145
雀@@	145
扭@@	145
顿@@	145
吊	145
1850	145
笙	145
奸	145
罗马@@	145
拘@@	144
刹	144
主流	144
玻@@	144
衫	144
ー	144
骏@@	144
褒@@	144
栖@@	144
锐@@	144
羞@@	143
４@@	143
35@@	143
詹	143
绮	143
派遣	143
引入	143
贷@@	143
膏	143
1901	143
鳃	143
匙	143
慰	142
厘	142
矩	142
2500	142
苯	142
贮@@	142
函	142
奚	142
自此	142
重建	142
拨@@	142
倍@@	142
成本	142
狐@@	142
庚@@	142
通往	141
遂@@	141
荔@@	141
晕	141
劣	141
旨@@	141
伸	141
惩@@	141
凝	141
穹	141
抬@@	140
３@@	140
117	140
臻	140
粘	140
模型	140
缴	140
60@@	140
指定	140
娇@@	140
廷@@	140
刮	140
打算	140
缔@@	139
α	139
讳	139
革@@	139
了@@	139
皱@@	139
擒	139
肴	139
蜘@@	139
爹	139
此事	139
缚	139
笼	139
202	139
服役	139
丢@@	139
摧@@	139
院士	139
皓	139
溉	139
瑶@@	139
赦	139
绥@@	139
肆	138
牢@@	138
孕@@	138
碟	138
滕	138
荡@@	138
桧	138
淳@@	138
苍	138
郦	137
乏	137
助理	137
悄	137
貌@@	137
诊	137
项@@	137
胎@@	137
淘汰	137
倚	137
撞@@	137
截	137
侄@@	137
姥@@	137
基于	137
８	136
厨@@	136
磅@@	136
拔@@	136
1863	136
６@@	136
缠@@	136
雉	136
峪	136
柿	136
污	136
摔@@	136
楂	135
验@@	135
膨@@	135
抽	135
礴	135
阜@@	135
筹	135
轴@@	135
泪@@	135
搏	135
1644	135
稳	135
玲@@	135
1889	135
麋@@	134
28@@	134
256	134
朵@@	134
竺	134
抄	134
105	134
曾@@	134
债	134
韶@@	134
河畔	134
提升	134
1722	134
店@@	134
芝@@	134
搭	134
55@@	133
1881	133
巅@@	133
没@@	133
浊	133
拒	133
玩家	133
蔚	133
裸@@	133
汝@@	133
浙@@	133
履	133
依照	132
携	132
絮	132
萝	132
岂	132
９	132
束@@	132
引擎	132
岱@@	132
峨	131
10000	131
祈@@	131
槽	131
涧	131
114	131
7000	131
稷	131
呐@@	131
筑@@	131
溪@@	131
榆@@	131
拇@@	131
须@@	131
疼@@	131
麒@@	131
蝶@@	130
邦@@	130
後	130
勾	130
滇@@	130
窃	130
履@@	130
1909	130
1886	130
晷	130
棵	130
抛@@	130
架@@	130
俘@@	130
戟	130
予@@	130
涵@@	129
递@@	129
拆	129
搜	129
娴	129
铵	129
鹰@@	129
扑@@	129
郎@@	129
禺	129
115	129
障	129
岭@@	129
18@@	129
誓@@	129
沱@@	129
让@@	129
俘	128
煮@@	128
鳄	128
患@@	128
罕	128
煎	128
蚓	128
鸵@@	128
牵	128
漠@@	128
悦@@	128
1800	128
块@@	128
兹@@	128
冉	127
〖	127
鞍@@	127
７@@	127
主教	127
柜	127
皖@@	127
效率	127
洵	127
笼@@	127
痴@@	127
烽@@	127
砂@@	127
1839	127
稍@@	127
拉克	127
鲟	127
歇	127
屑	127
覆	127
奎@@	127
劲@@	127
拟@@	126
三世	126
屯	126
抢	126
诊@@	126
刃	126
唤@@	126
俐	126
昧	126
程式	126
跆@@	126
匪	126
策略	126
锰	126
秩@@	126
炀@@	126
衬@@	126
墟	126
彼	126
の	126
忒	125
樟@@	125
蚯@@	125
芒@@	125
隙	125
π	125
帕	125
桌@@	125
90@@	125
宅	125
裤	125
痴	125
懈	125
〗	125
并入	125
巫	125
琅	124
挝	124
砌	124
庶@@	124
城镇	124
躯	124
坷	124
似@@	124
兼任	124
166	124
北面	124
沧	124
竣@@	124
嵌	124
孚	124
伍@@	124
104	124
骤	124
暨	123
粽@@	123
1875	123
趵@@	123
阔@@	123
哭@@	123
伽	123
168	123
晖	123
预	123
萸	123
弗朗@@	123
婷@@	123
肇@@	123
颐@@	123
脖@@	122
敞	122
聊	122
馏	122
嗓@@	122
鸠	122
啼	122
枕	122
1864	122
售@@	122
馒@@	122
觅	122
″	122
爪	122
锅@@	122
蔽	121
冈@@	121
寡@@	121
蒲@@	121
匆@@	121
册@@	121
挤	121
邪@@	121
醒@@	121
昆	121
汐	121
每日	121
疗@@	121
篡@@	121
∩	121
妥@@	121
账	121
拯@@	121
裕@@	121
僵@@	121
200@@	121
试图	121
珀	121
旅客	121
庭@@	120
40@@	120
暮@@	120
哆	120
ン	120
缠	120
汶	120
1884	120
廓	120
啸	120
俭	120
政党	120
躯@@	120
躬	119
娲	119
渔	119
栗	119
码@@	119
晦	119
厌@@	119
察@@	119
奘	119
诏@@	119
睹	119
抹	119
瞻	119
起初	119
己@@	119
公分	119
孩@@	119
谟@@	119
琅@@	119
例子	119
站@@	119
纣	119
350	119
术@@	119
摘	119
璇	119
1100	118
轲	118
弓@@	118
勋@@	118
找@@	118
鳞@@	118
衬	118
沸	118
贬@@	118
逸@@	118
奢	118
浴	118
鞭@@	118
锣	118
分支	118
07@@	118
城堡	118
接收	118
棕	118
慷@@	118
漓	118
涤	118
滴@@	118
吒	117
路口	117
嫌	117
○	117
市委	117
愈@@	117
闯@@	117
悼	117
焕	117
票房	117
膝	117
垣	117
筠	117
柠@@	117
早上	117
扁	117
笠	117
戛@@	117
烦@@	117
淇	117
柱@@	117
涨@@	117
荧@@	117
曝@@	116
谐@@	116
靓@@	116
迟@@	116
阻止	116
趁	116
未有	116
囚	116
羿	116
禾	116
诛	116
100@@	116
痕@@	116
霄	116
允@@	116
135	116
谦@@	116
崩@@	116
租@@	115
罚@@	115
兑@@	115
畜@@	115
羌	115
滁@@	115
坐标	115
犀@@	115
萃	115
畴	115
骡	115
账@@	115
ト	115
钓	115
栏@@	115
灌	115
绕@@	115
跌@@	115
滥	114
祸@@	114
菇	114
遮@@	114
虫@@	114
冶	114
俱@@	114
情形	114
央	114
斧	114
抛	114
盈@@	114
羲	114
秒@@	114
琉@@	114
孵@@	113
汪@@	113
橙@@	113
彦@@	113
1799	113
钰	113
圈@@	113
陋	113
霉	113
蝎	113
磅	113
韧	113
骄	113
瀑	113
耿	113
＂	113
瑛	112
1893	112
＋	112
撤	112
韶	112
殊@@	112
⑥	112
赌@@	112
胖@@	112
傍@@	112
趣@@	112
段@@	112
彭@@	112
103	112
份@@	112
俪	112
坠@@	112
屯@@	111
督@@	111
出售	111
沦@@	111
☆	111
原先	111
240	111
妒	111
酱	111
巍	111
笋	111
歧@@	111
驼@@	111
掉@@	111
1861	111
格式	111
侵	110
箭@@	110
测试	110
辟@@	110
坟	110
犬@@	110
璐	110
碰	110
45@@	110
廉@@	110
躲@@	110
鲨@@	110
雇@@	110
琳@@	110
闯	110
潘@@	110
砍	110
129	110
绑@@	110
叠@@	110
荫	110
灶	109
刹@@	109
蚕@@	109
耍	109
浣@@	109
氟@@	109
1907	109
陨@@	109
碎@@	109
逖	109
阑@@	109
风暴	109
德语	109
任教	109
陀@@	109
1789	109
昔	109
挠	109
睿@@	109
育@@	108
愁@@	108
卯	108
鹳@@	108
泗@@	108
121	108
媳@@	108
酋	108
逍@@	108
骊@@	108
倦	108
鳄@@	108
闸	108
蠡	108
宅@@	108
◎	108
醛	108
旱@@	108
34@@	108
抹@@	108
兄@@	107
蜗@@	107
咱@@	107
疼	107
徵	107
葵@@	107
串@@	107
退休	107
膛	107
擅	107
犯@@	107
芜@@	107
埔	107
欠	106
1848	106
冀@@	106
凶	106
铢	106
昔@@	106
嘎	106
拯	106
檐	106
诈	106
嫂	106
祁	106
德里@@	106
键@@	106
矢	106
炒@@	106
狱@@	105
砂	105
捉@@	105
中山@@	105
遐@@	105
吻@@	105
蝗@@	105
38@@	105
155	105
韬	105
潼	105
翼@@	104
锂	104
槟	104
1866	104
翡@@	104
明治	104
妮@@	104
垫	104
匆	104
淇@@	104
茉@@	104
1862	104
拓@@	104
省委	104
腓@@	104
咯	103
圭@@	103
住宅	103
嘲@@	103
社区	103
37@@	103
堆@@	103
府@@	103
咬	103
甚@@	103
株@@	103
环形	103
恬	103
1903	103
1890	103
﹐	103
亏	103
蜓	103
渲@@	103
汕@@	103
删@@	103
簿	103
天皇	103
蔡@@	103
喀	103
加州	102
臣@@	102
车站	102
酵@@	102
浴@@	102
法官	102
侈	102
靠@@	102
缶	102
绒	102
瘤	102
@	102
蜻@@	102
曦	102
煞	102
讽	102
电力	102
窑	102
漆	102
208	101
狩@@	101
39@@	101
р	101
弊	101
秉@@	101
泸@@	101
о	101
ⅱ	101
吓	101
傻	101
扶	101
侗@@	100
仇@@	100
捧@@	100
袭@@	100
1902	100
媒@@	100
驿	100
腕	100
纥	100
赖@@	100
爪@@	100
甥	100
醋@@	100
桦	100
馆@@	99
狠	99
蔗	99
1856	99
嘎@@	99
搏@@	99
с	99
镶	99
挫@@	99
菱	99
剿	99
锋@@	99
歼	99
巢@@	99
橘	99
匀@@	99
抨@@	99
庇@@	99
265	99
僳	99
殇	99
蜒	98
寝	98
迅@@	98
凸@@	98
渤	98
沂@@	98
挨	98
1871	98
廿@@	98
闺@@	98
汾	98
拖	98
洒@@	98
嚼	98
黜	98
截至	98
涅	98
常委	98
缔	97
陕	97
鞋@@	97
檀@@	97
尧@@	97
蚊	97
29@@	97
胧	97
琍	97
陡@@	97
炽	97
刷@@	97
1879	97
砍@@	97
欲@@	96
弧@@	96
芷@@	96
椰@@	96
虐	96
耸	96
燮	96
晃	96
曳	96
黔@@	96
颂@@	96
隅	96
耸@@	96
狸	96
葛@@	96
嘱	96
拐	96
坎	96
框	96
稹	95
逾	95
嗜@@	95
虽@@	95
邢@@	95
措	95
肿@@	95
1891	95
霹@@	95
虹@@	95
褪@@	95
帐@@	95
星系	95
瀚	95
公尺	95
诣	95
跤	94
112	94
镶@@	94
芸	94
诫	94
齿@@	94
翊	94
盎@@	94
113	94
暝	94
猩@@	94
寅@@	94
届@@	94
魁@@	94
48@@	94
步兵	94
法案	94
雳	94
е	94
篱	94
炖	94
165	93
拉斯@@	93
械	93
竭	93
款@@	93
渣	93
桶	93
塌	93
瞒	93
扔	93
秤	93
普查	93
1880	93
灿	93
璀@@	93
暴力	93
尉@@	93
诃	93
饱	93
1892	93
壶@@	92
舆@@	92
此地	92
43@@	92
缸	92
漳@@	92
擦@@	92
丙	92
侍郎	92
拾@@	92
墅	92
偃@@	92
浸	92
琥@@	92
亳@@	92
拆@@	92
氟	92
遮	92
隧道	92
勺	92
京都	92
旷	92
摹	92
颢	91
诱	91
坂	91
沪@@	91
361	91
诀	91
毙	91
谜@@	91
泷	91
1876	91
部份	91
辰@@	91
裸	91
1847	91
氛@@	91
氨	91
澜@@	91
朦@@	91
料@@	91
颈@@	91
支援	91
谨@@	91
赢@@	91
淝@@	91
寡	91
贪	90
踞	90
1869	90
蝉@@	90
勿@@	90
兔@@	90
斯塔@@	90
163	90
系@@	90
绣@@	90
凑	90
淫	90
114@@	90
1885	90
猩	90
径@@	90
滤@@	90
1859	90
控@@	90
挣@@	90
薰	90
腺@@	89
劫@@	89
挫	89
宦	89
102	89
轰	89
匾	89
勉@@	89
缪	89
斯坦@@	89
铎	89
壑	89
420	89
1853	89
か	89
1828	89
逊@@	89
哑	89
芜	89
提及	89
贩@@	89
佰	89
纺	89
骚@@	89
滞	89
梆@@	88
━	88
蒜	88
峦	88
汴	88
奎	88
烃	88
嫡	88
睐	88
в	88
132	88
鞠@@	88
绛	88
懒	88
屹@@	88
桀	88
筋@@	88
1865	88
敛	88
材@@	88
铀	88
魁	88
熬	88
糊@@	88
询@@	88
蜿@@	88
滥@@	88
脾@@	87
璨	87
雏	87
拦@@	87
隶@@	87
纹@@	87
烹	87
淄	87
陲	87
熏@@	87
盼	87
ん	87
1870	87
楷	87
椅	87
酯	87
姊@@	87
涿@@	87
崭@@	87
佚	87
桢	87
祜	87
605	87
枯	87
揽	87
跪	87
婕	87
摸@@	87
湄@@	87
慰@@	86
忌@@	86
抑	86
淤@@	86
姒	86
藻@@	86
闾	86
坠	86
蚌	86
挤@@	86
蝇	86
襞	86
佬	86
邯	86
诠@@	86
鳞	86
邢	86
解散	86
冼	86
敖	86
膀@@	86
竞	86
迩	86
亥@@	86
惹	86
皂	86
1820	86
115@@	86
漂	85
洱	85
瘦@@	85
怨@@	85
堵@@	85
涓	85
贮	85
稚	85
118	85
剩@@	85
烫	85
拘	85
＿	85
1883	85
逝@@	85
仄	85
兽@@	85
巳	85
厅@@	85
法庭	85
薰@@	84
1804	84
岸@@	84
瞿@@	84
跌	84
汨@@	84
冤@@	84
粥	84
111	84
宥	84
恬@@	84
1805	84
109	84
邕	83
英里	83
窝@@	83
胤@@	83
惶@@	83
矮@@	83
拂	83
牲@@	83
踢@@	83
斯托@@	83
1792	83
蓟	83
榕@@	83
铮	83
泛	83
衍@@	83
靴	83
烁	83
霁	83
倩@@	83
1888	83
溯	83
藕	82
拙	82
灼	82
方程	82
弼	82
鬟	82
安德@@	82
剖	82
握@@	82
胱	82
趾	82
眺	81
淋	81
炳	81
摄	81
驳	81
{	81
臼	81
酥@@	81
竖	81
杉@@	81
挟	81
旦@@	81
寥	81
蚌@@	81
桩	81
嬴	81
哩	81
俅	81
190	81
驴@@	81
珐@@	81
迭	80
175	80
署@@	80
藉	80
傻@@	80
栩	80
绞@@	80
盼@@	80
徊	80
濮@@	80
苇	80
195	80
谡	80
蟹@@	80
嘿	80
绳@@	80
警告	80
106	80
衢@@	80
悍	80
1654	80
杯@@	80
烘@@	80
萤@@	80
踩	80
机车	80
落成	80
к	79
豌@@	79
溜	79
砸	79
绯@@	79
阮@@	79
320	79
瞳@@	79
生物@@	79
漪	79
疫@@	79
矛	79
搬	79
惜@@	79
琰	79
钞	79
1897	79
梧@@	79
喷	79
禹@@	79
淹@@	79
3500	79
函@@	79
竭@@	79
瞰	79
完工	79
泳@@	79
鞍	79
葱@@	78
叟	78
峭	78
柜@@	78
1827	78
胞@@	78
兜	78
返@@	78
漓@@	78
丸@@	78
125@@	78
翌年	78
厨	78
钥@@	78
渭	78
巽	78
鑫@@	78
酱@@	78
梢	78
朔@@	78
鳍@@	78
戍	78
棺	77
煎@@	77
牟@@	77
鹭	77
绮@@	77
叭	77
咪	77
糙	77
305	77
苟	77
叹@@	77
洼	77
集合	77
彷@@	77
皋	77
缕	77
腥	77
逮捕	77
璃	77
晔	77
坑@@	77
し	77
谪@@	77
菏@@	76
高雄	76
袋@@	76
诬@@	76
钝@@	76
恭@@	76
}	76
泄@@	76
汶@@	76
郗	76
陋@@	76
蚪	76
蝌@@	76
蛙@@	76
钮	76
赐@@	76
炯	76
珅	76
癌@@	76
650	76
舶	76
驶@@	76
罡	76
扼@@	76
ル	76
扈	76
1661	76
饥	76
捍@@	75
砖@@	75
持有	75
皱	75
1852	75
汲@@	75
茸	75
桨	75
焰@@	75
154	75
绑	75
1700	75
毗	75
咒	75
撤退	75
掘@@	75
酝@@	75
配置	75
ク	75
聋	75
凋@@	75
260	75
碘@@	75
戚@@	75
л	75
馨@@	75
藩@@	75
181	75
潼@@	75
黛	75
羡	75
朕	75
咬@@	75
霓@@	74
缝@@	74
吁	74
47@@	74
涎	74
迄	74
彝	74
64@@	74
烛@@	74
ス	74
沐@@	74
忆@@	74
入口	74
辜	74
1882	74
–	74
晤@@	74
酥	74
炅	73
谕	73
1868	73
盏	73
躲	73
疟@@	73
鑫	73
鹗	73
衮	73
镍	73
珑	73
仆@@	73
吝@@	73
145	73
403	73
峻@@	73
稠@@	73
苔	73
340	73
夸	73
妞	73
公爵	73
舆	73
俏	73
媚@@	73
蓉@@	73
肇	73
莆@@	72
棱@@	72
浚	72
影像	72
喧	72
楔@@	72
琊	72
恢@@	72
涿	72
116	72
婺@@	72
议员	72
慌	72
邺	72
鳖	72
妥	72
徨	72
鹂	72
嬛	72
氦	72
佘	72
帷@@	72
1887	71
啥	71
暇	71
掠	71
羚@@	71
羁	71
渥@@	71
瘁	71
哟	71
颅	71
框@@	71
怡@@	71
妲@@	71
讶	71
211	71
酉	71
页@@	71
沅@@	71
蔚@@	71
渚	71
荃	71
伶	71
籽	71
暑@@	71
苛@@	71
矗@@	71
孛	71
狠@@	71
妨	71
嫉@@	71
甫@@	71
鹊@@	70
镭	70
啬	70
圃	70
佣	70
箫	70
狡@@	70
勉	70
蕲@@	70
闵	70
梗	70
咀@@	70
溅	70
饶@@	70
シ	70
柿@@	70
郅	70
嬉@@	70
#	70
炭@@	69
沐	69
156	69
疯	69
芮	69
愚	69
噶@@	69
禄@@	69
诃@@	69
簧	69
1616	69
旻	69
憨@@	69
歧	69
滩@@	69
锰@@	69
450	69
1770	69
郴@@	69
诈@@	69
呐	69
谎	69
谅	69
洱@@	69
怆	69
抒	69
渍	69
玖	69
序列	69
囧	69
侃	69
渠@@	69
沽	69
酉@@	69
式@@	69
睦	69
腮	68
燧	68
2400	68
75@@	68
侏@@	68
梓@@	68
99@@	68
冉@@	68
亢	68
僻	68
眷@@	68
涡	68
◇	68
入球	68
⑴	68
脆@@	68
苷@@	68
巅	68
傍	68
旷@@	68
歉	68
饿@@	68
拢	68
谯	68
皓@@	68
184	67
胺	67
107	67
剖@@	67
た	67
徘@@	67
棚	67
客运	67
氓	67
堡@@	67
肤@@	67
跋@@	67
遣@@	67
钓@@	67
腕@@	67
沅	67
黏@@	67
劈@@	67
蛾	67
堵	67
瑜@@	67
凛@@	67
抬	67
酌	67
栩@@	67
脾	67
淆	67
摊	67
宕	67
窍	67
122	66
炫@@	66
刍	66
56@@	66
涕	66
逻	66
苔@@	66
9000	66
躁	66
铂	66
焚	66
隘	66
彘	66
睾@@	66
吓@@	66
贷	66
囊@@	66
馀	66
幔	66
陛@@	66
侯@@	66
蘸	66
袖@@	66
婵@@	66
斥@@	66
н	66
犀	66
琥	66
傣	66
漱	65
瞎@@	65
ᆫ	65
1821	65
204	65
蘑@@	65
凹@@	65
臧	65
贩	65
诡@@	65
案@@	65
弃@@	65
桔@@	65
炜	65
谎@@	65
鹦@@	65
庾	65
扒	65
浇@@	65
薇@@	65
侗	65
掩	65
玺	65
馅	65
跻@@	65
党委	64
虾@@	64
1835	64
褒	64
爽@@	64
44@@	64
寸@@	64
陬	64
琢	64
闸@@	64
梳@@	64
壳@@	64
咐	64
缆	64
姗	64
祺	64
↑	64
54@@	64
撕@@	64
敷	64
博物@@	64
铝@@	64
暹@@	64
桔	64
57@@	64
奕@@	64
楹@@	64
噬	63
钴	63
笨@@	63
192	63
赎@@	63
嗅@@	63
苯@@	63
踪@@	63
嫔	63
巴士@@	63
痒	63
札	63
醇@@	63
熏	63
撕	63
逋	63
鲤@@	63
驯@@	63
潦@@	63
榈	63
逅	63
昊	63
堕@@	63
谍	63
邂@@	63
2100	63
猕@@	63
￥	62
183	62
垃@@	62
祠@@	62
圾	62
赔	62
掺	62
颤@@	62
剌	62
改建	62
乘客	62
矫@@	62
999	62
陌	62
丫	62
141	62
缢	62
绫	62
皿	62
兀	62
173	62
207	62
孺	62
绅@@	62
渝@@	62
峥	62
钡	62
趁@@	62
嗜	62
阪	62
玫	62
帛	62
ᄋ@@	62
敖@@	62
耆	62
伊斯	62
喘	62
逗	62
邃	61
韧@@	61
崖@@	61
丹尼@@	61
催	61
叮@@	61
裤@@	61
媲@@	61
肽	61
估	61
蔓	61
羹	61
控股	61
妄@@	61
毯	61
勘@@	61
209	61
阖@@	61
琏	61
270	61
萍@@	61
133	61
禽@@	61
饼@@	61
晕@@	61
羡@@	61
178	61
321	61
簇	61
轶@@	61
坡@@	61
螂	61
狩	61
骥	61
坟@@	61
汕	61
寥@@	61
颌	61
逢@@	61
佶	61
绢	60
镐	60
116@@	60
□	60
祚	60
溃@@	60
祷	60
骋	60
芋	60
函数	60
弊@@	60
巷@@	60
榄@@	60
吼	60
陇	60
企	60
莘	60
闹@@	60
秭@@	60
妄	60
羚	60
黍	60
灏	60
÷	60
骤@@	60
550	60
⑦	60
蔷	60
酚	60
溯@@	59
漯@@	59
洨	59
750	59
杆@@	59
浊@@	59
饺@@	59
纭	59
172	59
肚	59
蛮@@	59
46@@	59
逾@@	59
▲	59
苷	59
飙	59
126	59
浔@@	59
璞	59
193	59
沁@@	59
呕@@	59
庸@@	59
167	59
旎	59
嫉	59
峭@@	59
缪@@	59
衢	59
珞@@	59
翦	59
柑@@	58
爵@@	58
栗@@	58
苻@@	58
1872	58
呆@@	58
仞	58
董@@	58
1750	58
麽	58
匠@@	58
174	58
忱	58
荟@@	58
219	58
蛛@@	58
螃@@	58
篆@@	58
｜	58
抖	58
138	58
岐	58
押@@	58
虐@@	58
洼@@	58
钵	58
恪	58
2016	58
裙	58
憎	58
墩	57
1815	57
澡	57
啄@@	57
榕	57
乖@@	57
1794	57
熄@@	57
惇	57
赚	57
敞@@	57
い	57
怎	57
弗里@@	57
驿@@	57
蔻	57
亘	57
1867	57
鳌@@	57
330	57
乍	57
妓	57
喂	57
1776	57
1854	57
琪@@	57
旖@@	57
瑕	57
1735	57
117@@	57
褚	57
斯科@@	57
岱	57
禛	56
盔	56
绛@@	56
捞	56
370	56
窃@@	56
泌@@	56
秃@@	56
1810	56
北海道	56
匿	56
ア	56
1715	56
妓@@	56
咳@@	56
偕@@	56
槿	56
狸@@	56
嵇	56
扯	56
羯	56
棱	56
诙@@	56
租界	56
仗@@	56
裴@@	56
乞	56
违	56
募	56
嵊@@	56
梗@@	56
淌	56
翘@@	56
鬓	56
廊@@	56
65@@	56
旭@@	56
ラ	56
127	56
讯@@	56
掖	56
笺	56
菁	56
217	56
悼@@	56
212	56
辗@@	56
176	56
奂	56
垦	56
戊	56
鄙	56
フ	56
勰	56
560	55
榨@@	55
褶@@	55
］	55
缭@@	55
遵	55
悴	55
1831	55
乍@@	55
袤	55
昕	55
腔@@	55
128	55
灸	55
139	55
罐	55
撷	55
1873	55
戌@@	55
铂@@	55
攀	55
矢@@	55
μ	55
1814	55
寐	55
63@@	55
164	55
臀@@	55
169	55
邸	55
位於	55
恕	55
厄	55
丐	55
挽	55
1849	55
啼@@	55
娣	54
魂@@	54
铲	54
婶	54
1837	54
唇@@	54
冥	54
蓓	54
斐	54
腑	54
凋	54
蔓@@	54
1857	54
龄@@	54
ᄉ@@	54
嘻@@	54
259	54
譬@@	54
朽@@	54
夔	54
戮	54
窑@@	54
麟@@	54
繇	54
な	54
鹄	54
夭@@	54
［	54
逗@@	53
欠@@	53
漱@@	53
捣	53
芯@@	53
坝@@	53
1809	53
〃	53
蒿	53
飙@@	53
漳	53
改制	53
商店	53
箍@@	53
162	53
杞	53
痰	53
185	53
儡	53
俏@@	53
傀@@	53
1843	53
缇	53
钜	53
畏@@	53
炽@@	53
70@@	53
雯@@	53
程@@	53
134	53
т	53
う	53
濯	53
栓	53
濠	53
涟	53
叩	53
彪@@	53
由於	52
珪	52
晗	52
翩	52
沌	52
牵引	52
1795	52
哨	52
鹉@@	52
诛@@	52
喂@@	52
1844	52
芸@@	52
袂	52
⑵	52
摹@@	52
憔@@	52
芾	52
珂	52
124	52
22@@	52
锯@@	52
159@@	52
咳	52
翎	52
鹫	52
棺@@	51
ο	51
屁@@	51
躺	51
306	51
闫	51
茄@@	51
扭	51
瞿	51
歆	51
聃	51
怅	51
愍	51
垢	51
苞	51
夭	51
枕@@	51
哎	51
蕨@@	51
86@@	51
123	51
溴@@	51
鄙@@	51
忻@@	51
酣	51
钳	51
�	51
删	51
琐@@	51
呗	51
像@@	51
187	51
卿@@	51
蓦@@	51
赂	51
讹	51
189	51
藓	51
侄	51
晒@@	51
布里@@	51
﹑	51
扩	51
263	50
滔	50
稠	50
髻	50
嫩@@	50
捏	50
1787	50
摔	50
眸	50
姻@@	50
焊@@	50
谛	50
驭	50
嗽	50
滔@@	50
饯@@	50
酮	50
侨@@	50
斡@@	50
栽	50
疮	50
铲@@	50
肢@@	50
琢@@	50
骗@@	50
姬@@	50
忙@@	50
菌@@	50
淫@@	50
1877	50
淼	50
睁@@	49
赌	49
蟋@@	49
隽@@	49
诵@@	49
溴	49
136	49
278	49
萋	49
衙@@	49
膺	49
俨@@	49
栈	49
303	49
1874	49
177	49
谪	49
垓@@	49
遏@@	49
娴@@	49
啦@@	49
匾@@	49
聘@@	49
鹳	49
悍@@	49
蟀	49
漆@@	49
蟠@@	49
犷	49
凄	49
ⅰ	49
釉@@	49
粪@@	49
1785	49
瞻@@	49
饪	49
绥	48
1782	48
匡@@	48
遨@@	48
训@@	48
1823	48
孜@@	48
媳	48
尬	48
锈@@	48
灼@@	48
瞳	48
晟	48
贰	48
萋@@	48
鳔	48
缨	48
狙@@	48
ロ	48
匣	48
俺	48
虔@@	48
列表	48
瓯@@	48
熙@@	48
眷	48
耿@@	48
刎	48
祐	48
1824	48
浇	48
糟@@	48
沔	48
汛@@	48
侮@@	48
剃@@	48
巳@@	48
伶@@	48
唢@@	48
懦@@	48
恍@@	48
茧	48
21@@	48
ハ	48
001	48
颁	48
荥@@	48
476	48
拂@@	48
娄@@	48
腿@@	48
蒯@@	48
彰@@	48
槛	47
锄	47
釜@@	47
瞧	47
182	47
丈@@	47
386	47
137	47
爹@@	47
喔	47
1822	47
瞎	47
ι	47
萁	47
剔@@	47
卞	47
梭@@	47
焕@@	47
1845	47
嗣@@	47
豁@@	47
篷	47
稼@@	47
崤	47
昱	47
385	47
壬	47
嫔@@	47
募@@	47
婶@@	47
沥@@	47
鹏@@	47
樵	47
蛤@@	47
窜	47
尴@@	47
珀@@	47
1797	47
ᆼ	47
樟	46
229	46
骓	46
箔	46
脏@@	46
嘱@@	46
璜	46
综	46
く	46
1833	46
1791	46
│	46
麼	46
栽@@	46
侬	46
卸	46
杭@@	46
拭	46
珙@@	46
さ	46
镖	46
烙	46
壹	46
リ	46
涮	46
崴	46
郭@@	46
蛰	46
兑	46
琮	46
棘	46
怜@@	45
袁@@	45
1643	45
笃@@	45
姊	45
188	45
喧@@	45
卯@@	45
炳@@	45
螳@@	45
1830	45
窥	45
潭@@	45
179	45
69@@	45
孪@@	45
勘	45
幢	45
地利	45
琨	45
罐@@	45
骸	45
脐	45
悔@@	45
懿@@	45
阎@@	45
麝@@	45
蒜@@	45
膝@@	45
蜃	45
扮@@	45
萦	45
裹@@	45
119@@	45
1858	45
姗@@	45
・	45
钙@@	45
曜	45
熬@@	45
绽@@	45
鞘	45
栋@@	45
菱@@	45
眶	45
耻@@	45
弋	44
000@@	44
窖	44
偿@@	44
笨	44
黯@@	44
畿	44
仡@@	44
142	44
蜕@@	44
豉	44
轨@@	44
扼	44
蜈@@	44
眺@@	44
哮	44
荟	44
540	44
岂@@	44
垩	44
渺	44
と	44
蕙	44
酚@@	44
迂@@	44
淘	44
95@@	44
啤	44
栈@@	44
懒@@	44
△	44
漩@@	44
鼬	44
1711	44
г	44
66@@	44
缉	44
⑶	44
谴@@	44
塘@@	44
蠕@@	44
闰	44
1878	44
鹅@@	44
225	44
裙@@	44
に	44
择@@	44
掐@@	44
1783	44
骡@@	44
318	43
歙@@	43
肋@@	43
祈	43
锷	43
贿@@	43
萎@@	43
衅	43
憧@@	43
努	43
113@@	43
接替	43
颉	43
√	43
赃	43
晤	43
劣@@	43
悯	43
般@@	43
辕@@	43
樽	43
146	43
魅	43
蛹	43
滞@@	43
佤@@	43
缅	43
磬	43
233	43
201	43
褐	43
り	43
谚@@	43
哑@@	43
1836	43
锯	43
氐	43
き	43
屌	43
赴@@	43
澹	42
怕@@	42
孑@@	42
邹@@	42
迢	42
葭	42
336	42
蚤	42
劾	42
睁	42
蟾@@	42
塾	42
讴@@	42
匪@@	42
颅@@	42
轿	42
鸢	42
漾	42
肽@@	42
汹@@	42
翩@@	42
扛	42
顼	42
1832	42
郓@@	42
斯科	42
翘	42
畲@@	42
濮	42
镐@@	42
501	42
м	42
恤	42
孢@@	42
186	42
叱@@	42
196	42
223	42
谟	42
1841	41
迢@@	41
薪@@	41
扉	41
作人	41
嗯	41
炆	41
201@@	41
鲨	41
316	41
镀@@	41
惫	41
践@@	41
町	41
炉@@	41
贽	41
湾@@	41
辫	41
痹	41
匿@@	41
1640	41
陉	41
荼	41
毋@@	41
蜍	41
侮	41
颙	41
蓟@@	41
倭@@	41
嗟	41
喆	41
秧@@	41
甯	41
它@@	41
1802	41
吵@@	41
撬@@	41
冽	41
嚣	41
1492	41
眩	41
憬	41
玑	41
妻@@	41
牟	40
乖	40
邶	40
1825	40
吨@@	40
阊	40
肛@@	40
颓@@	40
肋	40
穴@@	40
葩	40
吵	40
揣@@	40
蜚@@	40
荨	40
辍@@	40
窘@@	40
壬@@	40
歪@@	40
85@@	40
翁@@	40
赚@@	40
760	40
咲	40
稿@@	40
茵@@	40
臀	40
聆@@	40
294	40
纱@@	40
蔗@@	40
澶@@	40
嫡@@	40
寰	40
袄	40
晟@@	40
ᅵ@@	40
珲	40
媛@@	40
汾@@	40
胄	40
凛	40
昀	40
143	40
蜴	40
惆@@	40
疲	40
摧	40
钏	40
1620	40
裏	40
118@@	40
慨@@	39
67@@	39
1689	39
眦	39
梧	39
稚@@	39
瘟@@	39
鲤	39
溢@@	39
陡	39
1790	39
158	39
捐	39
鳝	39
磊@@	39
啸@@	39
揉	39
356	39
奠	39
豸	39
1829	39
皎@@	39
喇	39
槐	39
韬@@	39
耽@@	39
爻	39
蔑@@	39
198	39
樊@@	39
州府	39
蜥@@	39
堑	39
肘	39
502	39
巾@@	39
碾	39
湃	39
擎@@	39
柬	39
袜	39
村落	39
咤	39
铬	39
蹄@@	39
イ	39
235	39
挚@@	39
牦@@	39
鹭@@	39
敕	39
ᄌ@@	39
斯卡@@	39
馍	39
诩	38
1796	38
阖	38
孰	38
筛@@	38
366	38
钨@@	38
枉	38
铠@@	38
1838	38
熔	38
枭@@	38
碌	38
隽	38
婪	38
搁@@	38
338	38
碣@@	38
菽	38
1855	38
酪	38
197	38
盒@@	38
慎@@	38
頫	38
锟	38
224	38
埙	38
袜@@	38
斧@@	38
贲@@	38
麾@@	38
辫@@	38
430	38
霞@@	38
1816	38
嵬	38
弩	38
玻	38
藉@@	38
1642	38
贻@@	38
梵	38
珞	38
喽	38
倘@@	38
芷	38
吏@@	38
趟	38
遁	38
222	38
1817	38
曙@@	38
97@@	38
镛	38
褓	38
147	38
238	38
簪	37
溧@@	37
冯@@	37
倭	37
闺	37
卤@@	37
人次	37
215	37
蚩@@	37
雎	37
泠	37
嘈	37
襁@@	37
僵	37
234	37
毓@@	37
耋	37
ａ@@	37
刮@@	37
1707	37
殆@@	37
遭@@	37
筒@@	37
洄@@	37
窥@@	37
205	37
雹	37
肆@@	37
迥@@	37
ᅵ	37
谚	37
浣	37
瀛	37
纂@@	37
ᄒ@@	37
舵	37
渺@@	37
瑁	37
骂@@	37
⑧	37
驸@@	37
臂@@	37
升格	37
绰	37
茴@@	37
1769	37
阑	37
骈@@	37
亳	37
攸	37
驳@@	37
疡	37
妩@@	37
颍@@	37
壕	37
泾@@	36
醚	36
胰	36
瑷@@	36
国务@@	36
猖@@	36
焘	36
嘿@@	36
帼	36
鲫@@	36
擒@@	36
ま	36
羁@@	36
谤	36
柑	36
茜@@	36
劈	36
陂	36
濑	36
憎@@	36
喊@@	36
籁	36
喉@@	36
嗡	36
茗	36
78@@	36
53@@	36
嵋	36
涪@@	36
揭	36
鹜	36
绞	36
佣@@	36
釉	36
1846	36
顗	36
鲧	36
懑	36
砷	36
眙	36
盱@@	36
筱@@	36
膳	36
拐@@	36
泾	36
蕉@@	36
311	36
卸@@	36
湍@@	36
も	36
床@@	36
ا	36
惘	36
谙	36
逛@@	36
欺	36
み	36
拦	36
226	36
480	36
擂@@	36
娶@@	36
逛	36
刿	36
赁	36
は	35
239	35
埚	35
攸@@	35
て	35
遒	35
锲	35
矫	35
59@@	35
慌@@	35
匮	35
弛	35
迭@@	35
寰@@	35
疚	35
焗	35
㎡	35
大幅	35
β	35
佝@@	35
慑	35
911	35
瓢@@	35
扳@@	35
钛	35
蟆	35
杵	35
祛@@	35
际@@	35
捣@@	35
鞑@@	35
153	35
32@@	35
髦	35
蟠	35
狭	35
盂@@	35
斓	35
闳	35
氰@@	35
獒	35
倔@@	35
嫂@@	35
汁@@	35
偻	35
箴	35
315	35
榆	35
馗	35
盅	35
290	35
纨	35
饷	35
ッ	35
龈	35
タ	35
216	35
笃	34
蛔@@	34
堤@@	34
カ	34
涟@@	34
ᄀ@@	34
捆	34
520	34
钉@@	34
19@@	34
潺	34
畸@@	34
颚	34
1812	34
嘻	34
恃	34
俣@@	34
噢	34
痞@@	34
ᅡ@@	34
萼	34
孽	34
忏@@	34
1801	34
榭	34
觞	34
蛭	34
刁@@	34
接任	34
坩@@	34
甬@@	34
枚@@	34
悯@@	34
况@@	34
乡下	34
槌	34
夔@@	34
涝	34
哗	34
144	34
篱@@	34
煦	34
窒@@	34
胥@@	34
厕@@	34
171	34
祎	34
窈@@	34
窕	34
臆	34
锤@@	34
瘾	34
570	34
蹦@@	34
痪	34
膳@@	34
寮	34
捻	34
瘫@@	34
380	34
赈	34
蛎	33
耒@@	33
磺	33
腌@@	33
述@@	33
啄	33
浆@@	33
颊	33
浥	33
渗	33
挡@@	33
钥	33
1808	33
禊	33
蝎@@	33
1773	33
鸢@@	33
酞	33
昺	33
葡	33
沼	33
厮@@	33
挞	33
骠@@	33
歪	33
揉@@	33
胭@@	33
娩	33
捡	33
莺@@	33
弋@@	33
揖	33
扒@@	33
407	33
玹	33
柚@@	33
ⅲ	33
嫌@@	33
亏@@	33
箱@@	33
骁@@	33
曌	33
倘	33
谑	33
骁	33
噪	33
302	33
僖	33
轧	33
怆@@	33
庇	33
棍@@	33
捞@@	33
硒	33
ち	33
泗	33
谧	33
007	33
剥	33
佑@@	33
芽@@	33
157	32
333	32
剔	32
镉	32
洽	32
雎@@	32
640	32
吧@@	32
矛@@	32
630	32
耄@@	32
203	32
焖	32
镌@@	32
他@@	32
弈	32
68@@	32
簇@@	32
捆@@	32
惕	32
あ	32
嗡@@	32
1775	32
钝	32
糕@@	32
靳	32
癸	32
佚@@	32
疹	32
1703	32
苟@@	32
虻	32
濡	32
搓	32
蕾@@	32
掏@@	32
383	32
迸@@	32
嬅	32
355	32
吠	32
锥@@	32
璐@@	32
蠢	32
诲	32
缈	32
诰	32
圻	32
洮	32
曝	32
馥	32
锵	32
渑@@	32
涸	32
靼	32
婢	31
玟	31
289	31
臾	31
蹴	31
杷	31
升任	31
304	31
囱	31
244	31
咋	31
糜	31
呤	31
暄	31
议院	31
缎	31
搁	31
η	31
阆@@	31
257	31
逞	31
定性	31
觅@@	31
怯	31
钞@@	31
辋@@	31
悝	31
兖@@	31
301	31
马来@@	31
胫	31
525	31
レ	31
紊@@	31
詹@@	31
垦@@	31
凑@@	31
鲵	31
1648	31
擎	31
昶	31
垠	31
ρ	31
潺@@	31
濂	31
蚣	31
闱	31
扰@@	31
浔	31
テ	31
溺	31
衔@@	31
鲎	31
些@@	31
缮	31
镍@@	31
镰@@	31
涡@@	31
枥	31
杳	31
戳	31
1519	31
孺@@	31
唉	31
骈	31
枇@@	30
警方	30
254	30
161	30
笆	30
揣	30
1638	30
月台	30
246	30
傩	30
嘲	30
┈	30
2018	30
牒	30
瑄	30
阁@@	30
迤	30
橹	30
琛	30
哗@@	30
310	30
沮@@	30
椅@@	30
268	30
戬	30
1793	30
糟	30
425	30
颛@@	30
祗	30
蛤	30
崭	30
ナ	30
惩	30
蹋	30
耜	30
耙	30
58@@	30
暨@@	30
髯	30
疵	30
咱	30
隼	30
缥@@	30
ч	30
韭@@	30
掳	30
菁@@	30
盾@@	30
秉	30
淖@@	30
趴	30
凿@@	30
氦@@	30
1819	30
瓒	30
227	30
榻	30
琐	30
缙	30
辇	29
⊙	29
锣@@	29
绩@@	29
ら	29
颖@@	29
寝@@	29
1834	29
俾@@	29
该@@	29
蓑	29
袒	29
钨	29
ɡ	29
阕	29
椭	29
痞	29
鞑	29
剃	29
蟒	29
狈	29
馁	29
邳	29
廿	29
溺@@	29
孢	29
瑭	29
嫱	29
殆	29
掬	29
鸾	29
49@@	29
玥	29
逶@@	29
诅@@	29
簟	29
曙	29
卤	29
郢	29
奄	29
星等	29
峒	29
萤	29
咆@@	29
溜@@	29
惋@@	29
赎	29
尼亚@@	29
こ	29
蜥	29
稗@@	29
昊@@	29
谬	29
楹	29
脖	29
228	29
坤@@	29
谗@@	29
抠	29
垛	28
莽@@	28
衾	28
282	28
酣@@	28
垮	28
霏	28
凳	28
姻	28
76@@	28
锇	28
泵	28
绾	28
舷	28
遒@@	28
纶@@	28
樯	28
遁@@	28
烽	28
秣	28
鹑	28
1688	28
瀛@@	28
港元	28
癸@@	28
谣@@	28
218	28
樵@@	28
舂	28
甩	28
я	28
蹶	28
俟	28
440	28
512	28
洺	28
靓	28
札@@	28
镫	28
109@@	28
敝	28
讥@@	28
皈@@	28
烩	28
椰	28
1727	28
缜	28
靺	28
崎@@	28
楫	28
整合	28
蹬	28
惹@@	28
焙	28
翌@@	28
郢@@	28
悚	28
79@@	27
卅	27
帖@@	27
榨	27
恺@@	27
砚@@	27
柘	27
攘@@	27
拆除	27
嚼@@	27
娡	27
庑@@	27
汀@@	27
湮@@	27
脘	27
偃	27
1609	27
粒@@	27
泯	27
艮	27
汜	27
檄	27
鹘	27
矗	27
131	27
蛀@@	27
梳	27
槐@@	27
吩@@	27
猾	27
铿@@	27
辍	27
盯	27
婺	27
岐@@	27
肱	27
マ	27
嘌@@	27
澧	27
243	27
堇	27
涑	27
瞪	27
怠	27
1818	27
利亚@@	27
贼@@	27
斯基@@	27
ᆷ	27
荤	27
恢	27
х	27
毋	27
祟	27
叮	27
680	27
谓@@	27
呱	27
赧	27
嘶@@	27
兀@@	27
霭	27
岖	27
屁	27
括@@	27
佼	27
262	27
砸@@	27
151	27
ョ	27
⑷	27
ᅥ@@	27
353	27
砾	27
勺@@	26
站台	26
佤	26
伺@@	26
膊	26
780	26
ミ	26
λ	26
拴	26
嫣@@	26
γ	26
宙	26
コ	26
膨	26
椎@@	26
249	26
瓣@@	26
幺	26
§	26
畊	26
搅	26
邵@@	26
枸@@	26
沾@@	26
470	26
箍	26
妨@@	26
砼	26
ᅡ	26
580	26
谏@@	26
涛@@	26
〓	26
蹦	26
坊@@	26
354	26
噜	26
503	26
1778	26
攒	26
ノ	26
贿	26
呱@@	26
闷@@	26
煲	26
竽	26
焊	26
箫@@	26
317	26
叭@@	26
龛	26
隗	26
俭@@	26
巴士	26
蔑	26
287	26
蹈@@	26
325	26
菰	26
·@@	26
彧	26
葆	26
愧@@	26
84@@	26
苎	26
纠	26
湉	26
鞨	26
鲛	26
虔	26
159	26
挛	26
湟@@	26
341	26
惶	26
嶂	26
敕@@	25
鍦	25
キ	25
撬	25
虱	25
殁	25
379	25
浘	25
烂@@	25
甬	25
鐧	25
酬@@	25
龋@@	25
萱@@	25
拣	25
颤	25
д	25
属下	25
148	25
300@@	25
435	25
犰@@	25
490	25
狳	25
嗝	25
芈	25
缤@@	25
贲	25
咎	25
獬@@	25
娠	25
靶	25
谊@@	25
1758	25
羯@@	25
睑	25
撑@@	25
郧@@	25
叩@@	25
钮@@	25
炊@@	25
荽	25
ウ	25
绷@@	25
铨	25
1813	25
1781	25
1772	25
264	25
1759	25
叨	25
噩@@	25
214	25
渥	25
痉@@	25
｝	25
矾	25
236	25
±	25
400@@	25
蔼	25
271	25
沣	25
1763	25
谲	25
邛@@	25
淞	25
娆	25
ュ	25
谬@@	25
308	25
捂	25
瞄@@	25
б	25
嫖	25
诬	25
钳@@	25
1811	25
豕	25
ム	25
邛	25
74@@	25
圩	25
俸	25
乏@@	25
挨@@	25
ひ	25
婀@@	25
杞@@	25
604	25
77@@	25
烙@@	24
苜@@	24
莴@@	24
稽@@	24
磐	24
昙@@	24
149	24
缭	24
棘@@	24
萦@@	24
319	24
恳@@	24
敷@@	24
る	24
衙	24
绽	24
抉@@	24
锑	24
趾@@	24
347	24
簸	24
ふ	24
蘅	24
瞄	24
252	24
璘	24
蛊@@	24
σ	24
鸶	24
↓	24
鹌@@	24
暧@@	24
涞@@	24
247	24
鹇	24
筐	24
蓿	24
薛@@	24
1610	24
鸪	24
180@@	24
谍@@	24
驯	24
245	24
身分	24
284	24
375	24
950	24
镂@@	24
帙	24
哙	24
96@@	24
缉@@	24
晾	24
桅@@	24
瓯	24
1522	24
镳	24
602	24
塬	24
剡	24
唳	24
彬@@	24
1590	24
虢	24
晃@@	24
椒@@	24
呜@@	23
斋@@	23
禾@@	23
‰	23
す	23
灞@@	23
棣@@	23
φ	23
噩	23
睫@@	23
邗@@	23
铉	23
钿	23
煽@@	23
1453	23
ヒ	23
妊@@	23
幡	23
倜@@	23
瀚@@	23
息@@	23
830	23
撇	23
鞣@@	23
720	23
傥	23
妤	23
恳	23
у	23
335	23
508	23
瓢	23
谗	23
袅	23
ε	23
ほ	23
娑	23
拽	23
讧	23
ς	23
摊@@	23
610	23
徭@@	23
佼@@	23
堕	23
芊	23
栾@@	23
叉@@	23
抖@@	23
1450	23
288	23
辑@@	23
蚁@@	23
ل	23
咫@@	23
τ	23
谒	23
嬉	23
え	23
捏@@	23
夙@@	23
匕@@	23
431	23
撇@@	23
僖@@	23
咚	23
坂@@	23
睾	23
℉	23
墉	23
彗	23
渎	23
1760	23
337	23
鹈@@	23
笳	23
斟@@	23
冗@@	23
珥	23
轸	23
213	22
1540	22
334	22
烊	22
硝	22
1625	22
旌@@	22
鹧@@	22
阉@@	22
哎@@	22
宓	22
ᄇ@@	22
帧	22
罂@@	22
碗@@	22
膏@@	22
铳	22
垮@@	22
骇@@	22
歙	22
珉	22
荻	22
δ	22
翊@@	22
730	22
銮@@	22
箕	22
剂@@	22
克斯@@	22
鸳	22
98@@	22
簧@@	22
秆	22
970	22
淞@@	22
邰	22
｛	22
颍	22
槟@@	22
黯	22
瞬	22
坪@@	22
癫	22
禀@@	22
书馆	22
鹕	22
352	22
馄@@	22
啃	22
饨	22
丐@@	22
87@@	22
烷@@	22
砺	22
糠	22
逮	22
迹@@	22
诽@@	22
坨	22
343	22
诋@@	22
玏	22
碾@@	22
蹈	22
掳@@	22
273	22
晞	21
珈	21
枞@@	21
蛀	21
煞@@	21
碣	21
阱	21
や	21
蛟@@	21
骅	21
1762	21
驮	21
荩	21
赓	21
戎@@	21
碉@@	21
侑	21
侥@@	21
钺	21
顷@@	21
坍@@	21
ᄅ@@	21
蛟	21
绸@@	21
泓	21
菖@@	21
崽	21
誉@@	21
镁@@	21
贱@@	21
伞@@	21
辄	21
烬	21
嗦	21
溏@@	21
哄	21
稷@@	21
恙	21
忑	21
貂	21
涕@@	21
喘@@	21
逍	21
萃@@	21
纨@@	21
绔	21
髀	21
恼@@	21
チ	21
沱	21
毙@@	21
1742	21
伎	21
跪@@	21
293	21
346	21
蕖	21
袅@@	21
忻	21
艰	21
1260	21
胫@@	21
茸@@	21
剿@@	21
蟾	21
橇	21
呎	21
ᆨ	21
矩@@	21
313	21
萎	21
祇	21
饺	21
晌	21
辜@@	21
甩@@	21
舔	21
肓	21
υ	21
$	20
恿	20
搓@@	20
ь	20
基本@@	20
屐	20
绢@@	20
晦@@	20
睢@@	20
1803	20
307	20
袆	20
旃@@	20
幄	20
1754	20
枉@@	20
☺	20
═	20
405	20
伫@@	20
241	20
偕	20
腌	20
铛	20
鏖@@	20
1774	20
桉@@	20
2550	20
隍	20
邬	20
胯	20
顽	20
莒@@	20
揆	20
脯	20
锢	20
1806	20
ｉ@@	20
琬	20
鱿@@	20
篌	20
箜@@	20
需@@	20
潢	20
/@@	20
拧	20
谭@@	20
199	20
蕙@@	20
潞@@	20
芍@@	20
鲟@@	20
„	20
384	20
1250	20
羧@@	20
谒@@	20
322	20
ц	20
泠@@	20
玠	20
扔@@	20
襟@@	20
恻	20
躬@@	20
贻	20
馥@@	20
翔@@	20
筏	20
黟@@	20
壹@@	20
祢	20
248	20
垫@@	20
烯@@	20
189@@	20
蹲	20
涩@@	20
194	20
疤	20
1736	20
捡@@	20
亵	20
搐	20
瘤@@	20
1798	20
324	20
朓	20
艘@@	20
镯	20
锻	20
俩@@	20
澡@@	20
撮	20
≥	20
殴@@	20
膈	20
ｒ@@	20
铀@@	20
م	20
嵘	20
虞@@	20
1678	19
翎@@	19
500@@	19
1756	19
504	19
绊	19
氚	19
胳@@	19
麸	19
喳	19
黒	19
1627	19
ｎ@@	19
赦@@	19
躏	19
蹂@@	19
钧@@	19
婕@@	19
蒹@@	19
秸	19
芥@@	19
褶	19
珩	19
231	19
285	19
潸@@	19
拒@@	19
瘟	19
合物	19
析@@	19
娓@@	19
娓	19
1592	19
俑@@	19
410	19
纾	19
惚	19
瞌@@	19
460	19
娥@@	19
1768	19
遐	19
砾@@	19
880	19
530	19
惭@@	19
255	19
140@@	19
闵@@	19
1685	19
滦@@	19
氩	19
碌@@	19
镊@@	19
601	19
霓	19
汲	19
瑙@@	19
850	19
297	19
れ	19
п	19
崆@@	19
哺	19
靛	19
讷	19
筱	19
籽@@	19
髅	19
佞@@	19
件@@	19
柩	19
霄@@	19
ホ	19
286	19
馈	19
銮	19
骜	19
喙	19
疣	19
1725	19
鲲@@	19
ィ	19
瓘	19
塌@@	19
89@@	19
楔	19
篡	19
1667	19
聋@@	19
≤	19
漉	19
蛰@@	19
409	19
345	19
藜	19
衷@@	19
鄯@@	19
ˊ	19
飓风	19
馅@@	19
菡	18
χ	18
槊	18
兢	18
够@@	18
蹊@@	18
喳@@	18
390	18
淅@@	18
伎@@	18
1766	18
钾@@	18
掣	18
蠹	18
觎	18
觊@@	18
饵	18
怂@@	18
逑	18
焱	18
1660	18
蜕	18
鳟@@	18
姮@@	18
钼	18
惦@@	18
剁@@	18
咧	18
葳	18
虢@@	18
匮@@	18
梆	18
瓤	18
讥	18
脐@@	18
铠	18
豺@@	18
愉	18
ᅮ@@	18
浏	18
绯	18
钠@@	18
夙	18
滟	18
璧@@	18
骷@@	18
ｔ@@	18
囿	18
肱@@	18
1637	18
迸	18
掐	18
莒	18
590	18
1704	18
芮@@	18
嗓	18
镂	18
ケ	18
嘶	18
秃	18
络@@	18
嫘@@	18
鳌	18
珺	18
娟@@	18
榷	18
癫@@	18
鄞@@	18
荫@@	18
俨	18
燊	18
聿	18
溆@@	18
仑@@	18
1680	18
谅@@	18
楞	18
胁@@	18
ω	18
292	18
蜉@@	18
哮@@	18
痊@@	18
玕	18
罹@@	18
苣	18
穹@@	18
挣	18
憩	18
币@@	18
螈	18
謇	18
妒@@	18
191	18
73@@	18
踊@@	18
掺@@	18
吝	18
酰	18
お	18
茭@@	18
锭	18
蝣	18
820	18
291	18
赭	18
瀞@@	17
箴@@	17
⑸	17
ᅩ@@	17
臆@@	17
1603	17
饲	17
亘@@	17
缀@@	17
厝	17
偎	17
舱@@	17
刨	17
1777	17
忐@@	17
з	17
怅@@	17
翱@@	17
鼹@@	17
譬	17
郃	17
痘	17
哼@@	17
洽@@	17
戍@@	17
擂	17
指控	17
淙	17
酢	17
＼	17
糅@@	17
²	17
淤	17
1780	17
砥@@	17
395	17
砀@@	17
1724	17
嵌@@	17
栅@@	17
柚	17
砒@@	17
哨@@	17
吮	17
氘	17
荔	17
昴	17
罔	17
吼@@	17
ⅹ	17
焯@@	17
伱	17
瘩	17
榔	17
荐@@	17
沓	17
驺	17
砣	17
垒@@	17
锚	17
愫	17
嘟	17
1732	17
铷	17
呦	17
吠@@	17
囯	17
耘	17
鉄	17
401	17
啮@@	17
爰	17
377	17
讫	17
劭	17
漕@@	17
507	17
烫@@	17
犊	17
眩@@	17
浜	17
缑	17
腋@@	17
婵	17
仫@@	17
糯	17
ᅮ	17
貅	17
陨	17
褂	17
杈	16
卍@@	16
妲	16
セ	16
辎@@	16
宸	16
苓	16
蔬	16
跛@@	16
茏	16
152	16
1521	16
垌	16
卞@@	16
氵	16
苛	16
哄@@	16
羟@@	16
惰	16
咔	16
垄	16
攫@@	16
1826	16
滂	16
膜@@	16
283	16
熨	16
引种	16
∴	16
ｌ@@	16
郴	16
670	16
栾	16
蕨	16
懵@@	16
淝	16
缗	16
锏	16
措@@	16
拈	16
κ	16
鬓@@	16
菘	16
灶@@	16
镌	16
潋	16
ろ	16
咖	16
つ	16
266	16
讹@@	16
颔@@	16
サ	16
阏@@	16
酌@@	16
嬷	16
ν	16
虺	16
皋@@	16
栀@@	16
糜@@	16
兜@@	16
邽	16
蜢	16
凫	16
蚜	16
鎏@@	16
薙	16
楠@@	16
枭	16
斛	16
栅	16
璟	16
276	16
臃@@	16
帚	16
路段	16
黝@@	16
栀	16
179@@	16
祷@@	16
阂	16
蹇	16
ᄎ@@	16
晾@@	16
窄@@	16
挪	16
1566	16
羑	16
谯@@	16
150@@	16
舫	16
腥@@	16
剽@@	16
拌@@	16
ᅧ@@	16
洢	16
姣@@	16
噬@@	16
恨@@	16
そ	16
霾	16
遴@@	16
锺	16
孓	16
蝂	16
蝜	16
貔@@	16
堀	16
坳	16
咒@@	16
捶	16
1670	16
隍@@	16
埼@@	16
撩@@	16
甑	16
381	15
ᅳ@@	15
砧@@	15
馋	15
仝	15
洙	15
鳝@@	15
斟	15
衿	15
戾	15
狻@@	15
惰@@	15
136@@	15
為	15
ｐ@@	15
悖@@	15
髯@@	15
258	15
1807	15
飨	15
算法	15
胪	15
靶@@	15
惧@@	15
醴	15
篝@@	15
苹	15
驮@@	15
ゃ	15
邺@@	15
耒	15
揩	15
喋@@	15
332	15
炔	15
歳	15
‧	15
155@@	15
1748	15
188@@	15
237	15
福建@@	15
猊	15
ｅ@@	15
瞩	15
稞	15
邝	15
镭@@	15
﹏	15
1755	15
昨	15
矜	15
415	15
箸	15
礁@@	15
祛	15
琉	15
蚝	15
栎@@	15
232	15
阗	15
妞@@	15
僻@@	15
喃	15
筷	15
323	15
躺@@	15
涤@@	15
﹎	15
颧@@	15
咪@@	15
唬	15
嚣@@	15
1517	15
皑	15
憩@@	15
357	15
椋	15
咕@@	15
269	15
ي	15
荠@@	15
肮@@	15
讷@@	15
嬷@@	15
倬@@	15
ツ	15
祜@@	15
粑	15
绡	15
褥	15
1788	15
840	15
∠	15
1583	15
癖	15
傅@@	15
郫@@	15
氰	15
颔	15
锗	15
婧	15
俯	15
莹@@	15
阀@@	15
620	15
勐@@	15
疙@@	15
け	15
昵	15
蓑@@	15
蔽@@	15
莘@@	15
94@@	15
碉	15
蕃@@	15
崃	15
詝	15
懦	15
禀	15
殉	15
钽	15
ｂ	15
鲑@@	15
274	15
342	15
镕	15
艇@@	15
裆	15
µ	15
熹@@	15
崮	15
≌	15
︰	15
ゆ	14
呜	14
缜@@	14
1596	14
1745	14
＊	14
佯@@	14
盏@@	14
愎	14
眨	14
ニ	14
憋	14
悭@@	14
缫@@	14
粪	14
食性	14
莆	14
130@@	14
胳	14
脓	14
870	14
鹉	14
钯@@	14
搂	14
皎	14
搪@@	14
980	14
挪@@	14
攽	14
猥@@	14
咀	14
※	14
羓	14
154@@	14
ｓ	14
┼	14
椤	14
蠡@@	14
摒@@	14
泣@@	14
澍	14
ャ	14
濉@@	14
251	14
腱	14
绦	14
737	14
芋@@	14
嘘	14
178@@	14
1765	14
鬃	14
帛@@	14
阡@@	14
1753	14
嗅	14
314	14
罄	14
俸@@	14
嗨	14
1771	14
ｏ@@	14
缆@@	14
拙@@	14
笄	14
1665	14
淬	14
斫	14
岫@@	14
鼋	14
威廉@@	14
泫	14
泫@@	14
砌@@	14
褪	14
枋	14
蓓@@	14
髫	14
391	14
烘	14
惮	14
谔	14
囤	14
徭	14
朋@@	14
扳	14
遽	14
蚵	14
缰	14
蚝@@	14
秧	14
沭@@	14
⑩	14
∑	14
悱@@	14
廪	14
腋	14
澶	14
葳@@	14
钋	14
甄@@	14
328	14
教宗	14
钰@@	14
乎@@	14
恣@@	14
竣	14
恽	14
婢@@	14
棹	14
匏	14
澧@@	14
屎	14
匕	14
蟥	14
っ	14
312	14
泯@@	14
272	14
冗	14
歹	14
蹊	13
埭	13
盂	13
ｃ@@	13
苾	13
ᆯ	13
蟒@@	13
ヨ	13
砻	13
茁@@	13
硼	13
殃	13
磐@@	13
蛾@@	13
钒	13
腓	13
1650	13
焉@@	13
弈@@	13
匝	13
邕@@	13
粲	13
赈@@	13
402	13
佞	13
绉@@	13
獾	13
痔	13
濠@@	13
窿	13
411	13
185@@	13
篙	13
翳	13
铱	13
耦@@	13
郾@@	13
跷	13
秩	13
眯	13
厮	13
悌	13
僭@@	13
嚷	13
笈	13
肛	13
281	13
韫	13
蒯	13
雒	13
浞	13
珉@@	13
柷	13
蹿	13
之子	13
329	13
泻@@	13
ᅢ	13
譞	13
蚜@@	13
踵	13
刍@@	13
阉	13
孵	13
雇	13
昱@@	13
勖	13
408	13
菀	13
谴	13
ə	13
哼	13
瘠	13
觐	13
242	13
脲	13
葆@@	13
拀	13
圄	13
栎	13
葺	13
扉@@	13
龋	13
俎	13
睢	13
羟	13
1786	13
1618	13
359	13
茗@@	13
岑@@	13
毬	13
靴@@	13
猷	13
呻@@	13
╰	13
诂	13
1621	13
瓠	13
觑	13
柘@@	13
弢	13
迂	13
╯	13
﹔	13
伉@@	13
時	13
骇	13
煊	13
揪@@	13
铄	13
耦	13
邡	13
絮@@	13
摭	13
1709	13
⑨	13
™	13
纫	13
厢@@	13
阚	13
擢	13
挟@@	13
刳	13
慷	13
455	13
蚣@@	13
镀	13
腻@@	13
莪	13
860	13
楣	13
熠@@	12
刽@@	12
熠	12
め	12
幌	12
擢@@	12
唠@@	12
芡	12
辱@@	12
ت	12
恍	12
啪	12
崂@@	12
沥	12
鲫	12
睫	12
ᅳ	12
ن	12
皂@@	12
瘙@@	12
舜@@	12
畲	12
瓮	12
嫪@@	12
毐	12
崛	12
悪	12
葚	12
1550	12
1598	12
匐	12
薯@@	12
拷@@	12
曛	12
404	12
桫@@	12
鼍	12
毽@@	12
胛	12
咕	12
硚@@	12
ｋ@@	12
椿	12
1718	12
跖	12
燎@@	12
乒	12
氖	12
▆	12
役@@	12
絜	12
1632	12
朐	12
2020	12
眯@@	12
炕	12
猝@@	12
ج	12
岷	12
蜊	12
丕@@	12
噫	12
桀@@	12
ⅳ	12
253	12
134@@	12
炯@@	12
儋@@	12
馈@@	12
275	12
誊@@	12
筵	12
笞	12
螅	12
阐	12
鳗@@	12
榛@@	12
ᅩ	12
1712	12
潟	12
铐	12
荜	12
拗	12
圳	12
拮@@	12
316@@	12
崔@@	12
鬣@@	12
536	12
尛	12
俦	12
沮	12
旻@@	12
脍	12
2000@@	12
海道	12
廓@@	12
⑹	12
础	12
湎	12
痔@@	12
峄@@	12
袱	12
镧	12
匝@@	12
344	12
1666	12
铖	12
捩	12
亢@@	12
捺	12
荧	12
玦	12
奚@@	12
贸@@	12
326	12
ر	12
1611	12
亓	12
虿	12
牍	12
飒	12
肄@@	12
钹	12
湄	12
406	12
叁	12
筵@@	12
348	12
ａ	12
愣	12
骶	12
赭@@	12
炖@@	12
峋	12
紊	12
夯	12
2017	11
粼	11
飒@@	11
咙	11
犁@@	11
1683	11
秽	11
妫	11
＇	11
馔	11
惭	11
馑	11
邃@@	11
嶙@@	11
帷	11
籼	11
朦	11
擞	11
潋@@	11
挹	11
1560	11
367	11
仨	11
芥	11
踹	11
鸲	11
孽@@	11
耷	11
耄	11
舛	11
わ	11
愠	11
昞	11
羸	11
瞑@@	11
吋	11
纰@@	11
臬	11
371	11
俐@@	11
阆	11
泸	11
殒@@	11
會	11
俣	11
诀@@	11
夯@@	11
之後	11
肘@@	11
踝	11
媾@@	11
弁	11
猇@@	11
锺@@	11
壅	11
鹞	11
舀	11
芭	11
邑@@	11
帚@@	11
皑@@	11
檄@@	11
耽	11
铯	11
嚓	11
芹@@	11
茉	11
怯@@	11
1764	11
1733	11
徕	11
1784	11
蟑@@	11
昕@@	11
旬@@	11
╮	11
╭	11
湟	11
暧	11
傈	11
妆@@	11
醴@@	11
碓	11
蒺@@	11
ヘ	11
腼@@	11
兖	11
谕@@	11
沢	11
然@@	11
陜	11
潴	11
苻	11
腆	11
黍@@	11
ᄆ@@	11
喵	11
1744	11
1743	11
颀	11
匍@@	11
奄@@	11
毡	11
躇	11
邳@@	11
柞@@	11
痫	11
斡	11
霈	11
ш	11
臼@@	11
忏	11
∵	11
镰	11
107@@	11
³	11
酮@@	11
د	11
棚@@	11
烩@@	11
踌@@	11
瑕@@	11
缕@@	11
恪@@	11
汛	11
鹮	11
1150	11
宸@@	11
诠	11
骢	11
猗	11
岔	11
刁	11
砭	11
孀	11
鸂	11
1622	11
醐	11
萼@@	11
巽@@	11
阡	11
曳@@	11
荚	11
愕	11
绶@@	10
364	10
嘹@@	10
楞@@	10
兕	10
327	10
1606	10
眨@@	10
樨	10
峥@@	10
啖	10
榛	10
蝗	10
氘@@	10
钤	10
诶	10
钇	10
〇	10
唁	10
堑@@	10
170@@	10
麋	10
349	10
镖@@	10
览@@	10
1520	10
铧	10
625	10
拧@@	10
⑼	10
澎	10
嫒	10
鲈@@	10
505	10
ᄂ@@	10
苌@@	10
昙	10
簪@@	10
昉	10
嚏	10
懋	10
磕@@	10
451	10
昭和	10
筛	10
鲇	10
瞭	10
噱@@	10
﹡	10
迥	10
唏@@	10
镒	10
╳	10
糗	10
墩@@	10
蹙	10
徳	10
骊	10
秤@@	10
邙@@	10
掾	10
彤@@	10
啰@@	10
凇	10
榫	10
汊	10
1635	10
餮	10
熨@@	10
僮	10
泞	10
靥	10
黥	10
豁	10
捌	10
孑	10
饽	10
笺@@	10
伫	10
煨	10
鶒	10
醍@@	10
罩@@	10
我@@	10
濑@@	10
酐	10
鄢	10
椁	10
潍	10
傕	10
邋	10
歹@@	10
曈	10
喃@@	10
狎	10
亶	10
296	10
槎	10
恸	10
嘟@@	10
嚎	10
來	10
畎@@	10
鸨	10
146@@	10
粼@@	10
揍	10
糙@@	10
417	10
ˈ	10
茴	10
よ	10
唆	10
炀	10
せ	10
酃	10
赉	10
榭@@	10
1612	10
鸵	10
279	10
豳	10
颓	10
獭	10
椋@@	10
捭@@	10
斯克@@	10
オ	10
ф	10
362	10
荀@@	10
疸	10
珙	10
祉	10
277	10
ㄚ	10
耍@@	10
麾	10
瑗	10
洮@@	10
1630	10
犴	10
猖	10
麒	10
茱	10
赳	10
ᅥ	10
铌	10
侦	10
栉	10
卮	10
饯	10
660	10
ｈ@@	10
ｓ@@	10
ｇ	10
箬@@	10
穰	10
圉	10
搔	10
姣	10
谀	10
1669	10
桉	9
殖@@	9
碟@@	9
1585	9
ｕ@@	9
睚@@	9
郏	9
ｅ	9
骧	9
栊	9
悸	9
辘@@	9
缙@@	9
酊	9
涣@@	9
鸾@@	9
蚡	9
1559	9
咩	9
奭	9
浃	9
轫	9
胗	9
1729	9
燥@@	9
瞥	9
骰@@	9
這	9
ю	9
慑@@	9
涪	9
镝	9
铤	9
鸸@@	9
鹋	9
﹞	9
ゅ	9
遏	9
⑽	9
羔@@	9
1739	9
1779	9
ｔ	9
俚@@	9
倮	9
魃	9
412	9
仟	9
皴	9
咫	9
人民@@	9
溅@@	9
咂@@	9
痉	9
309	9
戦	9
棼	9
510	9
塾@@	9
焯	9
叼	9
饽@@	9
◢	9
◣	9
泮	9
睦@@	9
娉	9
瞵	9
194@@	9
鸠@@	9
揶@@	9
1675	9
揄	9
吮@@	9
痿	9
俳@@	9
岬	9
殒	9
穑	9
〞	9
笙@@	9
を	9
迴	9
邸@@	9
楮	9
且@@	9
膈@@	9
籀@@	9
岌	9
＆	9
ق	9
灞	9
仃	9
榔@@	9
淬@@	9
菅	9
拈@@	9
丶	9
1204	9
玮@@	9
泺@@	9
岚@@	9
現	9
當	9
1350	9
エ	9
璩	9
捎	9
箐	9
翕	9
荞	9
掀	9
偈	9
锶	9
酯@@	9
1713	9
泓@@	9
桶@@	9
濡@@	9
荼@@	9
蛊	9
腴	9
箕@@	9
ⅴ	9
339	9
癞@@	9
亩@@	9
琵	9
覃	9
痢@@	9
狞	9
拗@@	9
狰@@	9
顒	9
峤	9
邱@@	9
1723	9
翱	9
1751	9
昃	9
郤	9
缇@@	9
噶	9
堰@@	9
宵@@	9
1588	9
椿@@	9
棂@@	9
嵯@@	9
珣	9
绫@@	9
汰	9
蛳	9
惺	9
┓	9
昰	9
伺	9
揽@@	9
铮@@	9
喱	9
交流@@	9
鬲	9
﹝	9
窟@@	9
怿	9
毓	9
蜇	9
尕@@	9
磕	9
裟	9
岔@@	9
讳@@	9
涓@@	9
涠	9
棠@@	9
帔	9
珏	9
悖	9
杼	9
搀@@	9
癞	9
淖	9
耆@@	9
ェ	9
麓@@	9
魇	9
癖@@	9
唾	9
撮@@	9
扈@@	8
骛	8
妤@@	8
椽	8
睬	8
渣@@	8
侩	8
铡	8
偌@@	8
鳃@@	8
阙@@	8
國	8
蒨	8
ы	8
竑	8
1721	8
猝	8
幌@@	8
炊	8
豺	8
ʊ	8
徉	8
辗	8
岌@@	8
窘	8
骸@@	8
汩@@	8
佰@@	8
呴	8
凪	8
┏	8
舐@@	8
弑@@	8
跖@@	8
膛@@	8
啉	8
镫@@	8
扦@@	8
懵	8
稔	8
鲲	8
ソ	8
乜	8
畸	8
掏	8
々	8
196@@	8
匣@@	8
枷@@	8
奂@@	8
郏@@	8
隊	8
1555	8
峄	8
鄱	8
圜	8
谄@@	8
八年	8
氖@@	8
毂	8
ｂ@@	8
杪	8
1568	8
﹚	8
睒	8
赘	8
瑀	8
撼@@	8
钪	8
299	8
睒@@	8
咄	8
1728	8
钚	8
蓥	8
旌	8
殖民地	8
屉	8
禩	8
酰@@	8
臊	8
赘@@	8
瞒@@	8
盯@@	8
逞@@	8
¥	8
槭	8
悭	8
298	8
菩	8
皙	8
⑻	8
⑺	8
戟@@	8
藐@@	8
蛎@@	8
苎@@	8
梢@@	8
穗@@	8
磴@@	8
饴	8
1649	8
⒋	8
阚@@	8
175@@	8
俾	8
吔	8
獒@@	8
貘	8
豇@@	8
栉@@	8
吁@@	8
195@@	8
蹉@@	8
牡	8
婧@@	8
锴	8
331	8
跎	8
槃	8
發	8
耧@@	8
浚@@	8
殚@@	8
˙	8
驽@@	8
勐	8
苞@@	8
苄	8
鳕@@	8
┬	8
苌	8
鬻	8
崧	8
鼋@@	8
锂@@	8
郄	8
琯	8
胝	8
豨	8
绊@@	8
ᄃ@@	8
筚	8
帘@@	8
诟@@	8
矜@@	8
磋	8
聂@@	8
孳@@	8
唛	8
蝾@@	8
恸@@	8
醮	8
蛸	8
犟	8
搂@@	8
⑿	8
⑾	8
凳@@	8
1631	8
掇	8
蕲	8
歲	8
┅	8
戛	8
懊@@	8
抡	8
怦@@	8
鳏@@	8
漕	8
惘@@	8
1701	8
姹	8
鳐	8
焜	8
太平@@	8
碚	8
贰@@	8
唔	8
哽@@	8
樘	8
韭	8
骠	8
坍	8
傩@@	8
777	8
馓@@	8
颉@@	8
沽@@	8
盔@@	8
噎	8
亵@@	8
湍	8
鬃@@	8
佥@@	8
ح	8
绶	8
坯	8
⒈	8
殴	8
薨	8
苕	8
惋	8
赡	8
郞	8
ᄏ@@	8
淦@@	8
赳@@	8
魄@@	8
θ	8
翃	8
槭@@	8
惬@@	8
哒	8
囹@@	8
脓@@	8
拎	7
陽	7
殳	7
倻	7
№	7
獗	7
諡	7
噻	7
跚	7
泱@@	7
嘅	7
ᄐ@@	7
馐	7
轪	7
忿	7
蹼	7
犍	7
湣	7
蝰	7
1597	7
槁	7
1530	7
1767	7
牝	7
掰	7
枸	7
暐@@	7
鹬	7
冕@@	7
屹	7
荇	7
簸@@	7
摞	7
荪	7
诡	7
袈@@	7
圖	7
厥@@	7
嗑	7
淙@@	7
郿	7
睽	7
尕	7
礽	7
飕	7
﹙	7
纡	7
瘀	7
谶@@	7
橱@@	7
厓	7
缮@@	7
氲	7
阋@@	7
疮@@	7
卌	7
诋	7
184@@	7
偲@@	7
饵@@	7
窍@@	7
悚@@	7
垣@@	7
辔	7
雩	7
咨	7
蛐@@	7
弑	7
钩@@	7
捍	7
殡	7
267	7
濞	7
鞘@@	7
北市	7
闾@@	7
苋	7
攘	7
ة	7
卟@@	7
ｃ	7
窒	7
罘	7
蝽	7
窣	7
妪	7
1761	7
铿	7
垢@@	7
腈@@	7
国民@@	7
炟	7
绻	7
颞	7
鲔@@	7
蛐	7
颦	7
娅@@	7
飚	7
磲	7
踅	7
蜃@@	7
س	7
锉	7
❤	7
沭	7
泱	7
憨	7
裨	7
冏	7
牖	7
祀@@	7
掸@@	7
º	7
趸	7
1567	7
127@@	7
ب	7
咧@@	7
粽	7
鄢@@	7
裨@@	7
‖	7
揪	7
潦	7
骶@@	7
髂@@	7
髋@@	7
靡@@	7
笏	7
荞@@	7
荠	7
梏	7
鄘	7
鲂	7
媪	7
髓@@	7
鳏	7
颞@@	7
腭	7
氾	7
鸩	7
畑@@	7
髌@@	7
桎@@	7
钅	7
竦	7
桡@@	7
⒀	7
虬	7
薏@@	7
蚱	7
菏	7
惺@@	7
唧	7
ㄇ	7
夤@@	7
〝	7
蜣@@	7
薹	7
≈	7
斤@@	7
嗲	7
虏@@	7
祺@@	7
蠢@@	7
簋@@	7
158@@	7
粹@@	7
拚@@	7
熄	7
湦	7
硼@@	7
璠	7
龆	7
苋@@	7
栱	7
攒@@	7
唑	7
蚀@@	7
モ	7
跹	7
碁	7
149@@	7
槽@@	7
»	7
351	7
1749	7
赡@@	7
鼐	7
ｄ@@	7
窠	7
ｋ	7
綦@@	7
ｖ	7
桨@@	7
鲐	7
笥	7
痈	7
恕@@	7
羿@@	7
骃	7
捅	7
荖	7
177@@	7
淼@@	7
研究@@	7
牺	7
铡@@	7
圮	7
蒌@@	7
屎@@	7
郯@@	7
沤	7
杲	7
1524	7
秸@@	7
苇@@	7
雉@@	6
砳	6
瘿@@	6
髫@@	6
瑷	6
厩	6
痂	6
厕	6
绪@@	6
怂	6
芫@@	6
疠	6
邨	6
⒉	6
ۇ	6
绀	6
枷	6
瘴@@	6
挎	6
唧@@	6
ｄ	6
憋@@	6
1710	6
洹	6
毽	6
懈@@	6
棻	6
酢@@	6
瑾@@	6
吭	6
杓	6
獐@@	6
胀@@	6
湓	6
枰	6
撷@@	6
彟	6
抟	6
镓	6
氩@@	6
牠	6
搽	6
渎@@	6
朊	6
毡@@	6
祆@@	6
蝰@@	6
壕@@	6
尻	6
嵛	6
衩	6
觐@@	6
峯	6
ｍ@@	6
396	6
觏	6
缎@@	6
荇@@	6
搢	6
倦@@	6
聩	6
滁	6
芊@@	6
剁	6
籀	6
164@@	6
莞@@	6
懋@@	6
咿	6
慥	6
桦@@	6
呕	6
谖	6
橱	6
蜚	6
溟	6
社会@@	6
袍@@	6
♂	6
糅	6
澪	6
碲	6
揩@@	6
汧	6
▽	6
岫	6
铵@@	6
骐	6
忡	6
歉@@	6
埕	6
1690	6
闼	6
黠	6
嘏	6
蜷@@	6
妍@@	6
≫	6
≪	6
嵴	6
诔	6
霎@@	6
姁	6
髋	6
們	6
磋@@	6
瞠@@	6
霰@@	6
ｑ	6
湋	6
加利@@	6
澫	6
囻	6
亼	6
侔	6
་	6
垧	6
滢	6
喽@@	6
癣	6
┻	6
牝@@	6
岬@@	6
谩@@	6
芪	6
伢	6
坛@@	6
馕	6
鲛@@	6
฿	6
羔	6
刨@@	6
旄	6
隧	6
唏	6
汨	6
蹲@@	6
1580	6
嚷@@	6
ᅴ	6
痣	6
舐	6
拊	6
诧	6
250@@	6
绚	6
學	6
痒@@	6
娈	6
124@@	6
胭	6
ょ	6
2019	6
栝@@	6
蒌	6
罴	6
钡@@	6
⒊	6
苑@@	6
呛	6
铰@@	6
㎜	6
メ	6
恣	6
韪	6
隰	6
佃	6
509	6
痨	6
摁	6
擘	6
橼	6
禳	6
粕	6
南市	6
蚱@@	6
殂	6
沒	6
∏	6
膻	6
و	6
砝@@	6
295	6
潢@@	6
´	6
鲶@@	6
岿@@	6
咯@@	6
翡	6
姉	6
砰	6
疽	6
抠@@	6
ᅦ	6
蹭	6
锹	6
汹	6
璇@@	6
睇	6
鄏	6
铍	6
├	6
旒	6
屃	6
珷	6
261	6
赑@@	6
诨@@	6
撩	5
潞	5
霰	5
箬	5
噗	5
э	5
绦@@	5
琶@@	5
咔@@	5
栓@@	5
ァ	5
麝	5
鬣	5
ʁ	5
ա	5
擀	5
捂@@	5
伢@@	5
螨	5
赅	5
疤@@	5
讪	5
圜@@	5
鸮	5
鸱@@	5
怛	5
兮@@	5
哆@@	5
跗@@	5
ⅺ	5
赟	5
铫	5
玙	5
苡@@	5
炙@@	5
奁	5
舷@@	5
虱@@	5
ｒ	5
艋	5
腠@@	5
卒@@	5
剣	5
妁	5
亟@@	5
吗@@	5
堋	5
槜	5
｡	5
罹	5
玘	5
蹩@@	5
浠@@	5
筮	5
旉	5
霏@@	5
氷	5
湫	5
湜	5
漉@@	5
佺@@	5
1623	5
镏@@	5
殡@@	5
政府@@	5
揖@@	5
鳅	5
掸	5
篑	5
1605	5
粱@@	5
驷@@	5
ـ	5
熜	5
冢@@	5
辐	5
颃	5
辘	5
镸	5
亣	5
鲳@@	5
137@@	5
蹋@@	5
鹚	5
⒃	5
肫	5
狡	5
齊	5
ⅶ	5
￣	5
⒂	5
弭	5
娼	5
芫	5
غ	5
杵@@	5
贶	5
輶	5
哧	5
铋	5
桡	5
莃	5
墨西@@	5
唷	5
暝@@	5
陟	5
徵@@	5
跄	5
徯	5
觥	5
刎@@	5
鸬@@	5
淦	5
⒁	5
煽	5
桷	5
蜩	5
钫	5
©	5
蒻	5
蒟@@	5
県	5
锊	5
俚	5
饕@@	5
1571	5
碇	5
鸫	5
蓼	5
讼@@	5
悸@@	5
蓖	5
187@@	5
183@@	5
楦	5
狴@@	5
吡	5
鹬@@	5
湔	5
辻	5
鲳	5
椹	5
夤	5
洩	5
侑@@	5
箩	5
襁	5
ⅸ	5
砗@@	5
竺@@	5
祉@@	5
苕@@	5
ø	5
桠	5
笋@@	5
顆	5
钲	5
锄@@	5
1730	5
176@@	5
恆	5
呃	5
筌	5
啾	5
咻	5
嗟@@	5
捻@@	5
稗	5
ｍ	5
伋	5
幺@@	5
拭@@	5
怔	5
诤	5
谆@@	5
谆	5
蘼	5
叱	5
蒋@@	5
饬	5
囍	5
诎	5
憾@@	5
咦	5
绎@@	5
玎	5
舄	5
媾	5
ㄨ	5
扯@@	5
鳗	5
峣	5
绐	5
彊	5
腈	5
铨@@	5
翮	5
篁	5
368	5
蹒@@	5
約	5
铬@@	5
黩@@	5
犸	5
1552	5
喟@@	5
蠖	5
佥	5
1651	5
蔼@@	5
馬	5
迨	5
む	5
場	5
褉	5
盎	5
孱@@	5
還	5
氤	5
赍	5
酩@@	5
觚	5
＃	5
缱@@	5
醪	5
棨	5
锱@@	5
へ	5
198@@	5
滹	5
偈@@	5
垿	5
卦@@	5
濛	5
鲑	5
個	5
ㄧ	5
↘	5
蝈@@	5
裱	5
蝈	5
哇@@	5
悒	5
悒@@	5
樾	5
1676	5
囿@@	5
秽@@	5
疱@@	5
₃	5
糌@@	5
茕	5
茕@@	5
浯	5
憧	5
鼬@@	5
桧@@	5
徜@@	5
荤@@	5
薜@@	5
佯	5
殍	5
竿@@	5
呷	5
瘫	5
绌	5
袒@@	5
璱	5
郧	5
363	5
湮	5
2539	5
磺@@	5
蕻	5
褛	5
1714	5
脬	5
綦	5
殓	5
骀@@	5
琏@@	5
า	5
忾	5
殃@@	5
龌@@	5
龊	5
嚯	4
啕	4
癯	4
玢	4
犄@@	4
琤	4
惑@@	4
ｗ@@	4
篾	4
拄@@	4
跸	4
堍	4
璪	4
噙	4
衲	4
挞@@	4
嵫	4
崦@@	4
铣	4
茎@@	4
璨@@	4
鎚	4
篢	4
诨	4
螯	4
龠	4
＄	4
诘@@	4
螟	4
垭@@	4
缛@@	4
峙@@	4
騠	4
呓@@	4
嘚	4
啵	4
┦	4
垕	4
霪	4
饴@@	4
1741	4
垃	4
赃@@	4
恂	4
绉	4
狁	4
瘀@@	4
攫	4
2527	4
嫪	4
咭	4
氙@@	4
簕	4
埠@@	4
1572	4
暹	4
盹	4
骖	4
蹁@@	4
伥	4
∼	4
谩	4
鼙@@	4
铱@@	4
琇	4
缯	4
174@@	4
镥	4
艏	4
讣@@	4
蘇	4
痨@@	4
薮	4
噼	4
徂	4
麂	4
戕	4
舸	4
碛	4
酩	4
忤@@	4
崒	4
跛	4
拚	4
嘀@@	4
躅	4
甥@@	4
ɔ	4
薤	4
旃	4
骐@@	4
娩@@	4
ᅬ	4
迳	4
葡萄@@	4
钐	4
魑	4
钕	4
铕	4
妗@@	4
帞	4
氽	4
劵	4
腚	4
骣	4
酶@@	4
黏	4
坯@@	4
1536	4
1740	4
痈@@	4
襦	4
懔	4
⒎	4
ｆ@@	4
锌@@	4
坻	4
≡	4
ɑ	4
兒	4
捌@@	4
黃	4
柒@@	4
桅	4
1480	4
嗉@@	4
129@@	4
嫖@@	4
熘	4
茑@@	4
鼾@@	4
1672	4
∽	4
咋@@	4
舵@@	4
⌒	4
蛲@@	4
喵@@	4
舶@@	4
魉	4
裰	4
镱	4
嶷	4
狒	4
疝@@	4
狒@@	4
獵	4
霆@@	4
绷	4
垓	4
鲈	4
峪@@	4
鲢	4
1604	4
扪	4
抔	4
呢@@	4
羧	4
鹍	4
嗄	4
喟	4
俶	4
搔@@	4
泅@@	4
镗	4
燎	4
喾	4
゜	4
釭	4
跷@@	4
ネ	4
叼@@	4
驽	4
奧	4
蛔	4
槔	4
鸤	4
灬	4
蛱@@	4
馊	4
缵	4
轵	4
厘@@	4
跗	4
鄄@@	4
榻@@	4
萬	4
僰	4
遑	4
ｚ	4
谄	4
י	4
畈	4
㎝	4
蟟	4
鹈	4
栝	4
娲@@	4
郛	4
柠	4
诧@@	4
ɪ	4
運	4
飸	4
ی	4
恁	4
ڭ	4
ى	4
ش	4
ㄛ	4
199@@	4
缟@@	4
皴@@	4
焙@@	4
點	4
涧@@	4
镄	4
轳	4
瑛@@	4
唉@@	4
ね	4
193@@	4
昇	4
麈	4
眸@@	4
谙@@	4
踊	4
犍@@	4
萘	4
747	4
舀@@	4
酹	4
肴@@	4
疃	4
儇	4
緥	4
墀	4
炝	4
氅	4
分布@@	4
瓮@@	4
瘅	4
蝮@@	4
蚧	4
186@@	4
徼	4
黻	4
踉	4
ⅵ	4
ᅯ@@	4
ｇ@@	4
ｉ	4
卺	4
踉@@	4
庠	4
ᅭ	4
ぬ	4
姝	4
1717	4
135@@	4
煸	4
∕	4
沋	4
鳇	4
柊	4
渲	4
∨	4
⒄	4
⒅	4
滦	4
笕	4
酪@@	4
歃@@	4
ㄉ	4
勲	4
骝	4
猥	4
煅@@	4
咛	4
菈	4
潸	4
篦	4
逖@@	4
ㄣ	4
湴	4
咚@@	4
逦	4
139@@	4
迤@@	4
祯@@	4
↙	4
腩	4
℡	4
峁	4
璈	4
媞	4
﹕	4
┗	4
┳	4
帏	4
泺	4
蜿	4
瞪@@	4
邾	4
邠	4
砹	4
◈	4
豢	4
桄	4
怠@@	4
喋	4
鄄	4
螭@@	4
荥	4
煌@@	4
莅	4
唆@@	4
矞	4
寔	4
诓	4
硎	4
刭	4
砀	4
沆	4
蘑	4
缁	4
髆	4
禇	4
｀	4
鵩	4
眊	4
矾@@	4
讴	4
酗@@	4
镣	4
螣	4
樾@@	4
¤	4
瞾	4
阪@@	4
趼	4
佡	4
庑	4
崽@@	4
踱	4
姝@@	4
茯@@	4
嘘@@	4
缄@@	4
獐	4
扦	4
煃	4
ｗ	4
豔	4
¢	4
赊	4
166@@	4
阈	4
缣	4
⒐	4
罂	4
1535	4
廪@@	4
耘@@	4
丌	4
瓿	4
颏	4
篴	4
､	4
蔴	4
牗	4
倨	4
恵	4
僭	4
瞽	4
恚	4
190@@	4
刈	4
踽	4
揸	4
暇@@	4
ە	4
猞@@	4
怖	4
猁	4
谮	4
鳕	4
蓍	4
睽@@	4
掖@@	4
陔	4
猷@@	4
蹂	4
自然@@	4
ｊ	3
147@@	3
悳	3
褥@@	3
瞅	3
稜	3
ᄁ@@	3
戡	3
ᆾ	3
﹒	3
颛	3
嫠	3
瑁@@	3
鹞@@	3
磡	3
苒	3
巿	3
锉@@	3
論	3
仨@@	3
蟮	3
渌	3
茧@@	3
啧@@	3
啧	3
儋	3
薸	3
﹖	3
佃@@	3
龀	3
醣	3
昧@@	3
疳	3
貉	3
邗	3
璿	3
咝	3
恽@@	3
暠	3
脩	3
叁@@	3
涝@@	3
濬	3
菴	3
摺	3
吡@@	3
阃	3
颢@@	3
郸@@	3
脁	3
處	3
誐	3
遠	3
對	3
敛@@	3
ㄟ	3
忝	3
妯@@	3
娌	3
−	3
甙	3
洄	3
粥@@	3
玖@@	3
撵	3
葑	3
琦@@	3
綝	3
厐	3
镠	3
佻	3
唔@@	3
陛	3
髂	3
叻	3
朏	3
ᅦ@@	3
跣	3
辂	3
ｐ	3
镲	3
笫	3
茔	3
蔫	3
盤	3
駃	3
綮	3
拷	3
帻	3
鹆	3
鸷	3
徳@@	3
蓨	3
鄩	3
衎	3
暅	3
蝻	3
浐	3
钴@@	3
褵	3
辏	3
诅	3
蕈	3
鹫@@	3
啶	3
闩	3
ｙ@@	3
訇	3
螂@@	3
165@@	3
莛	3
忪	3
吩	3
噻@@	3
﹨	3
泔@@	3
芘	3
ｈ	3
仄@@	3
铥	3
铒	3
钬	3
氕	3
铽	3
囡@@	3
钆	3
囡	3
钷	3
嗞	3
镨	3
嗖	3
铈	3
娑@@	3
満	3
琤@@	3
鍗	3
ㄠ	3
曞	3
忒@@	3
鲉	3
鸀	3
呀@@	3
矣@@	3
1534	3
嚖	3
際	3
蠃	3
達	3
僅	3
咄@@	3
巜	3
鍪	3
倌	3
煺	3
棂	3
呛@@	3
隠	3
觜	3
噚	3
鹡	3
滻	3
窅	3
倏@@	3
見	3
藐	3
塽	3
體	3
蝇@@	3
鏡	3
诽	3
糗@@	3
蛄	3
於@@	3
討	3
認	3
ヌ	3
滓@@	3
賽@@	3
爾	3
褴@@	3
凖	3
幢@@	3
歆@@	3
箺	3
轶	3
麂@@	3
庥	3
汞@@	3
與	3
诤@@	3
縻	3
暠@@	3
ⅷ	3
挹@@	3
⒍	3
⒌	3
犽	3
啜	3
踮	3
過	3
柒	3
婠@@	3
廖@@	3
婠	3
開	3
溽@@	3
郃@@	3
癜	3
窨	3
诰@@	3
骀	3
⒏	3
垅	3
菸	3
恃@@	3
億	3
娼@@	3
诳	3
偬	3
洧	3
劭@@	3
篓	3
瞋	3
嚐	3
愔	3
倥@@	3
啰	3
悫	3
虬@@	3
吱	3
躞@@	3
蹀	3
菟@@	3
牂	3
蛆@@	3
镬	3
辚	3
囵	3
囫@@	3
抉	3
髡	3
汩	3
裱@@	3
昶@@	3
幛	3
盥@@	3
缄	3
赉@@	3
顗@@	3
鬶	3
忤	3
吱@@	3
桄@@	3
噼@@	3
箧	3
兢@@	3
嗷	3
袛	3
莼@@	3
掎	3
昳	3
挈	3
櫆	3
蟤	3
轧@@	3
峳@@	3
ᅭ@@	3
橐	3
觯	3
魍@@	3
魑@@	3
柞	3
硖@@	3
秣@@	3
荪@@	3
箓	3
跻	3
铩	3
妣	3
埳	3
琇@@	3
嫦	3
彀	3
胙	3
氪	3
龢	3
芰	3
佾	3
饫	3
抿	3
2553	3
娉@@	3
＠	3
炘	3
暁	3
扃	3
睑@@	3
掴	3
疟	3
呃@@	3
蚬	3
薏	3
忡@@	3
蹭@@	3
糍@@	3
铙@@	3
醯	3
龍	3
㎎	3
堙	3
铉@@	3
苴	3
鸱	3
嗳@@	3
怍	3
粲@@	3
ㄌ	3
怦	3
唠	3
盅@@	3
柰	3
⑭	3
檗	3
禟	3
惴@@	3
255@@	3
瘾@@	3
椴@@	3
犒@@	3
钎	3
戸	3
肄	3
隧@@	3
翕@@	3
脔	3
棰	3
戳@@	3
霁@@	3
ワ	3
饕	3
蹇@@	3
啪@@	3
矰	3
鹄@@	3
鳜@@	3
藕@@	3
杲@@	3
埂	3
倔	3
窈	3
钯	3
颚@@	3
慵@@	3
鑮	3
嬿@@	3
麰	3
岜	3
艉	3
俟@@	3
麸@@	3
溱	3
潆	3
砭@@	3
祓	3
1570	3
蜗	3
麴	3
耧	3
耰	3
┢	3
ส	3
榘	3
156@@	3
肭	3
谫	3
欤	3
晞@@	3
誊	3
2540	3
畚@@	3
埂@@	3
蓐	3
捶@@	3
莠	3
徇@@	3
掰@@	3
珈@@	3
裾	3
叨@@	3
樋	3
趄	3
椟	3
█	3
堃	3
嗥	3
俺@@	3
靳@@	3
冴	3
喁	3
讶@@	3
怵	3
屓	3
徴	3
㎏	3
∈	3
羸@@	3
铰	3
1525	3
ལ	3
磔	3
ヤ	3
篪	3
踯@@	3
劻	3
鍊	3
尹@@	3
ł	3
蒗	3
畦	3
絺@@	3
醺	3
聞	3
戡@@	3
荸@@	3
堞	3
⒒	3
孖	3
⒑	3
牦	3
喹	3
洎	3
卅@@	3
捱	3
瀬	3
蒡	3
樉	3
椠	3
慇	3
浍	3
2560	3
澉@@	3
琰@@	3
燿	3
芍	3
瞧@@	3
槿@@	3
棡	3
嗤@@	3
酆	3
媭	3
锆@@	3
嗳	3
汊@@	3
ն	3
孚@@	3
炷	3
拇	3
嬲	3
378	3
荦	3
貊	3
秫	3
蒴@@	3
骍	3
侃@@	3
⒇	3
最@@	3
◤	3
厔	3
瞑	3
瑠	3
诹	3
♀	3
163@@	3
哓	3
ᅲ	3
痍	3
蕺	3
▁	3
並	2
曜@@	2
碍@@	2
谇	2
悛	2
岘@@	2
145@@	2
桜	2
苒@@	2
痤	2
仂	2
粑@@	2
畑	2
忄	2
崟	2
鈜	2
榎	2
鲔	2
噢@@	2
萆	2
庹	2
薢	2
剐	2
暘	2
茼@@	2
歠	2
隘@@	2
髌	2
溇	2
赑	2
刖@@	2
嬿	2
曱	2
崦	2
愕@@	2
叽	2
瓴	2
狲	2
1720	2
杖@@	2
蚩	2
ө	2
舺	2
灸@@	2
ㄙ	2
ㄡ	2
鑱	2
赓@@	2
ㄈ	2
◥	2
冇	2
繻	2
袄@@	2
.@@	2
蛆	2
寇@@	2
吭@@	2
栆	2
螓	2
姘@@	2
巘	2
荚@@	2
玥@@	2
姮	2
谝	2
楩	2
ᅨ	2
獣	2
晬	2
繦	2
怼	2
寘@@	2
石坑	2
暱	2
ㄋ	2
渋	2
晁@@	2
槠	2
槠@@	2
峇	2
芨@@	2
蜷	2
蜈	2
総	2
緋	2
狛	2
裘@@	2
蓁	2
痘@@	2
篦@@	2
嗄@@	2
跆	2
媵	2
ᆺ	2
縄	2
鄪	2
郜	2
肼	2
囤@@	2
篥	2
剜	2
嫆	2
遴	2
ㄒ	2
莳	2
吖	2
ⅻ	2
崞	2
赍@@	2
ك	2
漪@@	2
埽	2
娸	2
莜	2
茆	2
蝓	2
黟	2
愛	2
痱@@	2
1595	2
鱀@@	2
坜	2
པ	2
︵	2
＾	2
幔@@	2
1527	2
ཏ	2
條	2
應	2
內	2
徑	2
離	2
觀	2
蛴	2
噀	2
侏	2
钍	2
胱@@	2
缬@@	2
戶	2
製	2
盱	2
線	2
據	2
ท	2
靛@@	2
บ	2
奭@@	2
質	2
隙@@	2
強	2
圪	2
顯	2
躁@@	2
譜	2
況	2
誕	2
較	2
儛	2
濂@@	2
诒	2
矅	2
噗@@	2
ᄑ@@	2
榫@@	2
誔	2
箅@@	2
绺	2
絺	2
蚴	2
耎	2
蓖@@	2
睨	2
睥@@	2
咝@@	2
呦@@	2
抻	2
茯	2
153@@	2
ｌ	2
淛	2
蹉	2
ｕ	2
1737	2
矸	2
粟@@	2
鸨@@	2
楽	2
樽@@	2
対	2
蝠@@	2
渉	2
戸@@	2
蒽	2
皤	2
磻	2
椽@@	2
滓	2
慵	2
菘@@	2
炕@@	2
窖@@	2
尐	2
餵	2
桴	2
霙	2
瘴	2
玡	2
169@@	2
狷	2
滗	2
晜	2
敄	2
纥@@	2
錡	2
ｖ@@	2
廼@@	2
褡@@	2
裢	2
桁@@	2
嘭	2
隰@@	2
砵	2
厷	2
．@@	2
螟@@	2
鲮@@	2
蛉	2
溥@@	2
₂	2
啾@@	2
ㄜ	2
蕞@@	2
胺@@	2
︶	2
檩	2
埰	2
沆@@	2
黾@@	2
瀣	2
氤@@	2
渚@@	2
枨	2
梃	2
伉	2
畚	2
飚@@	2
铑	2
哂	2
絝	2
恫@@	2
垴	2
蚶	2
曺	2
釆	2
菟	2
锝	2
梶	2
窜@@	2
樗	2
棗	2
ง	2
先後	2
禵	2
甪	2
谘@@	2
刂	2
凾	2
椐	2
玟@@	2
芗@@	2
唬@@	2
莼	2
簁	2
128@@	2
簁@@	2
鲥@@	2
妺	2
杌	2
宕@@	2
﹪	2
眇	2
螯@@	2
垭	2
1515	2
壤@@	2
乩@@	2
沏@@	2
檫	2
垚@@	2
郫	2
诒@@	2
簠	2
屦	2
鄣	2
柽	2
拽@@	2
愣@@	2
脷	2
狝	2
渑	2
枳	2
楸	2
眈	2
啮	2
喤	2
┝	2
飜	2
擤	2
簦	2
ㄑ	2
阌	2
铆@@	2
嘈@@	2
溧	2
弇	2
蘧	2
缚@@	2
裼	2
潲@@	2
縠	2
嗤	2
160@@	2
2551	2
甸@@	2
酾	2
斌@@	2
擺	2
別	2
缟	2
逯	2
ा	2
則	2
ह	2
म	2
紅	2
ज	2
釭@@	2
त	2
藍	2
┃	2
玗	2
漦	2
貆	2
虺@@	2
燏@@	2
試	2
然後	2
㎞	2
ल	2
呒	2
螭	2
乇	2
戰	2
爭	2
墻	2
庖	2
157@@	2
綫	2
龉	2
浤	2
珰	2
龃@@	2
玳@@	2
诩@@	2
ص	2
捃	2
珐	2
權	2
阍	2
誌	2
楗	2
2552	2
靑	2
2475	2
睺	2
丨	2
珽	2
淠	2
巉	2
車	2
觖	2
駏	2
驉	2
郺	2
掣@@	2
猃@@	2
✔	2
倞	2
闿	2
烁@@	2
壅@@	2
嗯@@	2
笹	2
嗔	2
滂@@	2
喻@@	2
彧@@	2
晏@@	2
霖@@	2
瑢	2
摈@@	2
嬖	2
翬	2
麀	2
聒	2
獠	2
乂	2
桩@@	2
蜓@@	2
锃	2
語	2
埒	2
⊿	2
铪	2
∟	2
苡	2
東	2
㏒	2
領	2
弼@@	2
锜	2
≦	2
卨	2
∥	2
歂	2
ย	2
㏑	2
嘁	2
≧	2
骺	2
∪	2
ㄞ	2
節	2
飖	2
鐡	2
硖	2
ㄢ	2
捎@@	2
㏄	2
ᄊ@@	2
耷@@	2
黝	2
駉	2
極	2
佁	2
臧@@	2
橡	2
￠	2
篾@@	2
僦	2
澌	2
⊥	2
ɛ	2
笞@@	2
孥	2
╋	2
褂@@	2
1526	2
鹦	2
扜	2
╠	2
յ	2
袓	2
հ	2
տ	2
ո	2
ւ	2
掊	2
蛑	2
襃	2
呋@@	2
燔	2
夫卡@@	2
蹑	2
ゥ	2
ม	2
戆	2
⒆	2
沔@@	2
桁	2
蟪@@	2
ר	2
ו	2
ש	2
ל	2
ם	2
椴	2
荵	2
徘	2
膘	2
玳	2
翥	2
蠵	2
羙	2
偌	2
鳟	2
猪笼草	2
澹@@	2
148@@	2
渼	2
枓	2
踽@@	2
馒	2
藷	2
倨@@	2
惴	2
⑮	2
腘@@	2
堉	2
洚	2
荜@@	2
搽@@	2
⑬	2
罅@@	2
唵	2
琮@@	2
眬	2
茑	2
蚺	2
钭	2
燹	2
偰	2
不得	2
栟@@	2
缃	2
械@@	2
瞅@@	2
牁	2
拣@@	2
噱	2
榣	2
摅	2
辺	2
缰@@	2
啭	2
夥	2
贇	2
逡@@	2
1746	2
洵@@	2
裔@@	2
骎	2
殪	2
陞@@	2
痢	2
苫	2
燮@@	2
پ	2
旖	2
鞫	2
蹻	2
䠭	2
䠖	2
蠪	2
铛@@	2
☻	2
犒	2
橚	2
拄	2
畯	2
ヶ	2
缥	2
疖@@	2
鳙	2
轭	2
鲰	2
ｏ	2
黪	2
睹@@	2
幾	2
紥	2
跽	2
讬	2
寤@@	2
ｆ	2
暻	2
簌	2
苤@@	2
酽	2
紮	2
餜	2
ˇ	2
徇	2
卐	2
缫	2
祘	2
簌@@	2
阯	2
寤	2
撝	2
螽@@	2
襜	2
廛	2
酳	2
镏	2
箩@@	2
靬	2
罽	2
遄	2
羹@@	2
窠@@	2
祾	2
笈@@	2
秭	2
暌@@	2
粜	2
蛲	2
ᆸ	2
骟	2
臌@@	2
骒@@	2
蚤@@	2
僮@@	2
庾@@	2
阋	2
∷	2
谌	2
喺	2
嚭	2
猬	2
浿	2
訾	2
谘	2
丏@@	2
⒓	2
圩@@	2
辊	2
锨	2
阈@@	2
∣	2
ᅧ	2
厬	2
餍	2
厱	2
娝	2
婤	2
醺@@	2
洌	2
撺@@	2
纾@@	2
楸@@	2
斲	2
柄@@	2
幂@@	2
蘖	2
鏐	2
仉	2
寖	2
蝼@@	2
隈	2
䠆	2
偎@@	2
讦	2
祚@@	2
後@@	2
煜@@	2
192@@	2
琯@@	2
菙	2
孳	2
颦@@	2
197@@	2
錞	2
觊	2
翳@@	2
怔@@	2
橦	2
撸	2
疴	2
掂	2
ᅪ@@	2
豊	2
彷	2
颊@@	2
گ	2
ز	2
矖	2
裥	2
缁@@	2
鑃	2
謦	2
毎	2
煅	2
玷@@	2
勹	2
蹙@@	2
鱏	2
擀@@	2
検	2
曦@@	2
氲@@	2
旯	2
玓@@	2
屺	2
胼@@	2
牯	2
髭	2
嫈	2
釐	2
糸	2
盩	2
哏	2
畿@@	2
▼	2
侪	2
収	2
衤	2
龇@@	2
旮@@	2
寮@@	2
杼@@	2
醢	2
旳	2
穈	2
缛	2
酗	2
嵊	2
铣@@	2
ξ	2
戮@@	2
嚎@@	2
蒺	2
1634	2
魯	2
皲@@	2
ゝ	2
浒@@	1
亽	1
啷	1
灴	1
珏@@	1
қ	1
甡	1
煊@@	1
瘘	1
慊	1
娭	1
渍@@	1
狯	1
斉	1
嘢	1
鹖	1
磬@@	1
榧	1
讪@@	1
胍	1
積	1
蚓@@	1
忞	1
垉	1
憶	1
馄	1
铓	1
扪@@	1
蠲	1
唎	1
肮	1
簿@@	1
逎	1
夋	1
狙	1
苊	1
嗔@@	1
搀	1
坞@@	1
酄	1
鲭@@	1
ᙦ	1
鲆@@	1
継	1
镔@@	1
桠@@	1
髪	1
挿	1
児	1
遅	1
霊	1
黙	1
亀	1
孬@@	1
哦@@	1
镯@@	1
尴	1
厾	1
ㄍ	1
ˉ	1
沩	1
鲭	1
虮	1
逴	1
阿根@@	1
畧	1
縯	1
﹣	1
墅@@	1
儳	1
邴	1
幷	1
銾	1
镚	1
肀	1
楝	1
狍	1
氂	1
畎	1
皃@@	1
鼢	1
褫@@	1
阼	1
凟@@	1
迓	1
迻	1
籴	1
叽@@	1
戾@@	1
玧@@	1
腼	1
廻	1
沌@@	1
嶋	1
跂	1
･	1
詈	1
⑪	1
⑫	1
⑯	1
舴	1
谰@@	1
鞿	1
1699	1
姱	1
嘀	1
蕞	1
瘐	1
艹	1
郷	1
搡	1
鲅	1
匳	1
惣	1
檎	1
馏@@	1
矼	1
聱	1
巻	1
姫	1
昀@@	1
曩	1
篷@@	1
运会	1
藓@@	1
呙	1
蠔	1
ร	1
ก	1
แ	1
ห	1
箔@@	1
怖@@	1
锚@@	1
槛@@	1
茹@@	1
町@@	1
晌@@	1
撵@@	1
126@@	1
剅	1
禶	1
黼	1
禔	1
瑗@@	1
颎	1
湝	1
饷@@	1
莴	1
懤	1
蚨	1
ｑ@@	1
泅	1
拮	1
不久	1
檥	1
浈@@	1
韂	1
偾	1
綄	1
苁@@	1
ع	1
苽	1
攥	1
獾@@	1
佝	1
ᅲ@@	1
钖	1
舔@@	1
徏	1
皕	1
菖	1
璾	1
劓	1
刖	1
┤	1
沄	1
舯	1
茬	1
忿@@	1
┘	1
┴	1
┐	1
飕@@	1
┌	1
皈	1
擣	1
渟	1
自由@@	1
瞮	1
辇@@	1
蓊	1
矽@@	1
盫	1
豢@@	1
廼	1
砩	1
袴	1
饔	1
豰	1
癔@@	1
蜉	1
铼	1
蚍@@	1
俬	1
吲	1
呋	1
擿	1
蠊	1
亠	1
烔	1
揠	1
艠	1
咠	1
猨	1
慱	1
驭@@	1
瞍	1
1757	1
菀@@	1
砧	1
仮	1
箝@@	1
藿@@	1
ㄏ	1
ㄤ	1
垞@@	1
垞	1
黐	1
鬈@@	1
鲩	1
醣@@	1
胨	1
疥@@	1
丿	1
熺@@	1
珑@@	1
腘	1
蚰@@	1
疝	1
鲮	1
抟@@	1
缐	1
劢	1
袷@@	1
袢	1
椪@@	1
譲	1
432	1
妗	1
様	1
偓	1
ｎ	1
ｙ	1
拉丁@@	1
碙	1
疖	1
炻	1
姒@@	1
圹	1
鸥@@	1
礠	1
栻	1
绨	1
仠	1
蠹@@	1
ㄘ	1
槑	1
苚	1
眘	1
粳@@	1
ぃ	1
蛏	1
2556	1
璟@@	1
鎭	1
鈊	1
硗	1
婀	1
籼@@	1
岀	1
猢@@	1
滃	1
虠	1
麑	1
狻	1
扠	1
蒍	1
尠	1
駰	1
榍	1
蠕	1
埝	1
庵@@	1
潕	1
硭@@	1
2522	1
琬@@	1
菮	1
銍	1
獮	1
艅	1
黜@@	1
谂	1
疔@@	1
瀍@@	1
蒎	1
復	1
锒@@	1
鞮	1
駄	1
〒	1
広	1
鍀	1
夌@@	1
珂@@	1
乩	1
髭@@	1
飨@@	1
秾	1
掼	1
霎	1
賈	1
靜@@	1
猱	1
滾	1
雋@@	1
彥@@	1
澀	1
栢@@	1
陳	1
蕊@@	1
轹	1
腭@@	1
楶	1
畤	1
偁	1
扞	1
摈	1
挈@@	1
秫@@	1
攵	1
唰	1
墒@@	1
锘	1
掇@@	1
惦	1
焅	1
2524	1
么@@	1
ས	1
慓	1
钛@@	1
讵	1
ヽ	1
氹	1
癔	1
齢	1
堾	1
栳	1
栲	1
啜@@	1
鏊	1
恹	1
栯	1
毠	1
狶	1
盥	1
滢@@	1
枹	1
嘞	1
琱	1
褎	1
権	1
浄	1
顸	1
颟@@	1
掮@@	1
簑	1
庅	1
勑	1
恹@@	1
谰	1
晢	1
柢	1
锔	1
劚	1
鹨	1
纻	1
鼷	1
鹧	1
鈶	1
刬	1
嗬	1
渫	1
撅	1
诳@@	1
翙	1
纰	1
糨@@	1
栿	1
箦	1
艎	1
恻@@	1
ต	1
ค	1
‚	1
耱	1
遘	1
浄@@	1
峕	1
滈	1
潏	1
聆	1
鼾	1
盍	1
骘	1
剀@@	1
鲶	1
赝@@	1
嫚	1
蔵	1
ｊ@@	1
ß	1
悻	1
悻@@	1
惕@@	1
茬@@	1
怄@@	1
佗@@	1
楝@@	1
忼@@	1
沚	1
涘	1
蝤@@	1
荑	1
漾@@	1
糠@@	1
羣	1
痹@@	1
疒	1
箝	1
廨	1
踝@@	1
舊	1
標	1
進	1
駐	1
願	1
費	1
釋	1
勨	1
題	1
錢	1
糾@@	1
紛	1
揮	1
擁	1
員	1
記	1
種	1
顏	1
組	1
眥	1
侥	1
1547	1
嘣	1
喔@@	1
僔	1
秼	1
鳊	1
問	1
砜	1
彃	1
焓	1
赅@@	1
姤	1
叵@@	1
揺	1
眚	1
亟	1
夬	1
闆	1
蒝	1
墟@@	1
酦	1
赕	1
業	1
塩	1
將	1
遷	1
黦	1
經	1
滿	1
藿	1
厓@@	1
區	1
鄰	1
瘢@@	1
陸	1
荏@@	1
覩	1
攟	1
貮	1
ե	1
荭	1
莕	1
թ	1
պ	1
ր	1
ի	1
ս	1
箠	1
2520	1
査	1
138@@	1
雳@@	1
逄	1
菫	1
榶	1
腚@@	1
疳@@	1
栥	1
迠	1
堔	1
瘢	1
一样	1
褚@@	1
厍	1
卍	1
錵	1
垆	1
堓	1
诮	1
杳@@	1
←	1
1920@@	1
168@@	1
嗪	1
彳	1
堗	1
囮	1
佶@@	1
垵	1
☎	1
ᅪ	1
淸	1
镦	1
疔	1
僚@@	1
缸@@	1
銹	1
垸	1
賁@@	1
準	1
龚@@	1
喰	1
簡	1
蛹@@	1
鳖@@	1
2533	1
醌	1
券@@	1
酝	1
隞	1
剽	1
芨	1
苄@@	1
獬	1
劼	1
趔	1
頵	1
鬐	1
鳓@@	1
磴	1
嚓@@	1
跬	1
趔@@	1
颡	1
麹	1
毦	1
眊@@	1
煓	1
荅	1
咿@@	1
秆@@	1
铊	1
坼	1
孆	1
晹	1
髑@@	1
荏	1
璎	1
歩@@	1
樫	1
寯	1
岧	1
吚	1
囗	1
弛@@	1
樹	1
恛	1
儗	1
帼@@	1
虓	1
擽	1
灺	1
淯	1
巓	1
2525	1
哕	1
❥	1
2536	1
ㄊ	1
ㄥ	1
宨	1
灨	1
醩	1
矽	1
哞	1
翌	1
ㄎ	1
ㄐ	1
ㄝ	1
忖@@	1
鲱@@	1
昝	1
瞥@@	1
㊣	1
烝	1
醍	1
撂@@	1
璞@@	1
蹑@@	1
怏	1
铦	1
艴	1
怫	1
岧@@	1
惝	1
欹	1
飐	1
1619	1
磙	1
蛱	1
呌	1
鲠	1
鰲	1
诼	1
缤	1
圊	1
愦	1
昺@@	1
爨	1
溷	1
祿	1
雫	1
⒔	1
苶	1
锵@@	1
纩	1
趑@@	1
韝	1
喈	1
旆	1
悫@@	1
洸	1
窹	1
徬	1
翚	1
吆	1
蓸	1
鲿	1
⒕	1
⒖	1
岨	1
⒗	1
柝	1
盬	1
騑	1
甍	1
嬗	1
眄	1
觫	1
蹯	1
穼	1
溍	1
煐	1
殭	1
咻@@	1
烃@@	1
嬽	1
ᅣ@@	1
辄@@	1
镞	1
罡@@	1
増	1
圧	1
竜	1
咣@@	1
炘@@	1
啐	1
斶	1
墁	1
邅	1
臃	1
栃	1
埗	1
滘	1
痼@@	1
嫰	1
谲@@	1
爿	1
觇	1
2532	1
罟	1
茛	1
圌@@	1
崀@@	1
173@@	1
蜯	1
捋	1
蜟	1
勔	1
筇@@	1
蓏@@	1
蓏	1
倅	1
黉@@	1
2561	1
吽	1
蹬@@	1
嗒	1
砰@@	1
鬈	1
尗	1
缨@@	1
仝@@	1
轸@@	1
猢	1
沏	1
捩@@	1
赟@@	1
ᆹ	1
険	1
旸	1
矍	1
跩	1
腱@@	1
蒿@@	1
仞@@	1
郾	1
趵	1
喙@@	1
畯@@	1
锾	1
籘	1
飓	1
玠@@	1
篸	1
鮭	1
嗾	1
張	1
嶰	1
鲷@@	1
麇@@	1
虷	1
阒	1
茏@@	1
洫	1
鼃	1
甃	1
墒	1
葅	1
臛	1
驩	1
跱	1
敔	1
宄	1
絷	1
獽	1
賨	1
赊@@	1
芗	1
熲	1
锸	1
禤	1
洖@@	1
檐@@	1
踘	1
鞥	1
殛	1
習	1
鱰	1
鈅	1
鷟	1
荛	1
纡@@	1
慣	1
蓦	1
龁	1
紵	1
獳	1
萸@@	1
饣	1
傜	1
芼	1
1702	1
彠	1
駧	1
溏	1
锑@@	1
阝@@	1
蕤	1
弅	1
寘	1
齑	1
寳	1
褴	1
怙	1
儁	1
荸	1
﹢	1
斝	1
裆@@	1
驊	1
戢	1
朒	1
鑯	1
佘@@	1
庋	1
祗@@	1
鱽	1
氡	1
彡	1
鸩@@	1
苖	1
镔	1
抪	1
銎	1
螬	1
蛴@@	1
缬	1
戕@@	1
彀@@	1
碥	1
歡	1
鄠	1
瑨@@	1
摛	1
筯	1
抻@@	1
1541	1
十一@@	1
捅@@	1
笤	1
轺	1
眈@@	1
櫑	1
騄	1
祧	1
铟	1
禺@@	1
胛@@	1
昻	1
郯	1
诟	1
镪	1
荛@@	1
蹰	1
踟@@	1
铚@@	1
莨@@	1
弁@@	1
晛	1
菪@@	1
哓@@	1
姵@@	1
锼	1
ぁ	1
気	1
岢@@	1
虼	1
瘊	1
瘙	1
紘	1
绲	1
锳	1
揲	1
喑@@	1
鄜	1
鏊@@	1
槱	1
蹓	1
逭	1
镣@@	1
髴	1
挲	1
佢	1
щ	1
蠍	1
噴	1
┟	1
暦	1
鹑@@	1
鎔	1
禋	1
嗍	1
崴@@	1
嗷@@	1
洈	1
钶	1
ㄓ	1
劘	1
晔@@	1
齮	1
007@@	1
霑	1
犷@@	1
阝	1
⒘	1
磾	1
₩	1
鲅@@	1
虀	1
豿	1
洙@@	1
旼	1
氭	1
氙	1
₡	1
雜	1
籃	1
興	1
齡	1
₠	1
鞌	1
硪	1
尒	1
鄚	1
₢	1
媲	1
藁	1
蕡	1
藁@@	1
鱈	1
镃	1
蓁@@	1
畋	1
錄	1
炜@@	1
長	1
辦	1
說	1
總	1
鑽	1
視	1
蟛	1
軒	1
關	1
氣	1
聽	1
擔	1
岙	1
梼@@	1
匙@@	1
謤	1
詞	1
钊@@	1
巣	1
侉	1
ォ	1
焼	1
啫@@	1
疍	1
捜	1
圯	1
佷	1
嗖@@	1
硙	1
関	1
洇	1
飾	1
楯	1
闿@@	1
稆	1
凼	1
愀	1
缡	1
绂	1
膺@@	1
隣	1
疪	1
號	1
堅	1
荨@@	1
晡	1
榖	1
锔@@	1
媺	1
昪	1
胼	1
祏	1
嗢	1
鞬	1
餗	1
哂@@	1
匄	1
崧@@	1
赕@@	1
嘧@@	1
籓	1
娀	1
盩@@	1
铏	1
漼	1
砫@@	1
绾@@	1
䜣	1
韁	1
嚱	1
嚥	1
馍@@	1
ъ	1
ѣ	1
胘	1
鴥	1
搠	1
廹	1
囲	1
獠@@	1
杬	1
塍	1
豚@@	1
崿	1
祐@@	1
ユ	1
尢@@	1
檬@@	1
仵	1
佔	1
灣	1
斷	1
壟	1
樂	1
遨	1
枳@@	1
涞	1
驷	1
赜	1
晧	1
競	1
坹	1
坭	1
晗@@	1
苁	1
羰@@	1
黹	1
鷙	1
葜	1
痊	1
戽@@	1
鋬	1
鵣	1
導	1
稱	1
臫	1
榣@@	1
逑@@	1
筐@@	1
宀	1
豀	1
筩	1
猔	1
庖@@	1
啲	1
潴@@	1
┆	1
嵒	1
議	1
讓	1
無	1
痧	1
皝	1
鳆	1
榱	1
偵	1
菼	1
噎@@	1
踟	1
沵	1
菇@@	1
鼔	1
撺	1
旊	1
觌@@	1
鉏	1
鲋	1
缻	1
禳@@	1
茡	1
莅@@	1
異	1
熱	1
爲	1
怄	1
垨	1
葙	1
觔	1
楅	1
诌	1
茺	1
犊@@	1
庁	1
臊@@	1
畹	1
窀	1
暾	1
敫	1
谶	1
僇	1
剌@@	1
孀@@	1
晼	1
姈	1
俞@@	1
遛@@	1
鈺	1
枼	1
亻	1
栘	1
埇@@	1
呻	1
碶	1
+@@	1
俎@@	1
彶	1
媱	1
黥@@	1
璁	1
煦@@	1
廑	1
罥	1
ζ	1
ه	1
ϒ	1
忉	1
咁	1
唻	1
琲	1
邲	1
哽	1
ј	1
妀	1
跞	1
诫@@	1
珥@@	1
缦	1
漶	1
觇@@	1
爫	1
埵	1
╲	1
窳@@	1
宔	1
礅	1
鬪	1
茍	1
瘃	1
娈@@	1
溫	1
繞	1
轉	1
動	1
跡	1
軌	1
間	1
園	1
狀	1
搖	1
賞	1
華	1
麗	1
織	1
謂	1
爛	1
燦	1
卻	1
犼	1
谛@@	1
蛞@@	1
態	1
實	1
勁	1
臘	1
預	1
惱	1
懊	1
頗	1
邊	1
結	1
測	1
淅	1
浡	1
钣@@	1
婥	1
垡	1
‿	1
応	1
辎	1
凵	1
從	1
側	1
隨	1
閃	1
頂	1
